"<unk>"	0
<s>	0
</s>	0
▁#	-3.93849
▁에	-4.13341
▁이	-4.13376
▁.	-4.20423
▁가	-4.37643
▁?	-4.38605
▁을	-4.70062
@	-4.73288
▁나	-4.89511
▁도	-4.9573
▁안	-5.03475
▁를	-5.07874
▁는	-5.10099
▁은	-5.17012
▁한다	-5.22347
▁..	-5.24093
▁다	-5.26952
▁아	-5.34385
▁이름	-5.38404
▁...	-5.41362
▁하고	-5.44338
▁한	-5.45236
▁고	-5.57799
▁에서	-5.58382
▁것	-5.60872
▁로	-5.61051
▁ᄏᄏᄏ	-5.61198
▁거	-5.62681
▁	-5.6407
▁내	-5.6667
▁들	-5.72942
▁ᄏᄏ	-5.75462
▁만	-5.82392
▁그	-5.82836
▁근데	-5.83259
▁진짜	-5.85943
▁말	-5.85997
▁잘	-5.86843
▁ᄏᄏᄏᄏ	-5.87389
▁오늘	-5.87509
▁으로	-5.94902
▁야	-5.97198
▁사진	-5.98846
▁못	-5.99313
▁집	-6.00109
▁??	-6.00814
▁!	-6.0388
▁뭐	-6.03917
▁사람	-6.04455
▁너무	-6.05853
▁때	-6.07725
▁너	-6.09128
▁ᅲᅲ	-6.16163
▁해	-6.16376
▁지	-6.1696
▁시스템	-6.17614
▁있다	-6.17623
▁서	-6.17893
▁더	-6.18301
▁해서	-6.18932
▁난	-6.20666
시	-6.20769
▁ᄏᄏᄏᄏᄏ	-6.21795
▁이야기	-6.22608
▁랑	-6.27345
▁지금	-6.27386
▁왜	-6.27417
▁ᅲ	-6.27845
▁좀	-6.28852
▁와	-6.29695
▁개	-6.33231
▁게	-6.35374
▁의	-6.36443
▁(	-6.37426
▁네	-6.38027
▁오	-6.38312
▁그냥	-6.38506
▁)	-6.39403
▁~	-6.39456
▁저	-6.40876
▁나도	-6.42945
▁할	-6.4297
▁하	-6.44742
▁일	-6.44833
▁아니	-6.45963
▁엄마	-6.46594
▁ᄒᄒ	-6.47499
▁응	-6.51678
▁생각	-6.5315
▁그럼	-6.53375
▁우리	-6.54713
▁언니	-6.54789
▁ᄏᄏᄏᄏᄏᄏ	-6.55083
▁많이	-6.55981
▁하는	-6.57015
▁웅	-6.59302
▁두	-6.60741
▁ᄏ	-6.63672
▁까지	-6.64438
▁어	-6.64547
▁이모티콘	-6.66064
▁면	-6.67259
▁중	-6.68386
▁그거	-6.68874
▁1	-6.70517
▁먹고	-6.70961
▁!!	-6.7111
▁내일	-6.72392
▁돈	-6.72439
▁,	-6.73214
▁같이	-6.73836
▁시간	-6.74194
▁봐	-6.74576
▁2	-6.74659
▁했다	-6.75295
▁수	-6.75347
▁라고	-6.76577
▁라	-6.77077
▁인데	-6.77384
▁하면	-6.79556
▁요	-6.81363
▁니	-6.82371
▁이야	-6.82566
▁헐	-6.831
▁또	-6.83121
▁....	-6.83665
▁이제	-6.83919
▁밥	-6.86206
▁한테	-6.87331
▁ᅮᅮ	-6.87488
▁ᄏᄏᄏᄏᄏᄏᄏ	-6.87618
고	-6.87771
▁하나	-6.88249
▁ᄒ	-6.89333
▁여	-6.89561
▁하자	-6.90467
▁보고	-6.90708
▁3	-6.90919
▁이랑	-6.91984
▁친구	-6.92661
일	-6.92933
▁대해	-6.93774
▁이다	-6.9487
▁전	-6.9754
▁그래서	-6.98996
▁인	-7.00579
▁맛	-7.00624
▁기타	-7.01098
▁애	-7.01445
▁어제	-7.02394
▁걸	-7.04482
▁주	-7.04558
▁그래	-7.04904
▁과	-7.05937
분	-7.07269
▁부터	-7.07499
▁사	-7.07587
▁구	-7.0791
▁했는데	-7.08239
▁가서	-7.09263
▁ᅮ	-7.09601
▁자기	-7.12612
▁알	-7.13359
만	-7.1354
▁이라	-7.1361
▁아직	-7.14131
▁자	-7.14423
ᄏᄏᄏᄏᄏᄏᄏᄏᄏᄏᄏᄏᄏᄏᄏᄏ	-7.14646
▁같아	-7.15264
▁정도	-7.16576
▁ᄏᄏᄏᄏᄏᄏᄏᄏ	-7.16976
▁,,	-7.17201
▁엉	-7.17518
▁님	-7.17965
▁함	-7.20227
▁하는데	-7.21801
▁대	-7.22646
▁저녁	-7.23162
▁날	-7.23503
▁거기	-7.23801
▁~~	-7.2397
▁비	-7.24854
▁이번	-7.2495
▁그런	-7.25187
▁돼	-7.25282
▁5	-7.25472
▁다른	-7.25831
▁살	-7.26786
▁그래도	-7.26847
▁맞아	-7.27302
▁있는	-7.27477
월	-7.2754
▁엄청	-7.28525
▁햇	-7.28771
▁원	-7.29255
▁다시	-7.29541
도	-7.29658
▁제	-7.29698
▁적	-7.30457
▁걍	-7.31279
▁시	-7.31393
▁응응	-7.3154
▁보다	-7.32458
▁넘	-7.32517
▁해야	-7.33754
▁먹어	-7.34308
▁???	-7.35028
▁ᄋᄋ	-7.35031
▁니까	-7.35179
▁데	-7.35425
▁머	-7.35653
▁어디	-7.35726
▁10	-7.37936
▁번	-7.38208
▁ᄏᄏᄏᄏᄏᄏᄏᄏᄏ	-7.38698
▁곳	-7.39699
▁에게	-7.39849
▁계속	-7.3985
▁몇	-7.39896
▁4	-7.40021
▁오빠	-7.41329
▁일단	-7.4159
▁빨리	-7.4246
▁아빠	-7.43353
▁한번	-7.43523
▁..?	-7.44656
▁있어	-7.44708
▁얘기	-7.44752
▁이라고	-7.4501
▁요즘	-7.45092
▁차	-7.45407
▁머리	-7.4665
▁갈	-7.47492
▁줄	-7.47551
▁하니	-7.47626
▁달라	-7.47759
▁고민	-7.48064
▁기	-7.48513
▁!!!	-7.49411
▁언제	-7.49863
▁때문	-7.50234
▁옷	-7.50296
▁바로	-7.50419
▁없어	-7.52348
▁써	-7.52474
▁는데	-7.52538
▁아침	-7.53005
▁무슨	-7.53227
▁반	-7.53608
▁웅웅	-7.53896
는	-7.54253
▁임	-7.54739
▁엔	-7.54928
▁회사	-7.55411
▁에는	-7.56022
▁혼자	-7.56468
▁ᅲᅲᅲ	-7.57756
▁,,,	-7.58502
▁달	-7.59181
▁이나	-7.59732
원	-7.59751
▁여기	-7.60128
▁공부	-7.60402
▁바	-7.61027
▁낼	-7.61879
▁다음	-7.61888
▁래	-7.62482
▁같은데	-7.62855
▁하지	-7.62978
▁6	-7.63315
▁한다고	-7.63801
▁좋아	-7.64184
지	-7.64448
▁명	-7.64962
▁같다	-7.65446
▁했어	-7.65941
▁원래	-7.66043
▁ᄏᄏᄏᄏᄏᄏᄏᄏᄏᄏ	-7.66372
▁같은	-7.66631
▁인가	-7.66893
▁운동	-7.66936
가	-7.67184
▁음	-7.6803
▁없어서	-7.68556
▁앞	-7.68889
▁간다	-7.69002
▁그렇게	-7.69039
▁그게	-7.69197
▁냐	-7.69554
▁막	-7.6957
▁^^	-7.69608
년	-7.70084
▁눈	-7.70827
▁병원	-7.71427
▁도착	-7.71607
요	-7.72024
▁보	-7.72638
▁대박	-7.72986
▁올	-7.73397
▁좋은	-7.73432
▁갑자기	-7.73912
▁완전	-7.74339
▁카페	-7.75112
▁별로	-7.75871
▁연락	-7.7605
▁8	-7.76089
▁버스	-7.76137
만원	-7.76639
▁가면	-7.76989
▁후	-7.7712
▁7	-7.77473
▁흑	-7.77789
▁ᄏᄏᄏᄏᄏᄏᄏᄏᄏᄏᄏ	-7.7862
▁점심	-7.78733
▁그니까	-7.78926
▁이런	-7.7926
▁있는데	-7.79266
▁하루	-7.79502
▁세	-7.79559
▁배	-7.79981
▁쯤	-7.81033
▁따	-7.81153
▁일찍	-7.81728
▁ᄒᄒᄒ	-7.8199
▁있어서	-7.82109
▁그건	-7.82326
▁전화	-7.82719
▁옹	-7.82971
▁다행	-7.83042
▁가는	-7.83555
▁약	-7.84113
▁와서	-7.84182
▁느낌	-7.84776
▁술	-7.85639
게	-7.8571
▁퇴근	-7.86514
▁방	-7.86644
▁그때	-7.87114
▁뭔	-7.87423
▁같다고	-7.88547
▁얼마	-7.88743
거	-7.89137
▁검색	-7.90046
▁볼	-7.90181
▁장	-7.90402
▁그리고	-7.90466
▁아아	-7.90533
▁이네	-7.90825
▁나중	-7.91163
▁30	-7.91484
▁영화	-7.92017
다	-7.92024
▁건	-7.92372
▁어떻게	-7.92658
▁시험	-7.93179
▁글	-7.93213
▁아냐	-7.93831
▁그치	-7.93946
▁물	-7.94412
▁하면서	-7.94822
▁꺼	-7.9504
▁9	-7.95937
▁밖에	-7.96168
▁걱정	-7.962
▁이고	-7.97024
▁아님	-7.9711
▁엥	-7.97447
▁히	-7.9761
▁가야	-7.98379
▁먹을	-7.98757
▁처럼	-7.98775
▁조금	-7.98888
▁동생	-7.99062
▁딱	-7.9931
▁저번	-7.99317
▁이렇게	-7.99463
▁.....	-7.99886
▁맨날	-7.99966
▁보면	-8.00276
▁엇	-8.00278
▁해도	-8.00495
▁뭔가	-8.00517
▁출근	-8.00812
▁가격	-8.00889
▁거의	-8.01506
▁하며	-8.01521
▁당	-8.01828
▁둘	-8.01837
▁ᅳᅳ	-8.02345
▁잠	-8.02546
▁몰라	-8.02582
▁씩	-8.02726
▁모	-8.03458
나	-8.04119
▁정말	-8.04699
▁가지	-8.04792
▁징	-8.05591
▁뎅	-8.05682
▁12	-8.05923
이	-8.06006
▁준비	-8.0604
▁울	-8.06106
▁주말	-8.06395
▁언	-8.06538
▁ᄏᄏᄏᄏᄏᄏᄏᄏᄏᄏᄏᄏ	-8.06724
▁...?	-8.07121
▁학교	-8.0714
▁꼭	-8.07321
▁ᄋ	-8.07415
▁에도	-8.07531
▁가고	-8.07911
▁마음	-8.08194
▁오키	-8.08216
▁말고	-8.08381
▁알바	-8.08384
▁일이	-8.08765
▁삼	-8.08908
▁아니면	-8.0935
▁같	-8.09351
▁듯	-8.09501
▁넹	-8.09528
▁커피	-8.09575
▁코로나	-8.10326
▁아무	-8.1049
▁있다고	-8.10739
▁하기	-8.10824
▁카드	-8.11172
▁위	-8.11247
▁기분	-8.11317
▁쪽	-8.11484
▁치킨	-8.11523
▁노래	-8.11585
▁여행	-8.12138
▁디	-8.12236
▁ᅲᅲᅲᅲ	-8.12824
▁가기	-8.12832
▁문제	-8.12886
▁오래	-8.13491
▁소리	-8.13511
구	-8.136
▁이지	-8.1364
▁조	-8.1375
▁간	-8.13782
▁타고	-8.14203
▁헉	-8.14227
▁20	-8.14728
서	-8.14746
▁자리	-8.14747
▁쓰	-8.14937
▁선물	-8.15042
▁처음	-8.15108
▁들어	-8.1514
▁남자	-8.15703
해	-8.16051
▁열	-8.17256
▁몸	-8.17339
▁없다	-8.17876
▁마	-8.18333
▁~~~	-8.1845
▁문	-8.18585
▁마스크	-8.18598
▁11	-8.18604
▁온	-8.19059
▁사고	-8.19063
▁타	-8.19142
▁카톡	-8.19147
▁얼굴	-8.19219
시간	-8.19499
▁같아서	-8.19505
▁감	-8.19639
▁했다고	-8.19786
▁어떤	-8.20407
자	-8.2075
▁입	-8.20858
기	-8.21074
▁봄	-8.21123
▁겨	-8.2133
▁시작	-8.22
▁수업	-8.22436
▁분	-8.22533
▁유	-8.22696
▁있고	-8.23626
▁책	-8.23726
▁제일	-8.23942
▁맘	-8.24008
▁벌써	-8.24233
▁되면	-8.24368
▁중이	-8.24705
▁추천	-8.24721
▁손	-8.25098
▁라서	-8.251
▁본	-8.25173
▁인지	-8.25369
▁예약	-8.25382
▁이미	-8.25575
▁먹는	-8.25793
▁좋다	-8.26019
▁약간	-8.26105
▁서울	-8.26134
▁아하	-8.26653
▁된	-8.26659
▁상대	-8.27081
대	-8.27153
며	-8.27247
▁날씨	-8.27972
▁짱	-8.2803
▁확인	-8.28303
▁밤	-8.28368
▁팔	-8.2842
▁옆	-8.28591
▁기억	-8.28809
▁앜	-8.29112
▁뒤	-8.29442
▁먹	-8.2945
▁정	-8.29474
▁먹으면	-8.29803
▁주문	-8.30039
▁폰	-8.30399
▁마자	-8.30518
▁양	-8.30585
▁자고	-8.30622
▁열심히	-8.307
▁흠	-8.3102
▁될	-8.31028
어	-8.31108
▁먼저	-8.31181
▁갓	-8.31249
▁티	-8.3166
▁아까	-8.31715
▁담	-8.31967
▁공	-8.32048
▁뭘	-8.32323
▁아니고	-8.32465
▁건가	-8.33009
▁하였다	-8.33376
▁된다	-8.33495
▁않아	-8.33568
▁점	-8.33921
▁큰	-8.34443
▁하려고	-8.34775
▁용	-8.34973
▁생일	-8.35347
▁겁나	-8.35347
▁ᄏᄏᄏᄏᄏᄏᄏᄏᄏᄏᄏᄏᄏ	-8.35474
▁혹시	-8.356
▁누가	-8.35729
▁없는	-8.36102
▁이래	-8.36131
▁있으면	-8.36277
▁화	-8.36658
▁!!!!	-8.36866
▁하지만	-8.37024
▁앙	-8.37105
▁위해	-8.37141
▁짐	-8.37148
▁되는	-8.37357
▁출발	-8.37477
▁먹으러	-8.37704
▁신	-8.37905
▁누나	-8.3798
▁사실	-8.38077
▁늦게	-8.38158
▁남	-8.38243
▁?!	-8.38383
▁싶다	-8.3858
▁하니까	-8.38613
▁무	-8.38954
▁대화	-8.38966
▁하는거	-8.39174
▁빵	-8.39455
▁근	-8.3952
▁성	-8.39697
▁예	-8.39946
▁아주	-8.40762
▁라면	-8.40884
▁누구	-8.4171
▁넌	-8.41728
▁키	-8.41871
▁그런거	-8.41918
▁사서	-8.41984
▁런가	-8.42011
▁할인	-8.42688
▁휴	-8.42836
▁된다고	-8.43391
▁마다	-8.43415
▁봤는데	-8.4345
▁약속	-8.43703
▁하게	-8.43761
니	-8.43871
방	-8.43967
▁없고	-8.44046
▁별	-8.44142
▁자꾸	-8.44156
▁까	-8.44985
안	-8.45084
▁결제	-8.45161
▁어때	-8.4544
▁그것	-8.45565
▁신청	-8.46037
▁우	-8.46067
▁오면	-8.46093
▁얼마나	-8.46269
▁소	-8.46372
▁하다가	-8.46378
▁아니야	-8.46442
▁해야지	-8.46776
▁끝	-8.46954
▁;;	-8.47144
▁산	-8.4718
▁했	-8.47463
▁어차피	-8.478
▁됨	-8.47973
▁역시	-8.47974
▁목	-8.48195
▁고생	-8.48395
▁취소	-8.48632
▁톡	-8.48644
▁되는데	-8.49178
▁음식	-8.49184
긴	-8.4925
▁색	-8.49474
▁백	-8.49545
▁토요일	-8.49784
▁쓰고	-8.50037
▁옴	-8.50292
▁먹기	-8.50481
▁게임	-8.50541
▁아니라	-8.51247
▁없	-8.52216
▁미리	-8.52263
▁고기	-8.52309
▁팀	-8.52348
▁께	-8.52361
▁방금	-8.52506
오	-8.52672
▁식	-8.52992
▁동안	-8.53333
▁쉬	-8.53545
▁입고	-8.53615
▁시켜	-8.53743
▁귀	-8.53928
여	-8.54024
▁수도	-8.54187
▁으	-8.54224
▁여자	-8.54295
▁끼	-8.5433
▁젤	-8.54349
▁길	-8.54597
▁많아서	-8.55295
▁받아	-8.55474
▁씨	-8.55525
▁속	-8.55765
▁새	-8.55899
▁왔는데	-8.5603
▁든	-8.56265
▁ᄏᄏᄏᄏᄏᄏᄏᄏᄏᄏᄏᄏᄏᄏ	-8.56311
▁싶다고	-8.56435
▁가자	-8.5645
▁상	-8.56473
▁그러면	-8.56601
▁없다고	-8.56692
▁마지막	-8.56782
▁금요일	-8.56834
▁주고	-8.56856
▁이라서	-8.56911
▁정리	-8.57063
▁냄새	-8.57068
▁잇어	-8.57173
▁잇	-8.57643
▁떠	-8.57949
▁진심	-8.58061
▁가게	-8.58145
▁알려	-8.5851
▁보기	-8.58719
▁나서	-8.58833
▁떡볶이	-8.59113
▁가방	-8.59145
▁보는	-8.59352
▁예전	-8.59414
▁영	-8.59423
▁연	-8.59448
▁하러	-8.59473
▁할까	-8.59503
▁학원	-8.59739
▁보내	-8.59826
▁발	-8.59959
▁인터넷	-8.60179
▁급	-8.60203
▁돼서	-8.60427
▁자주	-8.60695
▁곧	-8.60879
▁????	-8.60914
▁갔다	-8.61304
▁결혼	-8.61334
▁근처	-8.61394
▁많아	-8.61527
▁받고	-8.61841
▁짜	-8.61874
▁난리	-8.61965
▁어디서	-8.6201
사	-8.62181
▁오라	-8.62555
▁어케	-8.62641
▁싸	-8.63015
▁면접	-8.63034
▁나이	-8.63305
▁핸드폰	-8.63308
▁구매	-8.63438
▁자신	-8.63548
▁놀러	-8.63618
▁있	-8.63709
▁스트레스	-8.63806
▁웃겨	-8.63877
▁아녀	-8.63886
▁단	-8.6412
▁ᅦ	-8.64126
▁이따	-8.64161
▁얼른	-8.6423
▁이면	-8.64314
▁미친	-8.64324
라	-8.64589
▁;	-8.64799
▁없이	-8.65203
▁좋지	-8.65516
▁안나	-8.65559
▁바지	-8.6578
▁보러	-8.65982
▁괜찮아	-8.66044
▁그러게	-8.66136
▁아이	-8.66222
는데	-8.66481
▁새로	-8.66488
야	-8.66558
▁좋	-8.66663
▁라는	-8.66718
▁보니	-8.66875
▁걔	-8.67123
데	-8.6734
▁피	-8.67474
진	-8.67542
▁저기	-8.6757
▁답	-8.67587
▁나와서	-8.67889
▁배달	-8.67925
▁하라	-8.68161
▁참	-8.68642
▁되	-8.6879
네	-8.68835
▁얌	-8.69021
▁이상	-8.69508
아	-8.69845
▁불	-8.70155
▁먹어서	-8.70205
▁U	-8.70668
면	-8.70741
▁웃기	-8.70841
▁ᄒᄒᄒᄒ	-8.70958
▁지하철	-8.71016
▁번호	-8.71283
▁새벽	-8.71453
▁챙겨	-8.71635
▁드라마	-8.71665
▁아직도	-8.7178
▁층	-8.71785
▁겨울	-8.71826
▁되지	-8.7226
▁가봐	-8.72276
▁아마	-8.72286
RL	-8.72408
▁좋다고	-8.72682
▁있을	-8.72783
▁하기로	-8.72815
▁거지	-8.72909
▁않고	-8.73128
▁되고	-8.73244
▁여름	-8.73455
▁ᄏᄏᄏᄏᄏᄏᄏᄏᄏᄏᄏᄏᄏᄏᄏ	-8.73551
▁서로	-8.73582
▁없는데	-8.73683
▁가자고	-8.73806
▁피자	-8.73815
▁마니	-8.73857
▁사랑	-8.74074
▁한국	-8.74139
▁애기	-8.74321
▁동	-8.74337
▁금방	-8.7436
▁미	-8.74556
▁노	-8.74812
▁택배	-8.74961
▁여서	-8.75347
▁요새	-8.7553
▁코	-8.75567
▁오는	-8.76069
▁이런거	-8.7622
▁15	-8.76355
▁부탁	-8.76537
▁화장실	-8.76561
▁되게	-8.7658
▁형	-8.76705
▁가족	-8.76988
▁안해	-8.77076
▁할게	-8.77139
▁부산	-8.77161
▁매	-8.77224
▁싶어	-8.77445
▁있음	-8.78164
▁갈까	-8.78536
▁하구	-8.78586
▁이유	-8.78655
▁......	-8.78885
▁최고	-8.78956
▁교수	-8.78988
▁사장	-8.79058
▁좋겠다	-8.79224
▁얘	-8.79288
▁했더니	-8.793
▁바람	-8.79303
▁50	-8.79567
▁ᅲᅲᅲᅲᅲ	-8.79671
▁거리	-8.80111
▁잉	-8.8029
▁할거	-8.80315
▁싶은데	-8.80503
▁죠	-8.80622
▁택시	-8.80699
▁라도	-8.80717
▁첨	-8.80888
▁월급	-8.81009
▁먹음	-8.81126
▁월요일	-8.81239
▁세상	-8.81249
▁하다	-8.81275
▁왓	-8.81289
▁이해	-8.81337
▁쌤	-8.81545
▁니깐	-8.8164
▁고양이	-8.81806
▁준	-8.81957
▁움	-8.82227
▁대신	-8.82281
▁지만	-8.82561
▁오오	-8.82622
▁피부	-8.82674
▁강아지	-8.82705
▁다이어트	-8.82839
▁오랜	-8.82883
▁냥	-8.83385
▁실	-8.83423
▁다가	-8.83573
▁김	-8.83653
▁ᄀ	-8.83782
▁낫	-8.84002
▁일주일	-8.8406
▁다리	-8.84124
로	-8.84226
▁금	-8.84441
▁영상	-8.8447
▁있지	-8.84584
스	-8.84701
▁할지	-8.84891
▁꿈	-8.84971
▁카카오	-8.84978
▁사이즈	-8.84983
▁아예	-8.85039
▁왔다	-8.85141
▁파	-8.85174
▁ᄅᄋ	-8.85283
▁따로	-8.85363
▁통	-8.85368
▁들고	-8.85718
▁해줘	-8.85801
▁해봐	-8.8582
▁이건	-8.86134
▁얼	-8.86146
▁조아	-8.86255
▁청소	-8.86466
에	-8.8648
▁같고	-8.865
▁100	-8.86531
▁ᅮᅮᅮ	-8.86536
▁이여	-8.86607
▁맥주	-8.86645
▁40	-8.8667
▁여보	-8.86711
▁탕	-8.87148
▁어쩔	-8.87165
▁이라도	-8.87206
▁찌	-8.87237
▁잠깐	-8.87516
리	-8.87657
▁같은거	-8.87737
▁가능	-8.88051
▁보라	-8.88063
▁낭	-8.88135
▁보험	-8.88165
▁긴	-8.88226
▁휴가	-8.88334
▁끝나고	-8.8843
▁쿠폰	-8.88542
▁며	-8.88588
▁일요일	-8.88792
▁먹지	-8.88797
▁암	-8.88829
▁사용	-8.89343
▁좋은데	-8.89697
▁선생님	-8.89832
▁문자	-8.89893
▁봤어	-8.90076
▁ᄋᄉᄋ	-8.90122
▁배송	-8.90143
▁엿	-8.90335
▁ᄂ	-8.90342
▁편의점	-8.90481
▁싶은	-8.90552
▁검사	-8.9064
▁등	-8.90719
▁리	-8.90799
▁않을까	-8.9081
▁둘다	-8.90935
▁ᅡ	-8.90948
▁만나서	-8.91066
▁밑	-8.91166
▁신발	-8.91171
▁토	-8.91438
하	-8.91545
▁봐서	-8.91618
▁과제	-8.91652
▁그럴	-8.91669
▁밖	-8.91715
▁아닌데	-8.91779
▁확	-8.92007
▁허	-8.92277
▁일본	-8.92479
▁나와	-8.92604
▁맛있어	-8.92755
▁옛날	-8.92792
▁먹었는데	-8.92813
용	-8.92823
▁앗	-8.93143
▁덜	-8.93205
▁맞다	-8.93235
천	-8.9324
▁제주도	-8.93401
▁넣어	-8.93623
▁만들어	-8.93631
▁박	-8.9368
▁ᅳ	-8.93682
▁먹었어	-8.93707
▁쓸	-8.93732
▁예정	-8.94019
지에	-8.94231
▁본인	-8.94327
▁땐	-8.94396
▁0	-8.94434
▁주는	-8.94511
▁싫어	-8.94534
▁운전	-8.94627
▁정신	-8.94821
▁구래	-8.94854
▁무조건	-8.94893
▁재	-8.94917
▁사면	-8.94936
▁없지	-8.95174
▁제발	-8.95518
▁추가	-8.95669
▁어어	-8.95756
인	-8.95798
▁항상	-8.95924
▁아닌	-8.95986
▁상황	-8.96152
▁인정	-8.96445
▁째	-8.96451
▁사려	-8.96607
▁맨	-8.96622
▁그렇지	-8.96895
▁같음	-8.97054
▁사는	-8.9709
▁감기	-8.972
▁스	-8.97508
▁-	-8.97728
것	-8.97756
수	-8.97867
▁왕	-8.97884
▁ᄉ	-8.97903
▁케이크	-8.98333
▁부분	-8.98564
▁쓰는	-8.98613
▁했고	-8.98696
▁관리	-8.9887
▁짜증	-8.98907
▁할머니	-8.98958
▁욕	-8.98972
질	-8.99036
▁아저씨	-8.99112
▁내용	-8.99162
▁보자	-8.99197
▁살이	-8.99352
▁했지만	-8.99353
▁마트	-8.99367
▁동네	-8.99411
▁인거	-8.99438
▁신경	-8.99481
▁놈	-8.99517
▁프로	-8.99589
▁듣고	-8.997
▁오후	-9.00093
▁하네	-9.00097
▁저런	-9.00211
▁내년	-9.00257
▁왔어	-9.00275
▁하는게	-9.00316
▁좋아하는	-9.00356
▁부	-9.00799
▁케	-9.00802
▁영어	-9.00822
▁호텔	-9.00827
▁죽	-9.00844
▁순	-9.01393
▁직원	-9.01422
▁아파	-9.01488
▁이사	-9.01508
▁인스타	-9.01557
▁보통	-9.01735
▁방법	-9.02124
▁있나	-9.02233
▁강	-9.02399
▁기도	-9.02673
▁매일	-9.0282
▁치즈	-9.02862
▁사야	-9.02879
▁인생	-9.02939
▁사이	-9.02953
▁첫	-9.02955
▁누	-9.0303
▁그걸	-9.03316
▁후기	-9.03364
▁믄	-9.03405
▁주소	-9.03624
▁각	-9.03656
▁저렇게	-9.03726
▁년	-9.03744
▁받아서	-9.0377
▁이니까	-9.03802
디	-9.03834
▁중간	-9.04251
▁허허	-9.0435
▁하긴	-9.04371
▁잘못	-9.04684
▁유튜브	-9.04931
▁갔는데	-9.05079
▁보는데	-9.0517
▁아는	-9.05184
▁치	-9.05351
▁항	-9.05376
▁계획	-9.05477
▁맛있는	-9.05732
▁먹자	-9.05842
▁대충	-9.05872
▁제대로	-9.05994
▁포기	-9.06172
▁보이	-9.06211
▁ᄋᄏ	-9.06468
건	-9.06516
▁빼고	-9.06575
▁건지	-9.06711
▁선	-9.06885
▁준다	-9.06947
▁설명	-9.06964
▁가는데	-9.07076
▁갔다가	-9.0712
▁보여	-9.07342
▁김밥	-9.07569
▁먹어야	-9.07742
▁짜리	-9.07925
▁장난	-9.07968
▁궁	-9.0807
▁없음	-9.08404
▁~!	-9.08478
▁오전	-9.08492
▁봣	-9.08659
▁이모	-9.08723
▁먹은	-9.08772
▁고마워	-9.08786
▁나오는	-9.0881
드	-9.08832
▁마라	-9.09058
▁크	-9.09099
▁가입	-9.09117
▁샀는데	-9.09147
▁조심	-9.09259
▁병	-9.09401
▁가끔	-9.0941
▁테	-9.09419
▁닭	-9.09733
▁진	-9.09841
▁없으면	-9.09888
▁회	-9.09996
▁풀	-9.10297
▁숙소	-9.10312
▁군	-9.10326
▁호	-9.10365
▁크림	-9.10538
▁결국	-9.10622
▁오지	-9.10765
▁뿐	-9.10922
▁김치	-9.11167
▁ᄂᄂ	-9.11256
▁가도	-9.11266
▁나온	-9.11274
▁아이폰	-9.11334
▁가려고	-9.11449
▁구경	-9.1147
▁메뉴	-9.1154
▁힘	-9.11573
▁물어보고	-9.11631
▁ᄃ	-9.11722
▁찍어	-9.11802
▁있는지	-9.11948
▁줘	-9.12026
▁+	-9.12153
▁티비	-9.12514
▁수술	-9.12661
줄	-9.12735
▁씻고	-9.13208
▁개월	-9.13239
▁산책	-9.13479
▁쳐	-9.13534
한	-9.13555
▁준다고	-9.13721
▁오호	-9.13754
▁!!!!!	-9.13987
▁차이	-9.14294
▁ᅥ	-9.1436
▁예매	-9.14472
▁싶어서	-9.14571
▁똥	-9.14651
▁그러니까	-9.14657
▁생	-9.14684
▁되어	-9.14707
ᄏᄏᄏᄏᄏᄏᄏᄏᄏᄏᄏᄏᄏᄏᄏ	-9.1475
▁살까	-9.14788
▁상태	-9.15032
▁잖아	-9.15344
▁계란	-9.15347
▁봐야	-9.1568
▁알았어	-9.15967
▁물건	-9.16012
▁봐도	-9.16054
▁차라리	-9.16138
▁역	-9.16149
▁만에	-9.16206
▁스벅	-9.16224
▁관	-9.16251
▁과자	-9.16597
▁놔	-9.16618
▁맞	-9.16647
▁많은	-9.16674
▁줌	-9.16942
▁산다	-9.17021
▁이라는	-9.1718
▁천	-9.17584
▁아르바이트	-9.17696
▁할듯	-9.17699
▁규	-9.18043
▁절대	-9.18077
▁플	-9.18105
▁천천히	-9.18413
음	-9.18499
▁알아서	-9.18565
회	-9.18717
▁진자	-9.18782
▁와우	-9.18865
▁묻고	-9.18972
▁신고	-9.18974
▁비싸	-9.1906
주	-9.19159
▁우린	-9.19237
▁어플	-9.1944
▁에어컨	-9.19868
▁값	-9.1997
보	-9.19998
▁포장	-9.20208
▁네이버	-9.20254
▁컴퓨터	-9.20399
▁눈치	-9.20525
▁드	-9.20583
▁취업	-9.20743
▁편	-9.20943
듯	-9.21015
▁잼	-9.21172
▁일정	-9.2167
▁대로	-9.21697
▁잔	-9.21744
▁좋고	-9.21769
▁기간	-9.21793
▁지인	-9.21941
▁함께	-9.22052
▁먹어도	-9.22073
▁박스	-9.22106
▁이니	-9.22237
▁작년	-9.22262
▁마넌	-9.22563
▁솔직히	-9.22572
▁했지	-9.22594
▁넣고	-9.22687
▁행	-9.2282
▁먹자고	-9.22999
▁강의	-9.23036
▁표	-9.23244
▁~~~~	-9.23247
▁낮	-9.23256
▁침대	-9.23292
▁통화	-9.23293
▁남친	-9.23329
▁딸	-9.23459
▁중국	-9.2349
▁작은	-9.23494
▁,,,,	-9.23529
▁엌	-9.23576
▁귀여워	-9.23668
▁에만	-9.23715
▁했던	-9.23802
▁소속	-9.23872
▁올해	-9.23909
▁직접	-9.23933
▁따라	-9.24183
▁비행기	-9.24189
▁이후	-9.24529
▁해달라고	-9.24587
▁힘들어	-9.24698
▁쟤	-9.24698
▁온다고	-9.24743
▁노트북	-9.24747
▁카	-9.24836
▁홍	-9.24896
▁괜히	-9.24953
▁괜찮은	-9.25099
마	-9.25108
▁초	-9.25237
▁지원	-9.25247
▁권	-9.25299
▁우유	-9.25373
▁쓰면	-9.25433
▁식당	-9.25494
▁튼	-9.25917
▁심	-9.25963
▁생리	-9.25966
▁좋아서	-9.25977
▁허리	-9.26105
▁악	-9.26349
▁에서는	-9.26398
▁먹었다	-9.26422
▁맛있게	-9.26571
▁사무실	-9.26604
▁야근	-9.26705
▁먹구	-9.26892
▁우선	-9.26926
▁ᄋᄋᄋ	-9.26926
니까	-9.27045
▁들어가	-9.27048
▁기사	-9.2717
▁사기	-9.27215
▁목요일	-9.27229
▁무엇	-9.27442
▁왜케	-9.277
소	-9.27752
▁교육	-9.2781
▁여러	-9.27821
▁난다	-9.27892
▁쥐	-9.28035
▁그려	-9.28037
▁나옴	-9.28154
▁스타일	-9.28226
▁선택	-9.28232
▁나가서	-9.28313
▁굿	-9.28325
러	-9.28335
▁암튼	-9.28336
▁맛집	-9.28386
▁볼까	-9.28421
▁하여	-9.28692
▁아파서	-9.28852
▁당근	-9.28925
당	-9.28962
▁종일	-9.29188
▁회식	-9.29191
▁알겠어	-9.29222
▁꽃	-9.29282
▁아닌가	-9.29286
▁봉	-9.293
▁날짜	-9.29353
▁떡	-9.29434
▁건강	-9.29752
▁두고	-9.29825
하고	-9.29947
▁써서	-9.3011
▁입니다	-9.3013
▁싫다	-9.3014
▁사라	-9.30173
▁롯데	-9.30533
▁화장	-9.30553
▁쏘	-9.30794
▁려고	-9.30869
▁매장	-9.31087
▁사러	-9.31234
▁알았는데	-9.31411
▁고구마	-9.31674
▁헤헤	-9.31674
▁케이스	-9.31746
▁인사	-9.31795
▁없네	-9.31912
▁만나기로	-9.32121
냐	-9.32253
▁무료	-9.32282
▁도안	-9.32537
▁않아서	-9.3269
▁자체	-9.32803
▁갈게	-9.32814
▁~?	-9.32843
노	-9.32891
▁존맛	-9.32995
▁쫌	-9.33091
▁거든	-9.33163
▁수요일	-9.33168
▁결정	-9.3322
▁주변	-9.33381
▁파는	-9.33541
▁초코	-9.33608
▁그날	-9.33617
▁받을	-9.33705
▁동영상	-9.33776
▁당장	-9.33803
▁랫	-9.34052
▁루	-9.34089
▁분위기	-9.34338
▁향	-9.34661
▁필요	-9.34791
▁업	-9.34934
▁힝	-9.35045
▁받은	-9.35091
▁퍼	-9.35146
▁먹으라고	-9.3515
▁먹는데	-9.35318
▁워	-9.35371
천원	-9.35485
▁우산	-9.3549
▁토론	-9.35584
▁소개	-9.35587
▁해보고	-9.35594
▁있는거	-9.35671
▁다음주	-9.35924
▁능	-9.35936
▁커	-9.35969
▁샀어	-9.36044
▁포인트	-9.36096
▁현	-9.36243
▁하더라	-9.36309
▁간식	-9.36394
▁기다려	-9.36429
▁넘나	-9.3649
▁크게	-9.36547
▁치과	-9.36562
▁안보	-9.36608
▁월	-9.36625
▁맞지	-9.36733
▁요리	-9.36776
▁프사	-9.36787
▁기본	-9.36793
▁끼리	-9.36817
역	-9.36858
▁즈	-9.36937
▁주식	-9.3694
▁큰일	-9.36941
▁대구	-9.37354
▁하는지	-9.37579
▁에서도	-9.37893
▁척	-9.37903
▁들어가서	-9.38045
▁만날	-9.38082
▁않나	-9.38083
▁만두	-9.38193
▁빨	-9.38225
의	-9.38453
억	-9.38474
을	-9.38476
던	-9.38543
▁가슴	-9.38642
▁아니다	-9.38659
▁효과	-9.38813
▁가라	-9.38937
던데	-9.39028
▁축하	-9.39059
▁먹을까	-9.39278
▁바다	-9.39391
▁라며	-9.39509
라고	-9.39522
▁일어나서	-9.39543
▁어느	-9.39577
▁오고	-9.39684
▁홀	-9.39784
▁마쟈	-9.3984
초	-9.39931
▁등록	-9.40014
▁팩	-9.40489
▁ᅲᅲᅲᅲᅲᅲ	-9.405
말	-9.40612
▁모르겠어	-9.40683
더라	-9.40777
▁살짝	-9.4079
▁먼	-9.40836
▁했네	-9.40913
▁잇는데	-9.40936
▁모르겠다	-9.40976
▁보면서	-9.41109
더	-9.41224
▁아파트	-9.41331
▁이틀	-9.41375
▁염색	-9.41385
▁아이디	-9.41446
▁보네	-9.41455
▁.......	-9.41595
▁는걸	-9.41745
▁작	-9.41927
▁없나	-9.41981
▁그만	-9.42047
▁자마자	-9.42097
▁담주	-9.42354
▁에이	-9.42503
▁돼지	-9.42514
▁팬	-9.42567
▁대답	-9.42613
▁맞어	-9.43022
▁우웅	-9.43027
▁거나	-9.43055
▁먹으려고	-9.43142
▁부모님	-9.43148
▁버려	-9.43165
▁먹고싶다	-9.43324
▁재미	-9.43359
▁던데	-9.43395
▁금액	-9.43581
▁옹옹	-9.43585
▁나라	-9.43595
▁대한	-9.43676
▁세트	-9.43802
▁샐러드	-9.43888
▁터	-9.43891
▁눈물	-9.44259
▁늘	-9.44481
▁결혼식	-9.44696
▁댕	-9.44887
▁냉장고	-9.44892
▁되나	-9.44893
▁우와	-9.44895
▁샀다	-9.44911
▁평일	-9.44931
▁무서워	-9.4499
▁건데	-9.44993
▁관심	-9.44994
▁파티	-9.45143
▁손님	-9.452
동	-9.45375
▁센터	-9.45384
▁있으니	-9.45427
▁포	-9.45444
▁혀	-9.45479
▁땀	-9.45536
▁그러	-9.45914
▁쇼핑	-9.45951
▁엉엉	-9.45963
▁아닝	-9.46054
▁'	-9.4611
▁마리	-9.46135
신	-9.46259
▁당첨	-9.46268
▁몇개	-9.4629
▁ᅭ	-9.46392
▁연습	-9.46566
▁될듯	-9.46626
▁25	-9.46633
▁갖고	-9.46706
▁한데	-9.46731
▁만나	-9.4682
▁도전	-9.46872
▁ᅮᅮᅮᅮ	-9.46888
▁나오면	-9.46905
두	-9.4693
▁져	-9.46937
▁차가	-9.46945
▁만원	-9.46948
▁이불	-9.46998
▁직	-9.47065
▁굳이	-9.47129
길	-9.47159
▁운	-9.4723
▁수가	-9.47262
▁공유	-9.47271
▁과장	-9.47366
▁한다는	-9.47429
겠다고	-9.47436
▁파스타	-9.47479
▁감자	-9.47489
▁계좌	-9.47606
▁푹	-9.47731
▁받는	-9.47735
▁은근	-9.47784
▁많다	-9.47885
▁소스	-9.4804
▁력	-9.48102
▁경	-9.48175
▁외	-9.48212
▁땜	-9.48267
▁아니냐	-9.48311
▁확실히	-9.48444
▁갈래	-9.48499
▁먹는다고	-9.48562
▁아이스크림	-9.48573
▁결과	-9.48634
▁싸게	-9.48954
▁패딩	-9.49186
▁지는	-9.49186
▁집가서	-9.49613
잖아	-9.49615
▁묻자	-9.49814
▁미안	-9.49888
▁마시고	-9.50033
▁이지만	-9.50088
▁24	-9.50399
▁연애	-9.50483
▁곱창	-9.50538
▁아이패드	-9.50603
▁쉬는	-9.50661
▁그대로	-9.50671
▁안경	-9.50723
▁충격	-9.50734
▁다해	-9.50853
▁이냐	-9.50861
▁어디가	-9.50936
▁물어	-9.50952
▁곸	-9.51065
▁은행	-9.51134
▁많고	-9.51157
▁탈	-9.51226
▁계	-9.51243
▁인기	-9.51259
▁까진	-9.51625
▁ᄆ	-9.51641
▁씀	-9.51719
▁합니다	-9.51719
▁퇴사	-9.51739
성	-9.51806
▁하하	-9.51824
▁되는거	-9.51832
▁없을	-9.51947
▁나올	-9.51982
지도	-9.51997
▁보지	-9.52004
면서	-9.52036
▁된거	-9.5209
등	-9.52122
▁그러고	-9.52203
▁새우	-9.52339
▁그림	-9.52371
장	-9.5239
▁토욜	-9.5248
▁보자고	-9.52523
▁기차	-9.52577
▁생활	-9.52613
▁털	-9.52743
▁있었는데	-9.5287
▁ᄅ	-9.52914
▁그런지	-9.52924
▁나갈	-9.53284
▁온다	-9.53312
▁부럽다	-9.53517
▁콘서트	-9.5355
▁딸기	-9.53594
▁치고	-9.53621
▁배고파	-9.53733
▁햄버거	-9.53762
▁계정	-9.539
▁이상한	-9.53959
▁블로그	-9.54036
▁바꿔	-9.54201
▁같아요	-9.54245
전	-9.5427
▁되서	-9.5432
를	-9.54346
▁탱	-9.54584
▁닼	-9.54703
▁힘들	-9.54882
▁좋아해	-9.54913
▁주차	-9.54927
▁충전	-9.54976
▁취향	-9.55
▁후회	-9.55106
▁몰라서	-9.55349
▁토익	-9.55416
▁했나	-9.55543
▁대리	-9.55637
▁거야	-9.55692
▁도서관	-9.55693
▁법	-9.55711
▁먹었다고	-9.55774
▁보단	-9.55814
▁..!	-9.55832
▁벌	-9.55854
▁되니까	-9.55929
▁개인	-9.56003
▁입금	-9.56125
▁오케이	-9.56125
▁애가	-9.56145
은	-9.56221
▁만큼	-9.56295
▁뎈	-9.56318
▁환불	-9.56392
▁삼겹살	-9.56532
▁장님	-9.56539
▁만해	-9.56598
▁길이	-9.56645
▁ᅲᅮ	-9.56648
▁미국	-9.5667
▁담배	-9.5675
▁모든	-9.56761
▁치료	-9.5691
▁그나마	-9.57028
▁성격	-9.5703
▁오픈	-9.57169
▁맞나	-9.5753
▁맛있다고	-9.5755
▁생기	-9.57623
▁낫다	-9.57653
▁ᅵ	-9.57676
▁집중	-9.57726
다고	-9.57741
▁셋	-9.57802
져	-9.57824
▁총	-9.57864
▁갔어	-9.57916
▁어머니	-9.58103
▁해주고	-9.58146
▁코트	-9.58173
▁많은데	-9.58221
▁빨래	-9.5838
▁들어서	-9.5849
▁초밥	-9.58664
▁당연히	-9.58803
▁만약	-9.58832
▁먹는다	-9.5892
단	-9.58945
▁?????	-9.59059
▁골라	-9.59186
▁모습	-9.59244
▁메일	-9.59259
▁이는	-9.59272
부	-9.594
▁사지	-9.59426
▁까지는	-9.59442
▁블랙	-9.59452
▁잇는	-9.59478
▁모르는	-9.59532
▁추워서	-9.59551
▁배터리	-9.59671
▁목소리	-9.59743
▁화가	-9.59828
▁지갑	-9.59835
▁상담	-9.59886
▁그래두	-9.59913
▁받으면	-9.59925
우	-9.59925
▁이벤트	-9.60133
▁도시락	-9.60251
까	-9.60266
▁쿠팡	-9.60323
▁현금	-9.604
으	-9.60594
▁가장	-9.60732
▁왔	-9.60761
▁보다는	-9.60787
▁질	-9.60805
▁먼가	-9.60816
▁괜찮다고	-9.60845
▁계산	-9.60886
▁딱히	-9.6093
▁다이소	-9.60986
▁자전거	-9.60993
▁빼	-9.61009
▁먹어야지	-9.61177
▁놓고	-9.61248
▁나름	-9.61323
▁정보	-9.61424
기로	-9.61494
▁체	-9.61564
▁왔다고	-9.61582
▁비싼	-9.6159
▁디자인	-9.6165
▁새로운	-9.61662
▁감사	-9.61665
▁될거	-9.61746
▁젠	-9.61758
▁좋을	-9.61928
▁며칠	-9.61941
▁종류	-9.61942
▁거래	-9.61952
▁럼	-9.61962
▁그렇	-9.62013
▁남은	-9.62058
▁아기	-9.62107
▁같어	-9.62108
▁공항	-9.62171
▁계약	-9.62312
▁;;;	-9.62396
▁발표	-9.62543
▁보려고	-9.62589
▁네네	-9.62667
▁근무	-9.62744
▁맞는	-9.6285
▁땅	-9.62924
▁봐야지	-9.6297
▁에가	-9.62979
▁품절	-9.63059
▁해주	-9.63064
▁본다	-9.63138
▁아들	-9.63218
되	-9.63247
▁꽤	-9.63362
▁래야	-9.63412
▁심지어	-9.63434
▁화요일	-9.63435
▁할래	-9.63538
▁이따가	-9.63559
▁추석	-9.63736
▁놀고	-9.63743
▁의자	-9.63847
▁써야	-9.6388
▁쥬	-9.63995
▁꾸	-9.64007
▁평소	-9.64195
▁주면	-9.64209
▁짜증나	-9.64371
▁힘들다	-9.64406
▁남아	-9.64553
▁처리	-9.64554
치	-9.64565
▁왱	-9.6457
▁반찬	-9.64671
▁잇음	-9.64908
▁찍	-9.65077
함	-9.65206
▁에스	-9.65278
▁드디어	-9.65332
▁작업	-9.65337
▁연차	-9.65426
▁좋네	-9.6549
▁아니라고	-9.65505
▁바닥	-9.65578
▁제품	-9.65667
▁판	-9.657
▁스타벅스	-9.65716
▁당황	-9.65719
▁설마	-9.658
▁골	-9.65803
▁졸업	-9.65864
▁금욜	-9.65983
▁물어봐	-9.66099
▁있지만	-9.66234
▁관련	-9.66335
▁다섯	-9.66396
▁그런데	-9.66487
▁가보	-9.66565
▁주사	-9.66749
▁합격	-9.66772
▁광주	-9.66802
엌	-9.66972
▁넼	-9.6701
▁됐어	-9.67076
▁여유	-9.67096
▁샌드위치	-9.6711
임	-9.67148
▁맛있겠다	-9.67223
거든	-9.67314
▁노력	-9.67351
▁장이	-9.67392
▁건물	-9.67448
▁끝나면	-9.67482
▁복	-9.6749
▁지도	-9.67647
▁괜찮	-9.67647
▁ᄀᄎ	-9.67684
▁가을	-9.67779
▁의사	-9.67844
▁메	-9.67902
▁대서	-9.68002
▁샤워	-9.68052
▁앱	-9.68058
▁마저	-9.68072
▁버	-9.68073
▁귀엽다	-9.68137
▁사과	-9.68157
▁추워	-9.68312
▁체크	-9.68367
▁아줌마	-9.68367
▁꼬	-9.684
▁할수	-9.68405
▁않는다	-9.68468
▁융	-9.6848
▁나가	-9.68569
▁나왔는데	-9.68629
▁투	-9.68712
▁인천	-9.68718
▁눈데	-9.68776
▁대체	-9.68778
▁이용	-9.68805
거야	-9.69007
▁기대	-9.69036
▁브랜드	-9.69081
▁핫	-9.69096
▁않은	-9.6916
▁어깨	-9.69183
▁삼성	-9.69292
▁해결	-9.69377
▁서류	-9.69402
▁그렇구나	-9.69572
▁티켓	-9.69641
▁시즌	-9.69644
▁깨	-9.69706
▁굳	-9.69732
▁내고	-9.69773
▁다닐	-9.69883
▁다녀	-9.69916
▁강남	-9.69926
▁학생	-9.69934
▁링	-9.70089
▁통장	-9.70301
▁먹게	-9.70486
▁넵	-9.70537
▁찾아	-9.70591
▁원피스	-9.70605
▁맞네	-9.70634
해먹	-9.70713
▁갠	-9.70722
▁있으니까	-9.70729
▁재료	-9.70771
▁이어서	-9.70836
▁파일	-9.70843
▁13	-9.70853
▁해야겠다	-9.70888
▁책상	-9.70944
▁먹었	-9.70948
▁뭐라고	-9.70949
▁점점	-9.71023
▁넘게	-9.71093
▁모자	-9.71171
트	-9.71188
▁가요	-9.71217
▁아니지	-9.71231
▁일반	-9.71299
차	-9.71345
▁수영	-9.71456
▁학기	-9.71519
▁하겠다고	-9.71631
▁키로	-9.71636
▁대전	-9.71665
▁남자친구	-9.71744
▁먹을지	-9.71777
실	-9.71821
▁연기	-9.71909
▁대학	-9.72003
▁한잔	-9.72019
▁잠시	-9.72026
▁자서	-9.72037
▁아이고	-9.72082
▁!!!!!!	-9.72204
걸	-9.72299
▁ᄋᄏᄋᄏ	-9.72328
▁카메라	-9.72415
▁이마트	-9.72521
▁애플	-9.7258
▁쓴	-9.72707
▁딴	-9.72762
▁캐	-9.72944
▁업무	-9.7298
▁교회	-9.73236
▁자랑	-9.73282
▁예쁜	-9.73408
▁걸어	-9.73554
▁돌	-9.7359
▁뒷	-9.73612
▁학년	-9.73623
▁페이	-9.73732
▁모양	-9.73733
▁과일	-9.73814
▁큐	-9.73862
▁그러네	-9.73868
▁창문	-9.73893
▁모야	-9.73902
▁14	-9.7394
▁포함	-9.73982
▁잡	-9.73984
▁마감	-9.73994
려	-9.74009
▁할거야	-9.74026
▁꿀	-9.74201
▁위치	-9.74341
▁사자	-9.74354
▁껴	-9.74372
▁음료	-9.74394
▁대기	-9.74405
▁않는	-9.74419
▁소름	-9.74562
랑	-9.74652
▁우리나라	-9.7474
▁대출	-9.74959
▁싫다고	-9.75071
▁이뻐	-9.75071
▁긴한데	-9.75181
▁사이트	-9.75253
▁비싸서	-9.75277
꺼	-9.75313
▁염	-9.75346
▁모두	-9.75363
▁였어	-9.75482
▁매운	-9.75495
▁이라니	-9.75504
▁국	-9.75615
▁까지만	-9.75666
▁했을	-9.75681
▁나머지	-9.75745
▁쟈	-9.75811
중	-9.75862
▁됐다	-9.759
죠	-9.76058
▁생긴	-9.76071
▁베	-9.76083
▁기준	-9.76108
▁싼	-9.7618
▁답장	-9.76278
▁오잉	-9.76283
▁시장	-9.76405
▁난다고	-9.76498
▁짓	-9.76536
내	-9.76539
비	-9.76711
▁뻔	-9.76723
▁바보	-9.76772
▁쪄	-9.76938
▁절	-9.76939
▁널	-9.76945
▁억	-9.76954
▁각자	-9.77171
▁쓰레기	-9.77199
▁에여	-9.77234
▁맛있다	-9.77238
▁뭐라	-9.77524
▁미안해	-9.77541
▁귀찮아서	-9.77565
▁모임	-9.77583
▁단계	-9.77586
▁ᅮᅲ	-9.77724
▁데이	-9.77726
▁타면	-9.77779
▁시반	-9.77834
▁식사	-9.7787
▁색깔	-9.77982
▁흰색	-9.7807
▁18	-9.78119
▁왤케	-9.78236
▁ᄒᄉᄒ	-9.78253
▁트	-9.78458
화	-9.78492
▁로는	-9.7854
▁매우	-9.78632
▁끝나	-9.78686
▁여긴	-9.78805
▁60	-9.78814
▁먹고싶어	-9.78826
래	-9.78877
▁친	-9.78912
길래	-9.78925
▁인간	-9.78991
▁더니	-9.78992
▁석	-9.78996
▁튀김	-9.79033
▁잇어서	-9.79047
▁있어야	-9.79083
▁했음	-9.79103
▁로또	-9.79232
▁비교	-9.79316
제	-9.79385
▁육	-9.79558
▁방송	-9.79644
▁편하게	-9.79658
▁남편	-9.79745
▁유행	-9.7981
▁청	-9.79976
▁하려	-9.80031
▁참고	-9.80103
▁검정	-9.80179
군	-9.80229
▁새끼	-9.80274
▁설치	-9.80322
▁화이팅	-9.80359
▁아웃	-9.80394
▁/	-9.80409
▁맛있는거	-9.80431
▁태풍	-9.80626
▁모르고	-9.80652
▁군데	-9.80665
▁속이	-9.8069
▁질문	-9.80719
▁상상	-9.80814
▁틀	-9.80838
▁처	-9.8084
▁이래서	-9.80936
▁존	-9.81061
▁걸려	-9.81066
와	-9.81163
▁공원	-9.81206
▁수준	-9.81208
▁머거	-9.81217
▁실수	-9.8131
▁ᄌ	-9.81314
▁더워서	-9.81373
▁뼈	-9.81385
▁종이	-9.81386
거나	-9.81411
▁전부	-9.81456
▁커서	-9.81478
▁최대한	-9.81528
▁안주	-9.81634
▁에어팟	-9.81703
▁만하	-9.81709
▁내꺼	-9.81806
▁싶은거	-9.81918
▁고고	-9.81962
▁부담	-9.81974
▁있네	-9.81995
▁싫어서	-9.82047
▁있잖아	-9.82235
▁잡고	-9.82252
▁의미	-9.82364
▁200	-9.82394
▁쿠키	-9.82441
냐고	-9.82478
▁하는거야	-9.82489
구나	-9.82535
세	-9.82587
▁라니	-9.82589
▁하냐고	-9.82668
▁아니아니	-9.82678
▁댓글	-9.82698
▁맞춰	-9.82771
▁직장	-9.82973
▁그렇군	-9.83121
▁다른거	-9.83226
▁일해	-9.83305
▁찐	-9.83347
▁저건	-9.83421
▁회의	-9.83451
▁백화점	-9.83525
▁놀	-9.83549
▁엄	-9.83576
▁모기	-9.83596
▁다니는	-9.83618
▁대표	-9.83739
▁하느라	-9.83846
▁칼	-9.83891
란	-9.83913
▁행사	-9.83931
▁넣어서	-9.8406
▁싶지만	-9.84126
▁ᄒᄒᄒᄒᄒ	-9.84274
▁않았다	-9.84331
▁하냐	-9.84403
▁!?	-9.84428
▁않	-9.84494
▁먹는거	-9.8452
▁하던데	-9.84642
▁생겨서	-9.84651
▁집은	-9.84729
▁미용실	-9.8473
▁16	-9.84736
▁당연하지	-9.84909
▁체력	-9.85104
▁광고	-9.85136
▁해야해	-9.85282
것도	-9.85384
▁글구	-9.85393
▁채	-9.85446
생	-9.85471
▁주기	-9.85485
▁사다	-9.85512
집	-9.856
▁본다고	-9.85647
▁댐	-9.85778
▁데리	-9.85821
▁비용	-9.85944
▁컵	-9.85954
▁전화해서	-9.85972
▁인형	-9.85986
▁마치	-9.86011
▁지역	-9.86103
▁푸	-9.86142
▁처넌	-9.86219
▁17	-9.86259
▁하지마	-9.86263
▁힘들어서	-9.86287
▁잇다	-9.86361
▁판매	-9.8643
▁어서	-9.8644
▁찍고	-9.86463
▁종	-9.86559
▁화장품	-9.86611
▁갈지	-9.86661
▁해외	-9.86701
▁즁	-9.86716
▁했으면	-9.86719
▁겠다	-9.8675
▁자격증	-9.86797
▁순간	-9.86803
▁올려	-9.86804
▁어릴	-9.86844
▁돌려	-9.86851
▁미니	-9.8688
▁나면	-9.86925
▁크기	-9.86951
▁도움	-9.86955
▁장소	-9.8704
▁내내	-9.8707
▁닭발	-9.87089
▁안대	-9.87151
▁기능	-9.87166
닼	-9.87189
▁만든	-9.87266
번	-9.87387
▁몇번	-9.87486
▁버거	-9.87524
▁같지	-9.87526
▁아픈	-9.87555
▁가는거	-9.87562
▁설	-9.87588
▁침	-9.87699
▁니트	-9.87768
▁상관	-9.8777
▁♡	-9.87864
▁맞춰서	-9.87881
▁그랭	-9.87923
▁원장	-9.87944
▁보인다	-9.87981
▁수고	-9.87999
▁먹을거	-9.88014
▁카레	-9.88044
▁표정	-9.88145
▁짤	-9.88269
▁해써	-9.88274
▁고장	-9.8829
▁국물	-9.88333
▁상품	-9.88338
▁핑크	-9.88523
▁있다가	-9.88577
▁탓	-9.88597
▁냉동	-9.88615
▁칠	-9.88654
▁기다리고	-9.88664
지만	-9.88728
▁태	-9.88813
▁맥	-9.88818
▁에어	-9.88819
▁에선	-9.88879
▁배우	-9.88923
▁춥다	-9.88991
▁기계	-9.89013
▁괜찮은데	-9.89235
▁전체	-9.89248
▁실제	-9.89314
▁자취	-9.89421
▁해볼게	-9.89468
▁않을	-9.89508
모	-9.89539
▁스티커	-9.89591
▁제출	-9.89707
▁좋겠다고	-9.89736
겠지	-9.89752
▁나오고	-9.8976
▁연어	-9.89779
▁마카롱	-9.89884
▁추억	-9.89989
▁하드	-9.90001
▁와도	-9.9004
▁알람	-9.90103
▁....?	-9.90158
▁지난	-9.90313
▁늦	-9.90324
▁교	-9.90523
야겠다고	-9.90543
▁만나면	-9.90681
▁적금	-9.90723
▁적당히	-9.90797
▁넷플릭스	-9.90968
▁슬슬	-9.90969
▁500	-9.91016
잘	-9.91045
▁칭찬	-9.91067
▁더워	-9.91098
▁홍대	-9.91108
▁얔	-9.91135
▁사도	-9.91179
▁약국	-9.91206
건데	-9.91208
▁괜찮다	-9.91304
▁감동	-9.91312
▁소주	-9.9132
▁학	-9.91345
▁족발	-9.91366
▁프로그램	-9.9137
▁스터디	-9.91371
▁가바	-9.91406
▁기회	-9.91481
▁용돈	-9.91576
더니	-9.91979
조	-9.92035
▁찍은	-9.92078
▁다운	-9.92142
▁예상	-9.92181
▁시러	-9.9225
▁희	-9.92257
▁클	-9.92258
▁서비스	-9.92275
▁현실	-9.92282
▁커플	-9.92298
▁망	-9.923
▁전혀	-9.92313
바	-9.92404
▁야함	-9.92545
▁19	-9.92575
▁물론	-9.9258
▁어떡해	-9.92642
▁아무래도	-9.92668
▁노래방	-9.92698
▁최근	-9.9277
정	-9.92859
▁경험	-9.92862
▁아무리	-9.92862
▁많	-9.92999
▁보이는	-9.93128
관	-9.93229
▁만들	-9.93234
▁연예인	-9.93274
▁ᅲᅲᅲᅲᅲᅲᅲ	-9.93299
▁댜	-9.93309
▁궁금해	-9.93346
▁햄	-9.93371
▁편이	-9.93478
▁티켓팅	-9.93579
▁공연	-9.93658
▁무섭다	-9.93665
▁발라	-9.93727
▁평생	-9.93786
▁받음	-9.93894
하면	-9.93928
▁핵	-9.93929
▁내려	-9.94002
▁완료	-9.9409
▁접수	-9.94096
▁본적	-9.94111
▁겟	-9.94115
▁점수	-9.94149
▁기름	-9.94239
▁였는데	-9.94266
▁업체	-9.94296
▁하자고	-9.94359
▁사주	-9.94521
▁구나	-9.94539
▁애인	-9.94635
▁재밌어	-9.94642
▁군대	-9.94761
▁맞고	-9.94769
▁안되	-9.94886
▁렌즈	-9.94908
▁줘서	-9.94964
▁무리	-9.95003
▁소고기	-9.95013
▁안되면	-9.9502
▁><	-9.95132
▁ᅢ	-9.95226
▁때매	-9.95228
▁된대	-9.95298
▁들이	-9.953
▁가나	-9.95306
▁크리스마스	-9.95424
▁짬뽕	-9.95428
▁않음	-9.95459
▁좋음	-9.95565
▁보다가	-9.9559
▁전주	-9.95618
▁어머님	-9.95634
▁해놓고	-9.95689
▁안됨	-9.95697
▁요가	-9.95722
▁갈수	-9.95823
▁쇼	-9.95878
▁호선	-9.95954
▁만드는	-9.9605
▁하던	-9.9606
겠다	-9.96063
국	-9.96126
▁보드	-9.96161
▁넷플	-9.96196
▁안된다고	-9.96258
▁갑	-9.9626
▁인증	-9.96384
▁하겠다	-9.96407
▁품	-9.96438
▁양말	-9.96509
▁무시	-9.96548
▁보내고	-9.9655
▁엽떡	-9.96638
▁중고	-9.96641
▁으로는	-9.96686
▁경우	-9.96686
▁근육	-9.96785
▁구워	-9.96815
▁물어본다	-9.96914
▁천안	-9.96924
ᄏᄏᄏᄏᄏᄏᄏᄏᄏᄏᄏᄏᄏᄏ	-9.97024
▁했어요	-9.97025
▁받았다	-9.97077
▁욤	-9.97117
#	-9.97129
▁갔을	-9.97134
▁일부러	-9.97203
▁하려면	-9.97216
▁무난	-9.97317
▁있게	-9.9734
▁알겠	-9.97367
▁오히려	-9.97412
▁엄빠	-9.97413
▁쓰지	-9.97448
▁나게	-9.97499
▁선배	-9.97523
▁행복	-9.97658
▁없지만	-9.97669
▁오는데	-9.97735
▁목표	-9.97739
▁방학	-9.97757
▁지각	-9.97801
▁가구	-9.9782
▁........	-9.97914
▁멀	-9.97924
▁실습	-9.97946
▁자는	-9.97949
▁똑같은	-9.97972
▁햐	-9.98024
▁않다	-9.98036
▁무릎	-9.98048
▁껄	-9.98113
▁뜻	-9.98163
▁같기도	-9.9818
▁알려줘	-9.98205
▁샀다고	-9.98234
▁슈	-9.98279
▁아래	-9.98292
▁부자	-9.98329
▁입맛	-9.98379
▁랭	-9.98458
▁버림	-9.98478
▁예뻐	-9.98488
▁평	-9.98512
▁찍어서	-9.98546
▁넘어서	-9.98654
▁링크	-9.9871
▁비번	-9.98768
▁구랭	-9.98797
▁온대	-9.98851
▁칼국수	-9.98902
▁어른	-9.98917
▁타임	-9.98966
▁개웃	-9.99025
산	-9.99116
▁덩	-9.99152
▁공짜	-9.99229
▁담주에	-9.99246
▁수정	-9.99289
▁나왔다	-9.99446
▁나아	-9.99457
▁노노	-9.99462
▁창	-9.99646
▁마켓	-9.99774
▁나고	-9.99775
▁아프다	-9.99905
▁보구	-10.0005
담	-10.0006
▁기전	-10.0007
▁산거	-10.0008
▁이자	-10.0008
▁사야지	-10.0009
▁레알	-10.0031
▁멀리	-10.0033
▁되는지	-10.0035
▁미세먼지	-10.0074
▁롤	-10.0091
▁기다리는	-10.0093
▁교환	-10.0096
▁안된다	-10.0096
▁등산	-10.0097
▁컴	-10.0109
▁노트	-10.0109
▁피곤해서	-10.011
▁잡아	-10.0124
▁면서	-10.0125
▁야채	-10.0127
▁거짓말	-10.0129
▁활동	-10.013
▁웹툰	-10.014
▁훨씬	-10.014
▁자동	-10.0142
▁빌려	-10.0144
▁장사	-10.0152
▁신기하다	-10.0159
▁눈썹	-10.0162
▁이었는데	-10.0164
▁방이	-10.0166
▁댓	-10.017
▁몰	-10.018
▁십	-10.0183
▁깡	-10.0187
▁이란	-10.0199
▁80	-10.0206
▁괜찮지	-10.0213
▁괜차	-10.0215
▁화면	-10.0215
▁스타	-10.0216
▁먼지	-10.0216
▁있냐고	-10.0218
▁막상	-10.0221
▁입어	-10.0221
▁삿	-10.0223
▁걸려서	-10.0232
▁이러고	-10.0242
▁당신	-10.0245
▁끈	-10.0248
▁필요한	-10.025
▁이상해	-10.025
▁바나나	-10.0251
선	-10.0253
▁비슷한	-10.0257
▁어쩌	-10.0265
▁영업	-10.0275
▁귤	-10.0276
적	-10.028
▁싹	-10.0294
▁턱	-10.0295
▁뜨	-10.0297
▁아오	-10.03
▁앉아서	-10.0309
▁해줄게	-10.031
▁ᄋᄋᄋᄋ	-10.0312
▁이구나	-10.0325
▁해요	-10.0327
▁물이	-10.0335
▁사회	-10.0337
▁온라인	-10.034
▁데이트	-10.0341
▁홈	-10.0346
▁300	-10.0347
▁없으니	-10.0349
▁일도	-10.035
▁ᄃᄃ	-10.0351
▁환	-10.0352
▁제안	-10.0362
▁개이득	-10.0362
▁들어와서	-10.0365
▁극	-10.0366
▁확정	-10.0366
▁어려워	-10.0369
▁많다고	-10.037
▁삭제	-10.0374
▁필수	-10.0376
▁외국	-10.0382
▁ᄀᄀ	-10.0388
▁나오는데	-10.039
▁월욜	-10.0395
▁뷰	-10.0402
▁아버지	-10.0421
▁있대	-10.0422
▁저장	-10.0424
▁멍	-10.0427
▁반응	-10.0432
▁거절	-10.0436
▁헬스장	-10.0442
▁나가야	-10.0452
▁몸무게	-10.0453
▁파마	-10.0456
▁싶고	-10.0463
▁드는	-10.0465
▁좋게	-10.0465
▁고딩	-10.0476
▁않냐	-10.049
▁아닐까	-10.0495
▁만들어서	-10.0496
▁번째	-10.0498
▁귀여운	-10.0504
▁집앞	-10.0507
▁받으러	-10.051
▁와인	-10.0511
▁소화	-10.0515
▁힘든	-10.0518
▁괜찮을	-10.0518
▁이어폰	-10.0521
▁캐릭터	-10.0521
▁셔츠	-10.0533
▁~~~~~	-10.0534
▁21	-10.0537
▁되어서	-10.0539
▁왼쪽	-10.0544
▁모델	-10.0544
▁앞머리	-10.0544
▁필기	-10.0546
▁안함	-10.0549
▁특히	-10.0555
▁잇는거	-10.0563
못	-10.0565
▁읽어	-10.0572
▁아프고	-10.0572
▁콜	-10.0575
▁마셔	-10.0576
▁일욜	-10.058
▁같다며	-10.0584
▁오기	-10.0587
넹	-10.0591
▁캐리어	-10.0601
▁철	-10.0602
물	-10.0604
▁되었다	-10.0613
▁변경	-10.0613
▁컴터	-10.0613
▁이쁘다	-10.0614
감	-10.0616
▁발견	-10.0625
▁맞음	-10.065
▁숨	-10.0653
히	-10.0661
▁정상	-10.0662
▁치마	-10.0662
▁23	-10.0663
▁젤리	-10.0666
▁있어요	-10.0666
▁글쿤	-10.0668
▁어휴	-10.0672
▁많네	-10.0676
▁위로	-10.0681
▁걔네	-10.0689
▁볶음	-10.0694
겟	-10.0697
▁졋	-10.0697
▁봤다	-10.0699
▁졸려	-10.0701
▁몬	-10.0709
▁먹을래	-10.0717
▁뉴스	-10.073
▁만나는	-10.0733
▁볶음밥	-10.0741
유	-10.0745
▁공무원	-10.0752
▁봐요	-10.0759
▁글쎄	-10.0759
▁만들고	-10.0762
▁하트	-10.0763
▁브이	-10.0769
▁겡	-10.0773
▁동기	-10.0773
▁나왔어	-10.0774
▁잇나	-10.0776
▁수원	-10.0781
▁문의	-10.0781
▁깤	-10.0783
▁능력	-10.0785
▁프로필	-10.0787
▁데이터	-10.0788
▁구해	-10.0796
▁실화	-10.0801
▁소식	-10.0801
▁됐는데	-10.0805
▁유명한	-10.0808
▁쩐다	-10.0811
▁내려서	-10.0816
▁셤	-10.0823
▁급여	-10.0831
▁휴대폰	-10.0834
으며	-10.0834
▁오른쪽	-10.0834
▁마사지	-10.0834
▁습	-10.084
▁모르게	-10.0844
▁왜냐면	-10.0846
▁쉬어	-10.0852
▁갈비	-10.0854
▁초대	-10.0855
▁오늘이	-10.0858
▁~^^	-10.0864
▁졸리	-10.0865
▁곡	-10.0878
▁이군	-10.0893
▁싸고	-10.0895
▁붙이	-10.0895
▁취	-10.0897
▁나무	-10.0897
▁버리고	-10.09
▁시켜서	-10.0907
▁시계	-10.0909
▁알려주고	-10.0912
▁먹으면서	-10.0916
▁나를	-10.0918
▁라떼	-10.0918
▁진료	-10.0929
▁좀더	-10.093
▁정해	-10.0931
▁가루	-10.0933
▁다이어리	-10.0941
▁어찌	-10.0947
▁그랬어	-10.0948
▁그렇다고	-10.0949
▁할라	-10.0954
▁거실	-10.0958
▁하늘	-10.0962
▁잇고	-10.0968
▁찾아서	-10.0969
▁해주는	-10.0981
▁입구	-10.1007
▁그렇고	-10.101
▁듣는	-10.1015
▁보낸	-10.1023
▁너희	-10.103
▁해야되	-10.1044
▁고마	-10.1047
▁터미널	-10.1049
▁내야	-10.1055
▁토스	-10.1062
▁여기는	-10.1068
▁최소	-10.1072
▁아닌거	-10.1077
▁...!	-10.1078
▁참치	-10.1078
▁헤	-10.1087
▁바빠서	-10.1087
▁흰	-10.1092
▁삶	-10.1094
▁맛있어서	-10.1099
▁없는거	-10.1113
재	-10.1114
▁보게	-10.1123
▁뿌리	-10.1144
▁증말	-10.1146
▁ᅣ	-10.1153
▁에요	-10.1157
▁독서실	-10.1158
▁설거지	-10.1158
▁강릉	-10.1158
▁22	-10.1159
▁키키	-10.116
는거	-10.1169
▁그래그래	-10.117
▁나온다	-10.1172
▁입장	-10.1174
▁하는건	-10.1179
▁했대	-10.1184
쥬	-10.1192
▁겸	-10.1206
▁킹	-10.121
▁안되는	-10.121
▁했다가	-10.1218
▁신기해	-10.122
▁70	-10.122
▁자세	-10.1229
▁두시	-10.1234
▁26	-10.1239
▁겹	-10.1243
▁향수	-10.1246
▁앉아	-10.1246
▁증	-10.1252
▁단말	-10.1256
든	-10.1262
▁오디	-10.1263
▁사업	-10.1269
▁공감	-10.1276
▁,,?	-10.1281
▁점심시간	-10.1284
▁그런건	-10.1287
▁봤	-10.1292
▁주인	-10.1296
▁좋아요	-10.1296
▁갈거야	-10.1302
▁잇지	-10.1303
▁시골	-10.1307
▁나가면	-10.1309
▁되니	-10.1316
▁돈가스	-10.1317
▁갈거	-10.1325
▁지가	-10.1329
▁도로	-10.1344
▁단어	-10.1353
▁해줘서	-10.1359
▁아닠	-10.1392
▁들은	-10.1395
▁끝나서	-10.1396
▁28	-10.1401
▁있던	-10.1405
▁했다며	-10.1406
▁조절	-10.1407
▁써도	-10.141
▁묵	-10.141
▁촬영	-10.1417
▁누워	-10.1424
▁비싸다	-10.1426
▁켜	-10.1433
▁ᄆᄌ	-10.1437
▁맛있	-10.1441
▁잠옷	-10.1442
▁어우	-10.1452
▁베트남	-10.1454
▁월세	-10.1455
▁데리러	-10.1456
▁아니냐고	-10.1456
▁배고파서	-10.146
▁긍	-10.1464
▁둔	-10.1469
▁쓰기	-10.147
▁했는지	-10.147
▁축구	-10.1479
▁욥	-10.1482
▁리가	-10.1483
▁갔	-10.1484
▁넴	-10.1489
▁나쁘지	-10.1491
▁갤럭시	-10.1492
▁킬로	-10.1492
▁쭉	-10.1499
▁좋아해서	-10.15
▁검은색	-10.1505
▁토마토	-10.1517
▁보며	-10.152
▁반지	-10.1522
▁미쳤다	-10.1534
▁쌀	-10.1537
▁한다며	-10.1542
▁오징어	-10.1542
업	-10.1545
▁면세	-10.1547
▁라인	-10.1556
▁감정	-10.1558
▁그리	-10.1562
▁그르	-10.1565
▁아이돌	-10.1568
▁들어가면	-10.1569
▁해지	-10.1576
▁후드	-10.158
▁받았는데	-10.1582
겠	-10.1584
▁해줄	-10.1586
▁아프다고	-10.1593
▁피곤	-10.1601
▁헬스	-10.1603
▁니야	-10.1604
▁자료	-10.161
▁아니라서	-10.1611
▁무서워서	-10.1612
잉	-10.1613
▁상처	-10.1619
▁연장	-10.1622
▁나눠	-10.1624
▁탈출	-10.1632
▁한두	-10.164
▁⫬	-10.1644
▁가타	-10.1655
▁초딩	-10.1657
▁달달	-10.1661
▁줫	-10.1667
▁물으니	-10.167
▁과목	-10.1674
▁과외	-10.1675
▁간장	-10.1675
▁돈까스	-10.1683
▁겨우	-10.1685
▁구입	-10.169
▁27	-10.1699
▁그런듯	-10.1701
▁났다	-10.1709
▁고추	-10.1717
▁공기	-10.1725
▁학점	-10.1734
▁옥	-10.1735
▁방문	-10.1735
▁집도	-10.1738
▁섴	-10.1744
▁동물	-10.1758
▁없으니까	-10.1762
있어	-10.1768
▁케이	-10.1771
▁가겠다고	-10.1779
▁!!!!!!!	-10.1783
▁앨범	-10.1786
▁한강	-10.1794
▁응원	-10.1794
▁이동	-10.18
▁타서	-10.1807
▁이자나	-10.1812
▁로그인	-10.1812
▁슬퍼	-10.1813
는디	-10.1813
▁가성	-10.182
그	-10.1823
▁겜	-10.1826
▁나쁜	-10.1826
▁굴	-10.1845
▁후후	-10.1853
▁마이	-10.1855
▁땡큐	-10.1864
▁세시	-10.1864
▁할아버지	-10.1865
식	-10.1866
는게	-10.1866
▁양념	-10.1876
▁컨디션	-10.1877
▁언능	-10.1877
슈	-10.1883
▁할부	-10.1893
▁거임	-10.1899
넼	-10.1905
▁배송비	-10.1905
▁콘	-10.1908
▁불러	-10.191
▁려	-10.1913
▁꾸준히	-10.1916
▁고해	-10.1926
▁자연	-10.1946
▁이에요	-10.1949
▁덕	-10.1951
▁대만	-10.1953
▁같던데	-10.1956
▁왠지	-10.1959
▁추	-10.1962
▁벽	-10.1967
▁됐다고	-10.1972
애	-10.1975
▁넣으면	-10.1976
미	-10.198
▁마늘	-10.1983
▁냉면	-10.1983
▁공주	-10.1989
▁류	-10.1993
▁펜	-10.1995
▁독감	-10.1995
▁케익	-10.1996
▁만나고	-10.2003
▁이쁜	-10.2005
▁놀아	-10.2006
▁프리	-10.2009
▁싶	-10.2011
▁여부	-10.2014
다가	-10.2015
▁##	-10.2017
▁누워서	-10.2025
▁충	-10.2035
▁기네	-10.2046
▁...??	-10.2054
▁입으면	-10.2058
▁짘	-10.2067
▁줬는데	-10.2069
▁초반	-10.2075
▁심장	-10.2077
▁콜라	-10.2077
▁않게	-10.2077
▁안되고	-10.208
▁백수	-10.2082
▁가고싶다	-10.2082
▁는디	-10.2093
▁똑같이	-10.2104
▁원금	-10.2108
▁자소	-10.2108
▁유지	-10.2112
▁쩌	-10.2116
▁분명	-10.2117
▁미쳐	-10.212
▁야구	-10.2147
▁수리	-10.2149
▁큰거	-10.2157
▁될까	-10.2159
▁알았	-10.2168
▁가만히	-10.2169
▁그릇	-10.217
▁ᄋᄌ	-10.2172
▁뽑아	-10.2173
▁춘	-10.2176
▁:	-10.2181
상	-10.2182
▁탄	-10.2182
▁가사	-10.2186
▁당일	-10.219
▁모름	-10.2197
▁아니가	-10.2198
▁29	-10.2199
▁많지	-10.2204
▁실장	-10.2212
▁지하	-10.2215
심	-10.2217
▁초콜릿	-10.2223
▁인스타그램	-10.2223
▁해보자	-10.2232
매	-10.2237
속	-10.2237
▁이기	-10.2241
▁빡세	-10.225
▁낮잠	-10.225
▁같은디	-10.2252
▁시키고	-10.2254
▁본거	-10.2257
▁그러지	-10.2267
▁있더라	-10.2269
▁치면	-10.2273
▁칼퇴	-10.2275
▁노답	-10.2278
▁용량	-10.2279
▁부럽	-10.2281
▁잣	-10.229
▁반대	-10.2295
▁들어갈	-10.2298
▁시기	-10.2299
▁묻는다	-10.2309
▁걸어서	-10.2312
▁유럽	-10.2319
▁한개	-10.2326
날	-10.2336
▁싸서	-10.2346
▁있어도	-10.2349
▁맛있는데	-10.2352
▁일어나	-10.237
▁모르겠다고	-10.2371
▁지방	-10.2371
으면	-10.238
▁다행히	-10.2384
▁재밌게	-10.2389
▁45	-10.2389
▁알아보고	-10.2391
▁요금	-10.2397
▁음악	-10.24
▁괜춘	-10.2404
▁이도	-10.2414
▁양치	-10.2416
▁수능	-10.2416
▁마을	-10.2421
렇긴	-10.2433
▁스토리	-10.2443
▁하래	-10.2455
▁딩	-10.2459
▁벌레	-10.246
▁야야	-10.2469
색	-10.247
▁피곤해	-10.2474
▁한시	-10.2478
▁둘째	-10.2491
▁편해	-10.2497
▁전세	-10.2497
▁있을까	-10.2499
▁모레	-10.2513
▁?..	-10.2514
▁개봉	-10.2528
▁입원	-10.2536
점	-10.2547
금	-10.2561
▁귀찮	-10.2565
▁몰래	-10.2568
▁코스	-10.2572
▁엇어	-10.2576
▁파리	-10.258
병	-10.2589
▁갑니다	-10.259
▁다른데	-10.259
▁에프	-10.2591
량	-10.2598
▁해주면	-10.26
▁아니지만	-10.2604
▁버터	-10.261
▁욬	-10.261
▁에바	-10.2612
▁환자	-10.2613
▁셈	-10.2614
▁있자나	-10.2619
▁나온다고	-10.2625
가지고	-10.2631
▁부장	-10.264
▁연말	-10.2642
▁90	-10.2643
▁부부	-10.2643
▁덕분	-10.2647
▁빨간	-10.2647
▁힐링	-10.2652
▁해볼까	-10.2652
▁성적	-10.2654
▁찬	-10.2657
▁티브	-10.2666
▁비밀	-10.2667
▁하길래	-10.2668
▁얼음	-10.267
▁기를	-10.2672
▁귀찮아	-10.2672
▁에다가	-10.2677
▁샘	-10.2679
▁출장	-10.268
▁서브웨이	-10.2681
▁생선	-10.2681
달	-10.2692
▁우체국	-10.2694
입	-10.2697
▁좋아하는데	-10.27
▁별루	-10.2701
▁주지	-10.2705
▁탐	-10.2714
려고	-10.2714
▁긍까	-10.2738
▁잤어	-10.2743
▁돌아	-10.2748
▁이득	-10.276
▁31	-10.2761
▁했잖아	-10.2764
▁될지	-10.2767
▁~~!	-10.2772
▁한참	-10.2781
문	-10.2787
▁말투	-10.2792
▁컷	-10.2794
▁먹으니까	-10.2796
▁자야	-10.2796
▁부동산	-10.2808
▁헐랭	-10.2809
▁아쉽다	-10.2815
▁막내	-10.2816
▁그런게	-10.2816
▁읽고	-10.2817
카	-10.2831
▁알았다	-10.2836
▁좌석	-10.2837
▁조금씩	-10.2837
▁긴장	-10.284
▁진행	-10.2851
▁수수료	-10.2851
▁캔	-10.2855
▁급하게	-10.2867
▁힘들다고	-10.2873
▁마무리	-10.2895
▁경력	-10.2895
▁단체	-10.2896
▁떼	-10.2912
▁있다는	-10.2919
▁뮤	-10.2922
▁할라고	-10.2923
▁랩	-10.2923
티	-10.2926
▁나을	-10.2932
▁쉴	-10.2932
▁이력서	-10.2939
▁설정	-10.2939
▁행동	-10.2943
▁전공	-10.2946
▁일듯	-10.2959
▁대여	-10.2967
▁필름	-10.2968
▁회색	-10.2969
쪽	-10.2971
▁반품	-10.2971
▁꺄	-10.2972
▁어렵다	-10.2995
▁샴푸	-10.2997
▁퀴즈	-10.2997
▁예쁘다	-10.3005
▁연인	-10.3006
▁그랬는데	-10.3007
▁끄	-10.3007
▁그치만	-10.3008
▁에나	-10.3015
▁세금	-10.3016
▁있었어	-10.3022
▁시내	-10.3023
▁닝	-10.3032
▁깔	-10.3033
▁가수	-10.3034
▁녜	-10.3042
▁공장	-10.3046
▁없대	-10.3056
▁교정	-10.3056
▁테이블	-10.3056
▁ᅮᅮᅮᅮᅮ	-10.3061
▁보이는데	-10.3061
▁나가는	-10.3071
▁경기	-10.3085
▁저걸	-10.3085
▁떨어져서	-10.3087
▁가져가	-10.309
발	-10.309
▁패스	-10.3098
▁타는	-10.3102
▁가려	-10.3116
▁강사	-10.3121
▁쓰는데	-10.3121
▁네일	-10.3124
▁쌀국수	-10.3129
▁필	-10.3133
때	-10.3133
▁했오	-10.3134
▁받	-10.3135
▁궁금하다	-10.3135
▁바빠	-10.3136
▁했거든	-10.3145
▁중독	-10.3146
▁배경	-10.3148
▁_	-10.3151
▁오리	-10.3152
▁해봤는데	-10.316
▁뉘	-10.3163
▁하필	-10.3163
토	-10.3163
짘	-10.3164
▁봐야겠다	-10.3168
▁욜	-10.3174
▁천원	-10.3178
▁투어	-10.318
▁쳐서	-10.3183
지는	-10.3185
▁안정	-10.3186
▁둬	-10.319
▁그럴까	-10.3193
▁받아야	-10.3194
타	-10.3195
▁욧	-10.3206
▁되냐고	-10.3215
▁부터는	-10.3222
▁샀	-10.3235
▁어유	-10.3235
▁신입	-10.3235
▁연결	-10.3238
▁와이파이	-10.3249
▁모아서	-10.3251
▁쉽게	-10.3258
▁놔서	-10.3258
▁사가	-10.3267
▁기절	-10.3267
▁으으	-10.3268
▁않은데	-10.3269
▁러	-10.3275
▁개꿀	-10.3279
▁ᄆᄎ	-10.3279
▁뉴	-10.3284
▁리스	-10.3287
▁좋긴	-10.3291
▁찾고	-10.3291
▁최애	-10.3294
▁엉덩이	-10.3294
▁자식	-10.3303
▁바바	-10.3306
다니	-10.3306
▁컴활	-10.3309
▁해보니	-10.3311
▁올라	-10.3312
▁편지	-10.3318
▁사랑니	-10.3319
▁보고싶다	-10.332
▁의견	-10.3321
▁웃김	-10.3324
▁자유	-10.3328
▁두부	-10.3338
▁잇으면	-10.3339
▁선풍기	-10.3339
▁자라고	-10.3348
▁차로	-10.335
▁보여줘	-10.3354
▁비타민	-10.3354
▁감사합니다	-10.3355
▁인분	-10.3364
구만	-10.3371
▁재질	-10.3374
▁바꾸고	-10.3375
▁어이	-10.3376
▁신기	-10.3378
▁팔고	-10.3381
▁귀엽	-10.3383
▁고등학교	-10.3384
▁당분간	-10.3384
▁끌	-10.3394
▁차단	-10.3397
▁매력	-10.3401
▁자라	-10.3408
▁해야하나	-10.3413
▁하다고	-10.3417
▁해야하는데	-10.3417
▁띠	-10.3419
▁있었다	-10.3423
▁서는	-10.3426
▁되네	-10.3435
▁귀엽다고	-10.3436
▁최악	-10.3446
▁전이	-10.3448
▁피티	-10.3448
▁나오지	-10.3449
▁헤어	-10.3454
▁듣기	-10.3466
▁첫날	-10.3477
판	-10.3481
▁감성	-10.3482
▁지에스	-10.3492
▁=	-10.3494
▁편한	-10.3494
▁갈색	-10.3498
▁적어	-10.3503
▁읍	-10.3505
▁김치찌개	-10.3507
▁여자친구	-10.3507
▁이상하게	-10.3509
▁낰	-10.351
▁이미지	-10.3515
▁순대	-10.3516
▁..??	-10.352
▁나야	-10.352
▁밴드	-10.3524
▁로션	-10.3545
▁부러워	-10.3547
▁졸	-10.355
▁맛있지	-10.3551
▁번은	-10.3551
▁검	-10.3552
▁표현	-10.3554
▁버전	-10.3555
▁빠	-10.3556
▁공간	-10.3557
▁시도	-10.3558
▁고객	-10.3565
▁뷔페	-10.3569
▁습관	-10.3569
▁여섯시	-10.357
터	-10.3575
▁야간	-10.3576
▁않다고	-10.3601
▁칸	-10.3604
▁해라	-10.3605
루	-10.3609
▁윗	-10.3615
▁슈퍼	-10.3615
▁깜짝	-10.3615
▁아메리카노	-10.3615
▁열어	-10.3619
▁인강	-10.3621
▁사줘	-10.3621
▁금지	-10.3622
▁났어	-10.3628
▁벼	-10.3628
▁기운	-10.363
▁투표	-10.363
▁아까워	-10.3631
▁^	-10.3632
▁경주	-10.3633
▁받지	-10.3634
▁울산	-10.3635
▁성공	-10.3636
무	-10.364
겠네	-10.3645
▁재밋	-10.3647
▁가는게	-10.365
▁말구	-10.3654
▁와야	-10.3662
▁직업	-10.3663
▁이었어	-10.3665
▁가보고	-10.3673
▁하잖아	-10.3683
▁다섯시	-10.3687
▁생김	-10.3688
▁신세계	-10.3694
▁좋더라	-10.3698
▁샵	-10.3711
▁연봉	-10.3726
포	-10.3732
▁말씀	-10.3736
파	-10.3739
▁했었는데	-10.3744
▁한국사	-10.375
▁취미	-10.3757
▁토스트	-10.3758
▁입은	-10.3758
▁빈	-10.3762
▁충전기	-10.3762
▁해준	-10.3765
▁앤	-10.3768
▁패	-10.3769
▁봤다고	-10.3772
▁패드	-10.3773
▁멋	-10.3775
▁냉	-10.3778
하지	-10.378
▁같네	-10.3781
▁북	-10.379
▁손톱	-10.38
▁했다는	-10.3802
▁어딜	-10.3805
▁기업	-10.3811
▁홍콩	-10.382
랴	-10.3823
▁하믄	-10.3827
▁먹다가	-10.3828
▁구리	-10.383
▁한지	-10.3832
▁저래	-10.3833
▁훔	-10.3835
▁론	-10.3837
▁앵	-10.3838
▁주가	-10.3845
▁매트	-10.3848
▁마실	-10.385
▁평가	-10.3851
▁야식	-10.3851
▁면세점	-10.3852
▁란	-10.3865
▁리얼	-10.3867
▁으로도	-10.3868
▁싶었는데	-10.387
▁닷	-10.3872
▁다니고	-10.3872
▁코드	-10.3874
▁불고기	-10.3884
▁식빵	-10.3884
▁랬	-10.3897
복	-10.39
▁국수	-10.3902
▁가까운	-10.3908
▁마시	-10.3918
▁흥	-10.392
▁끔	-10.3922
▁래서	-10.393
▁화이트	-10.3932
▁해보니까	-10.3933
▁안되나	-10.3933
▁회원	-10.3934
▁출구	-10.3934
▁관계	-10.3935
▁뿌	-10.3935
▁웡	-10.3936
▁르	-10.3942
느	-10.3946
▁환전	-10.3948
▁해보	-10.3951
▁맞아요	-10.3951
▁와플	-10.3955
▁보임	-10.3957
살	-10.396
▁도대체	-10.3964
▁양파	-10.3967
▁온거	-10.3969
▁만나자고	-10.3971
▁서서	-10.3972
▁별거	-10.3974
크	-10.3981
▁삼촌	-10.3981
▁손가락	-10.3981
▁여친	-10.3983
▁아프	-10.399
▁나가고	-10.3991
▁예쁘다고	-10.3992
▁쌍	-10.3994
▁조합	-10.3997
▁수영장	-10.3998
▁해보라고	-10.3999
▁해줌	-10.4
▁야할듯	-10.4002
▁친한	-10.4007
▁사와	-10.4009
▁휴무	-10.4014
▁같지만	-10.4015
▁살라	-10.4018
▁다니	-10.402
▁길게	-10.4023
▁괜	-10.4028
▁나왔다고	-10.4028
▁상품권	-10.4029
▁미래	-10.4031
▁기한	-10.4034
▁들어간	-10.4037
▁싸다	-10.4046
▁맞아서	-10.4048
▁오케	-10.4048
▁하고싶다	-10.4051
▁청년	-10.4053
▁공사	-10.406
▁모르	-10.4061
▁예쁘게	-10.4064
▁내면	-10.4064
▁왠	-10.4072
▁받는다	-10.4074
▁욕심	-10.4079
▁크고	-10.4079
▁모르겠	-10.4089
▁글케	-10.409
▁어떻	-10.4094
▁단발	-10.4096
▁않지만	-10.4099
▁잠실	-10.4101
▁공지	-10.4105
▁않으면	-10.4107
▁ᄋᄆᄋ	-10.411
▁하는거지	-10.4112
▁ᅩ	-10.4125
▁프린트	-10.4126
▁매번	-10.4129
▁쓰는거	-10.4129
▁그럴수도	-10.413
▁사료	-10.4131
▁대면	-10.4132
▁있냐	-10.4139
▁이럴	-10.4139
겟다	-10.4148
▁오오오	-10.4152
▁.........	-10.4154
▁밀	-10.4154
▁핫도그	-10.4175
▁현장	-10.4177
개	-10.4189
좀	-10.4193
▁제목	-10.4196
▁콩	-10.4198
▁두번째	-10.4208
▁현대	-10.4215
▁먹을거야	-10.4219
▁있겠다	-10.422
▁연휴	-10.4227
▁대학교	-10.4236
▁준대	-10.424
▁겠지	-10.4242
▁떠서	-10.4243
▁힘내	-10.4245
▁영화관	-10.4247
▁보내줘	-10.4249
▁35	-10.4252
댜	-10.4253
▁코스트코	-10.4258
▁격리	-10.4259
▁롱	-10.4263
▁그러자	-10.4266
▁라이	-10.4268
▁조만간	-10.4275
▁웃	-10.4278
▁끓여	-10.4278
▁이안	-10.4281
▁쉽지	-10.4289
▁봉지	-10.429
있	-10.429
▁최대	-10.4291
▁세계	-10.4293
▁자가	-10.4297
▁보장	-10.4303
▁들어와	-10.4308
▁피시방	-10.4309
▁싶지	-10.4312
▁텀블러	-10.4325
▁노잼	-10.4325
▁아닐	-10.4327
▁오우	-10.4328
▁죽어	-10.4336
통	-10.4336
▁속도	-10.4336
▁달이	-10.4339
▁햌	-10.4343
▁마취	-10.4343
▁먹으려	-10.4347
야지	-10.4349
▁붙여	-10.4351
▁구멍	-10.4352
▁스케줄	-10.4357
▁그래요	-10.4361
▁담달	-10.4361
▁재고	-10.4364
▁좋겟다	-10.4368
▁맞으면	-10.437
▁맵	-10.4372
▁출	-10.4372
▁원하는	-10.4383
▁물어보	-10.439
▁갘	-10.4391
▁,,,,,	-10.4393
위	-10.4396
▁요청	-10.4399
경	-10.4399
▁살거	-10.4408
▁보는거	-10.4408
▁료	-10.4413
▁자면	-10.4414
▁아이스	-10.4418
▁하이	-10.4422
키	-10.4424
▁피해	-10.4427
▁안되서	-10.4432
▁이체	-10.4432
▁폭	-10.4441
▁쇼핑몰	-10.4442
▁요기	-10.4443
▁에서만	-10.4444
▁작아서	-10.4445
▁갖다	-10.4445
▁간만	-10.4446
▁슬프다	-10.4449
▁찜	-10.4451
▁강제	-10.4462
▁아니구	-10.4463
너	-10.4466
▁슴	-10.4466
▁줬어	-10.4472
니깐	-10.4474
▁차는	-10.4478
▁해야겠다고	-10.4483
▁효	-10.4492
▁안햇	-10.4492
▁한의원	-10.4493
▁싫고	-10.4498
▁운동화	-10.4502
▁롱패딩	-10.451
▁생겨	-10.4511
▁작가	-10.4514
▁증상	-10.4515
▁먹는게	-10.4516
▁할것	-10.4516
▁민	-10.4517
▁잘라	-10.4521
▁소설	-10.4529
▁조각	-10.4529
▁모르겠는데	-10.453
▁들으면	-10.453
▁주행	-10.4534
▁폼	-10.4534
▁적응	-10.4541
▁이를	-10.4547
▁순이	-10.4549
▁흐음	-10.4562
▁목욜	-10.4563
▁전날	-10.4573
▁빤	-10.4585
▁아픈데	-10.4587
▁최저	-10.4596
▁플러스	-10.4596
▁실물	-10.4598
공	-10.4608
들	-10.4611
▁하기가	-10.4612
▁늦잠	-10.4613
▁대부분	-10.4613
▁틈	-10.4614
▁보인다고	-10.4615
피	-10.4621
▁달래	-10.4621
▁이긴	-10.4623
▁모아	-10.4624
▁찾아보고	-10.4628
▁사람과	-10.463
▁외국인	-10.4632
▁자다가	-10.4637
▁한거야	-10.4637
▁이며	-10.4637
▁먹을게	-10.4637
▁따뜻한	-10.4637
▁기는	-10.4638
▁좋겠어	-10.4642
▁느	-10.4643
학	-10.4645
▁모해	-10.4645
▁꼴	-10.4646
▁영수증	-10.4647
▁기숙사	-10.4647
▁템	-10.4647
▁청약	-10.4648
▁재난	-10.4648
▁??????	-10.4651
▁지나면	-10.4656
▁의지	-10.4659
▁방탄	-10.4667
▁마시면	-10.4678
▁있다며	-10.4679
▁칼로리	-10.4682
▁국밥	-10.4682
▁모르겠지만	-10.4683
▁클럽	-10.4684
▁거가	-10.4686
▁해준다	-10.4693
▁빠져서	-10.4702
▁올게	-10.4702
간	-10.4705
▁수면	-10.4713
▁서면	-10.4713
▁필라테스	-10.4717
▁어쩐지	-10.4718
▁ᅲᅲᅲᅲᅲᅲᅲᅲ	-10.4718
▁스테이크	-10.4735
▁엘지	-10.4739
▁판다	-10.4745
▁멀어	-10.475
▁타이밍	-10.4751
▁굿굿	-10.4751
▁슬	-10.4752
▁심해서	-10.4755
▁바꿀	-10.4759
셔	-10.4763
▁블루	-10.477
▁나오는거	-10.4771
▁안되는데	-10.4772
▁보고싶어	-10.4779
▁빠른	-10.4783
▁모바일	-10.4786
▁불닭	-10.4787
▁이직	-10.4787
▁테스트	-10.4787
▁커버	-10.4788
▁레드	-10.4789
▁이었다	-10.4791
겟지	-10.4801
▁파서	-10.4801
▁겉	-10.4803
▁주인공	-10.4804
▁무거워	-10.4804
▁식단	-10.4809
▁랑은	-10.4817
▁사게	-10.4822
▁아냐아냐	-10.4822
▁주차장	-10.4823
▁다른사람	-10.4824
▁~~?	-10.4826
▁가스	-10.4827
▁열시	-10.4831
명	-10.4839
▁간지	-10.484
▁겁	-10.4842
▁설사	-10.4842
▁되겠다	-10.485
▁옥수수	-10.4856
▁두유	-10.4859
▁저런거	-10.4859
▁갈듯	-10.486
▁아마도	-10.4861
햇	-10.4864
▁나눈다	-10.4865
▁수건	-10.4871
▁심해	-10.4874
▁싫	-10.4875
▁만이	-10.4877
하게	-10.488
▁인가요	-10.488
▁먄	-10.4882
▁오는거	-10.4889
▁고모	-10.4889
▁적립금	-10.4892
▁축제	-10.4892
▁갔다고	-10.4893
▁실내	-10.4895
▁센	-10.4899
▁합	-10.4905
▁불어	-10.4906
▁같긴	-10.4907
▁봥	-10.4917
▁일까	-10.4926
▁퓨	-10.4928
▁였다	-10.4933
쟈	-10.4937
▁기프티콘	-10.4945
▁적립	-10.4948
▁많음	-10.4952
▁짜장면	-10.4964
▁신어	-10.4969
▁있긴	-10.4981
▁입력	-10.4983
▁들어가는	-10.4984
▁대하	-10.4988
▁같다는	-10.4997
▁아버님	-10.4999
▁갈라	-10.4999
▁꼬치	-10.5
▁입술	-10.5
▁실패	-10.5002
▁시키면	-10.5008
▁엘	-10.5009
▁가니까	-10.5016
▁인턴	-10.5018
증	-10.5032
▁사는게	-10.5034
▁존잼	-10.5034
▁간단하게	-10.5035
▁의심	-10.5038
▁쿠	-10.5042
▁싶으면	-10.5045
▁엑스	-10.5047
▁미역국	-10.5052
▁읽	-10.506
▁모르겠네	-10.5068
▁지나	-10.507
▁같으니	-10.507
잔	-10.5073
▁고맙다고	-10.5078
▁잔다	-10.5079
▁힘들지	-10.508
▁충분히	-10.5088
▁150	-10.5089
▁무대	-10.5091
▁세번	-10.5096
▁끝날	-10.5101
▁좋지만	-10.5106
▁탑	-10.5115
▁입는	-10.5118
뎈	-10.512
▁아우	-10.5121
▁투자	-10.5127
▁볼때	-10.5132
▁여권	-10.5132
▁국가	-10.5142
▁설탕	-10.5143
▁시켰는데	-10.5143
▁그랬나	-10.5146
곸	-10.5149
▁그랴	-10.5159
▁"	-10.5164
▁그땐	-10.5166
▁우동	-10.5167
▁무섭	-10.5168
▁걸릴	-10.5173
▁스럽게	-10.518
▁덕질	-10.5181
▁베이지	-10.5183
▁액	-10.5186
▁땡겨	-10.5188
▁대요	-10.5189
▁전기	-10.5191
▁갔던	-10.5199
▁굽	-10.52
▁지랄	-10.52
▁오냐	-10.521
▁모르지	-10.5216
▁유치원	-10.5216
▁보조	-10.5228
하는데	-10.5228
▁않았어	-10.5231
▁방향	-10.5234
▁허락	-10.5235
▁순위	-10.5235
▁어떤거	-10.5236
▁쌈	-10.5251
는거야	-10.5251
▁욘	-10.526
▁거울	-10.5262
▁그동안	-10.527
▁아유	-10.5271
▁먹고싶	-10.5274
▁시청	-10.529
▁자극	-10.5292
▁살수	-10.5294
▁쓰라고	-10.5302
▁주머니	-10.5308
▁싫은데	-10.531
하니까	-10.5312
▁궁금	-10.5314
▁안좋아	-10.5314
▁십분	-10.5316
▁아쉽	-10.532
▁살기	-10.5321
▁스킨	-10.5326
▁드림	-10.5326
▁리뷰	-10.5326
▁마시는	-10.5327
▁넹넹	-10.533
▁미안하다고	-10.5332
▁만남	-10.5355
▁개강	-10.5357
▁룸	-10.5357
▁이쁘	-10.5359
▁없어도	-10.5371
▁거여	-10.5375
▁수학	-10.5375
▁나왔	-10.5377
▁됐	-10.5377
▁해준다고	-10.5377
▁사는데	-10.5378
▁있는게	-10.5379
▁안될	-10.538
▁조언	-10.5382
▁아프면	-10.5386
▁곳도	-10.539
▁보내면	-10.5392
▁빠져	-10.5397
▁실력	-10.5402
호	-10.5404
▁귀엽고	-10.5405
▁비는	-10.5411
▁전달	-10.5412
▁같으면	-10.542
▁낸	-10.542
▁세대	-10.542
▁논	-10.5428
▁경찰	-10.5434
▁뮤지컬	-10.5437
▁쿠션	-10.5437
▁싸움	-10.544
▁자녀	-10.544
▁흐	-10.5442
▁그렇다	-10.5443
▁행복해	-10.5443
▁랏	-10.5444
▁않는다고	-10.5444
▁봉투	-10.5456
▁명절	-10.5459
▁하도	-10.5467
▁닭갈비	-10.5474
▁비빔밥	-10.5475
▁보낼	-10.5479
▁뭐라도	-10.5484
▁먹었고	-10.5489
▁자야지	-10.5492
▁홈페이지	-10.5493
▁기침	-10.5496
▁모르는데	-10.5497
▁좋대	-10.551
▁매니저	-10.5512
▁술집	-10.552
▁많더라	-10.5522
린	-10.5523
▁적게	-10.5523
별	-10.5528
▁태국	-10.5532
▁맘대로	-10.5532
▁카트	-10.5534
▁모른다고	-10.5541
▁힘들고	-10.5543
▁탕수육	-10.555
▁이서	-10.5551
▁휴지	-10.5552
▁스팸	-10.5564
▁제주	-10.5568
▁ᄑ	-10.5576
▁보관	-10.5577
▁갈아	-10.5578
르	-10.5584
▁햇빛	-10.5589
▁깜빡	-10.5591
▁멤버	-10.5606
▁줬다	-10.5612
▁였나	-10.5614
▁땡	-10.5615
▁스포	-10.5616
▁안되지	-10.5619
▁필요해	-10.562
▁셀카	-10.5626
▁소개팅	-10.5626
▁세탁기	-10.5628
▁누군가	-10.5644
▁있던데	-10.5645
▁시킴	-10.5645
▁보여주	-10.5647
남	-10.5653
▁갠차나	-10.5659
체	-10.5663
▁슬리퍼	-10.5664
▁살때	-10.5664
▁여섯	-10.5664
▁그니	-10.5666
▁좋아한다	-10.5673
▁텐데	-10.5683
▁상의	-10.569
▁참여	-10.5693
▁용이	-10.5695
▁싼거	-10.5706
▁궁금해서	-10.5708
▁어쩌지	-10.571
▁물어보니	-10.571
▁가능한	-10.5716
▁만나러	-10.5724
▁이쁘게	-10.5727
▁귀엽지	-10.5729
▁그래야지	-10.5731
▁펜션	-10.574
▁걸린	-10.574
▁제로	-10.5741
돈	-10.5751
▁듀	-10.5753
즈	-10.5757
▁스스로	-10.576
▁확률	-10.576
▁자켓	-10.5761
▁유리	-10.5764
▁졸려서	-10.5764
▁때려	-10.5768
▁아보	-10.5775
▁캡쳐	-10.5779
▁시킬	-10.5779
▁컵라면	-10.5779
▁바퀴	-10.578
▁직구	-10.578
▁타투	-10.578
▁춤	-10.5781
▁눌러	-10.579
▁되냐	-10.5796
▁민트	-10.5799
▁보일러	-10.58
▁검은	-10.5801
▁수박	-10.5801
▁양심	-10.5802
▁리지	-10.5808
▁나온거	-10.581
▁비밀번호	-10.5818
▁히히히	-10.5818
▁물어봤는데	-10.5818
▁아니니까	-10.582
▁아니네	-10.582
▁몸살	-10.5821
▁덮	-10.5828
▁기술	-10.5829
▁가져	-10.583
▁볼라	-10.583
▁그랬	-10.5834
▁굉장히	-10.5837
거라	-10.5837
▁참아	-10.5841
▁장면	-10.5842
▁만들기	-10.5842
구요	-10.5843
▁냅	-10.5845
▁할수도	-10.5852
▁아쉬워	-10.5853
▁밀크	-10.5857
▁생리통	-10.5858
▁면허	-10.586
▁열두시	-10.5866
▁아낰	-10.5869
▁흡	-10.5872
▁라지	-10.5876
▁저희	-10.5883
▁바디	-10.5884
▁자려고	-10.5886
▁맛있고	-10.5887
▁조심해	-10.5889
▁아니니	-10.589
▁곰	-10.5894
▁쯤에	-10.5895
▁어린	-10.5896
▁스탈	-10.5896
▁생신	-10.5899
▁남겨	-10.5899
▁짠	-10.5902
품	-10.5903
▁물어봐서	-10.5903
▁귀걸이	-10.5915
▁베란다	-10.5915
▁찡	-10.5915
▁기록	-10.5918
▁해주지	-10.5931
▁따뜻하게	-10.5934
▁빠르게	-10.5936
▁계단	-10.5937
▁싫은	-10.5937
▁알리	-10.5939
▁핏	-10.594
는지	-10.5942
버	-10.5942
▁알겠다	-10.5944
▁s	-10.5944
▁잘자	-10.5945
▁걸리면	-10.5946
▁떨어져	-10.5948
▁치는	-10.5948
▁깐	-10.5948
▁내는	-10.5958
▁그렇구만	-10.596
▁받았어	-10.5973
▁주택	-10.5973
▁밀가루	-10.5974
▁바르고	-10.5975
▁머글	-10.5979
▁왜왜	-10.5981
▁시간표	-10.5984
▁어캐	-10.5991
▁엘베	-10.5994
▁덜덜	-10.5994
▁가능성	-10.5998
▁홍보	-10.5999
▁대단하다	-10.6008
▁구만	-10.6008
▁하더라고	-10.6011
▁투맨	-10.6014
▁긍데	-10.6016
▁여행가	-10.6016
▁쪼	-10.6017
▁그린	-10.6017
거아냐	-10.6017
섴	-10.6018
▁안좋은	-10.6021
▁놀다가	-10.6027
▁부어	-10.6027
코	-10.6034
▁정돈	-10.6035
▁했으니	-10.6044
▁소금	-10.6057
▁셧	-10.6058
▁주민	-10.6061
▁원인	-10.6069
군요	-10.607
▁잔뜩	-10.6073
▁현재	-10.6074
▁손목	-10.6075
▁지구	-10.6077
▁주제	-10.6088
▁여드름	-10.6093
▁혜택	-10.6093
▁전자	-10.6095
▁불러서	-10.6098
▁먼데	-10.61
직	-10.6108
▁베이	-10.6108
▁들어오면	-10.6112
▁구이	-10.6114
▁하겠지	-10.612
류	-10.6127
▁모르니까	-10.6135
▁불가	-10.6137
▁해달라	-10.6139
▁사오	-10.6149
▁먹은거	-10.615
▁동의	-10.6158
▁쓰게	-10.6159
▁글치	-10.6163
▁통해	-10.6169
▁주방	-10.6169
▁자기야	-10.617
▁허벅지	-10.6173
▁뜸	-10.6176
▁배민	-10.6177
▁개웃곀	-10.6177
▁드릴	-10.6179
▁맞는거	-10.618
▁공인	-10.6186
▁식이	-10.6186
▁투썸	-10.6193
▁소비	-10.6194
▁찾아봐	-10.6198
▁튀	-10.6205
▁가까이	-10.6206
▁고통	-10.6208
▁형부	-10.6218
▁독	-10.6218
▁구두	-10.622
▁엑	-10.6222
▁먹어요	-10.623
▁있을지	-10.6231
▁비싸다고	-10.6233
▁액정	-10.6234
▁감독	-10.6235
▁들었는데	-10.6235
▁이빨	-10.6237
▁풀어	-10.6238
▁모른다	-10.624
▁다녀와	-10.6241
▁이리	-10.6243
▁안남	-10.6244
▁쓴다고	-10.6246
▁던거	-10.6253
▁복숭아	-10.6254
▁승	-10.6263
할	-10.6265
줘	-10.627
▁좀비	-10.6277
▁팅	-10.6279
▁껴서	-10.6281
▁여기저기	-10.6294
▁줘야	-10.6296
▁리터	-10.6297
견	-10.6304
▁봤을	-10.6306
▁체험	-10.6314
▁막걸리	-10.6315
▁?...	-10.632
▁해봄	-10.6324
▁지나서	-10.6327
▁담아	-10.6327
▁내서	-10.633
겠어	-10.6332
▁달리	-10.6333
▁오일	-10.6335
▁타구	-10.6335
▁상자	-10.6337
▁두면	-10.634
▁보여주고	-10.6341
▁과연	-10.6343
▁양도	-10.6344
▁조건	-10.6349
▁귀가	-10.6352
▁꽉	-10.6354
▁던	-10.6355
▁수욜	-10.6357
▁웃음	-10.6357
▁유통	-10.6358
▁나은	-10.6359
▁개는	-10.6365
▁퍼센트	-10.6376
▁가디건	-10.6376
▁한숨	-10.6381
▁예뻐서	-10.6382
▁귀신	-10.6383
▁만난	-10.6386
▁벚꽃	-10.6391
▁적용	-10.6393
▁집들이	-10.6397
▁맥날	-10.6397
하는	-10.6401
▁안내	-10.641
▁핸드	-10.6417
▁버튼	-10.6417
▁글씨	-10.642
▁그러다	-10.6424
▁시절	-10.6425
▁!!!!!!!!	-10.6431
▁든다	-10.6434
▁일어나면	-10.6437
▁꺼내	-10.6443
▁녀	-10.6451
▁이구만	-10.6453
력	-10.6453
▁온도	-10.6455
알	-10.6459
▁접	-10.6477
▁장갑	-10.648
꼬	-10.648
▁보이지	-10.6481
▁송	-10.6482
▁쿠나	-10.6483
▁쓴다	-10.6488
▁갸	-10.6488
▁뜯어	-10.6489
▁페이지	-10.6493
▁바쁜	-10.6497
▁한쪽	-10.6499
▁ᄏᄏᄀ	-10.65
▁가고싶어	-10.6502
려나	-10.6527
▁쟁이	-10.6528
▁아싸	-10.6531
▁높은	-10.6532
▁1000	-10.6532
▁임신	-10.6538
▁사건	-10.6541
▁청바지	-10.6542
▁트리	-10.6547
▁아깝다	-10.6548
갈	-10.6549
▁있니	-10.6556
▁같더라	-10.656
▁편집	-10.6562
▁취직	-10.6563
▁발목	-10.6564
▁계절	-10.6566
▁지옥	-10.657
▁한국인	-10.6571
▁엑셀	-10.6583
▁부러	-10.6586
▁나지	-10.6595
▁둘이서	-10.6605
▁국민	-10.6605
▁미팅	-10.6605
▁어렸을	-10.6605
외	-10.6605
프	-10.661
▁레	-10.6613
▁치아	-10.6613
▁기적	-10.6615
▁했는	-10.6615
▁가야겠다	-10.662
형	-10.6621
▁든지	-10.663
▁아니여	-10.6637
▁?!?	-10.6639
▁없어요	-10.6644
▁멜론	-10.6646
▁감염	-10.6648
▁모닝	-10.6649
▁다르게	-10.6652
▁허니	-10.6655
▁신라	-10.6656
▁시킨	-10.666
▁시급	-10.6664
▁우왕	-10.6666
▁이태원	-10.6667
▁들을	-10.6667
▁들었다	-10.6667
▁알라딘	-10.6667
▁녹차	-10.6668
▁으응	-10.6669
▁거사	-10.667
▁됏	-10.6675
................	-10.6678
약	-10.668
▁탔어	-10.6681
▁비도	-10.6685
▁보겠다고	-10.6687
▁했으나	-10.6693
볼	-10.6696
▁청소기	-10.6705
▁붙어	-10.6707
▁조용히	-10.6707
▁그룹	-10.6711
영	-10.6715
▁인성	-10.6717
▁찾는	-10.6718
▁무서운	-10.6718
▁숙박	-10.672
▁쩔어	-10.6731
▁쩝	-10.6732
▁완성	-10.6732
▁자동차	-10.6732
▁없더라	-10.6733
▁먹방	-10.6733
▁야해서	-10.6735
▁이마	-10.674
▁할텐데	-10.6743
▁보정	-10.6749
▁언니네	-10.675
▁안전	-10.6752
▁활용	-10.6753
▁아픔	-10.6753
▁보라색	-10.6754
▁자긴	-10.6764
▁먹겠다고	-10.6765
▁들었어	-10.6767
▁예스	-10.6771
▁이런건	-10.6771
▁아앙	-10.6772
▁출석	-10.6774
▁조카	-10.6778
▁처방	-10.6779
▁리더	-10.6779
▁작은거	-10.6782
▁타러	-10.6787
▁그레이	-10.6792
▁올리브영	-10.6795
▁사야겠다	-10.6796
▁힘든데	-10.6801
▁적은	-10.6802
▁팔이	-10.6802
▁생각나서	-10.6803
▁하세요	-10.681
▁서도	-10.6811
▁외출	-10.6817
▁탔는데	-10.6818
▁했는디	-10.6822
▁어려운	-10.6825
▁A	-10.6825
▁남음	-10.6827
▁여수	-10.6829
▁있오	-10.6832
▁망고	-10.6839
▁탈색	-10.6839
▁풍	-10.684
!!!!!!!!!!!!!!!!	-10.684
▁늦어서	-10.6841
▁아는데	-10.6842
▁캬	-10.6842
▁번가	-10.6847
▁인당	-10.6853
▁되긴	-10.6856
▁콩나물	-10.6859
▁강원도	-10.686
▁양제	-10.6865
▁모를	-10.6866
▁안감	-10.6873
▁단지	-10.6875
▁시키	-10.6876
▁좋을거	-10.6877
▁없었어	-10.6879
▁디저트	-10.6881
▁직전	-10.6883
▁준거	-10.6885
▁엠	-10.6889
▁오예	-10.6889
▁짝	-10.6891
는건	-10.6897
▁환승	-10.6903
▁비슷하게	-10.6904
▁작성	-10.6904
▁오천원	-10.6906
▁등등	-10.6907
▁룩	-10.6907
▁김장	-10.6908
▁걸림	-10.6909
주기로	-10.691
▁반복	-10.691
▁라나	-10.6914
▁누르면	-10.6921
▁비싼거	-10.6923
▁매운거	-10.6925
봉	-10.6926
▁진짴	-10.6929
▁방구	-10.693
▁먹이	-10.6934
▁예쁘고	-10.6934
▁말리	-10.6939
▁착	-10.6942
반	-10.6942
▁끝내고	-10.6943
▁된다는	-10.6948
▁목금	-10.6949
▁분들	-10.6949
▁금은	-10.695
▁크크	-10.6955
▁인걸	-10.6966
잖	-10.6969
▁그럴거	-10.697
▁네넹	-10.6978
▁화질	-10.6981
▁최	-10.6983
▁찾기	-10.6985
▁드라이브	-10.6991
▁남았는데	-10.6991
▁아플	-10.6993
▁터치	-10.6994
▁린다	-10.7
▁근로	-10.7001
▁닌	-10.7008
▁알려주	-10.701
▁씹	-10.701
▁캠핑	-10.701
▁버즈	-10.7012
▁진작	-10.7012
▁여성	-10.7014
▁음식점	-10.7014
▁돌이	-10.7015
▁모르겟어	-10.7025
▁배고프다	-10.7028
▁아야	-10.7032
▁가야해	-10.7033
▁농협	-10.7033
▁방콕	-10.7033
▁연속	-10.7036
▁올라가	-10.7046
▁놉	-10.7055
▁우리동네	-10.7055
▁잔소리	-10.7055
▁동아리	-10.7055
▁붕어빵	-10.7055
▁그렇네	-10.7055
▁오네	-10.7059
▁덥다	-10.7062
▁전문	-10.7064
▁오만	-10.7066
하네	-10.7066
▁나감	-10.7067
▁해봐야	-10.7068
▁될것	-10.707
▁간거	-10.7072
▁틴	-10.7075
▁아프지	-10.7077
▁껀	-10.7078
▁심하게	-10.7079
▁묵고	-10.708
▁솔	-10.7081
▁하더니	-10.7086
▁대비	-10.7096
▁자구	-10.7096
▁많으면	-10.7097
▁반려동물	-10.7099
▁와이	-10.7099
▁괜찮네	-10.7099
▁끄고	-10.7102
▁ᄇ	-10.7111
▁훨	-10.7112
▁ᄏᄀᄏ	-10.7112
수도	-10.7117
▁생겼어	-10.7118
▁양배추	-10.7121
▁장바구니	-10.7121
▁옮겨	-10.7121
▁중앙	-10.7124
▁사는거	-10.7124
▁비싸고	-10.7124
▁뇌	-10.7125
▁완	-10.7126
▁아껴	-10.7139
▁받았다고	-10.7143
▁인원	-10.7149
▁두기	-10.7152
▁군산	-10.7155
▁하셔서	-10.7157
▁일로	-10.7159
▁됐네	-10.7163
▁금융	-10.7165
▁머리카락	-10.7165
▁환경	-10.7165
▁화욜	-10.7166
▁똑같	-10.7169
행	-10.7169
▁렷	-10.7171
▁달려	-10.7171
▁월드	-10.7172
▁55	-10.7176
▁해볼	-10.718
▁파는데	-10.718
▁자르고	-10.7183
▁알아봐	-10.7191
▁만족	-10.7193
▁정확히	-10.7205
혀	-10.7205
▁운영	-10.7208
▁혼	-10.7213
▁기여	-10.7217
▁마셔서	-10.7217
▁잇자나	-10.7228
▁보냄	-10.7228
▁익	-10.7229
▁뛰	-10.723
▁없잖아	-10.7232
▁필터	-10.7233
▁서랍	-10.7235
▁뚜	-10.7237
▁갈께	-10.7242
▁왔고	-10.7242
▁귀여워서	-10.7245
▁잤는데	-10.7249
▁구려	-10.725
▁봐라	-10.7254
▁요거트	-10.7255
▁녹음	-10.7255
▁생겼다	-10.7265
▁소문	-10.7267
▁썼는데	-10.7271
▁낫어	-10.7273
▁금제	-10.7281
▁작아	-10.7281
▁빼면	-10.7282
곤	-10.7286
▁얇은	-10.7287
▁오버	-10.7296
▁파우치	-10.7299
▁억지로	-10.73
▁같긴한데	-10.73
▁왕복	-10.7301
▁정답	-10.7302
▁공고	-10.7303
▁냄	-10.7303
▁고파	-10.7303
▁손해	-10.7311
▁일곱시	-10.7313
▁~!!	-10.7313
▁쑤	-10.7318
▁퇴직금	-10.7322
▁피아노	-10.7322
▁우우	-10.7324
▁뽕	-10.7325
▁끝남	-10.7325
▁하는것도	-10.7331
▁거만	-10.7334
▁황	-10.7342
박	-10.7344
▁이러면	-10.7347
▁였지	-10.7348
▁버려서	-10.7356
▁~~~~~~	-10.7357
▁가봄	-10.7359
표	-10.736
난	-10.7364
브	-10.7367
배	-10.7367
▁시리즈	-10.7367
▁베개	-10.7368
▁>	-10.7368
▁장난감	-10.7369
▁상해	-10.7369
▁리스트	-10.737
▁걸까	-10.7371
▁해봐야지	-10.7374
▁나는데	-10.7379
▁지점	-10.7381
▁일어	-10.7383
▁오류	-10.7385
▁입사	-10.739
▁왓챠	-10.739
▁버섯	-10.7393
▁주겠다고	-10.7393
민	-10.7393
네요	-10.7394
▁길어	-10.7394
▁차장	-10.7409
▁톡방	-10.7411
▁교체	-10.7413
▁개비	-10.7414
▁어묵	-10.7416
▁멀어서	-10.7417
▁보내준	-10.7418
풀	-10.7423
▁졸귀	-10.7435
▁ᄋᄒ	-10.744
▁싶음	-10.7444
한데	-10.7445
순	-10.7449
는걸	-10.7449
▁잡아서	-10.7465
었는데	-10.7475
▁ᆞ	-10.7482
▁팡	-10.7485
▁이전	-10.7486
▁어여	-10.7486
께	-10.7492
▁오져	-10.75
▁떨어지면	-10.7502
▁아뇨	-10.7504
▁아가	-10.7509
▁배워	-10.751
▁받기	-10.7513
▁자도	-10.7517
▁하지말고	-10.7522
▁과정	-10.7524
▁빨라	-10.7525
▁정이	-10.7526
있는데	-10.7527
▁담날	-10.7531
▁고급	-10.7535
▁오자	-10.7536
▁괜찮고	-10.7537
▁모르지만	-10.7538
씨	-10.7543
▁레벨	-10.755
▁발급	-10.7551
▁수당	-10.7554
▁여태	-10.7557
▁돼요	-10.7558
머	-10.7559
▁로만	-10.756
▁바꿔서	-10.756
종	-10.7561
▁중국어	-10.7562
▁하고싶어	-10.7562
▁갈라고	-10.7566
▁시대	-10.7571
해서	-10.7572
▁스트레칭	-10.7573
▁흐흐	-10.7573
▁꾼	-10.7576
▁주는데	-10.7582
▁깨서	-10.7582
▁들려	-10.7583
▁그만큼	-10.7591
▁유산균	-10.7596
▁어떤지	-10.7597
▁버렸다	-10.7597
▁멀미	-10.7598
▁말라	-10.7598
▁않았는데	-10.7598
▁나오네	-10.7598
▁없었는데	-10.76
▁올리고	-10.7601
▁착한	-10.7603
▁제한	-10.7607
▁신나	-10.7608
▁넣은	-10.761
▁떄	-10.7614
▁그러니	-10.7616
▁귀찮다	-10.7619
테	-10.7625
▁끊어	-10.7626
▁톤	-10.7626
▁대상	-10.7629
▁그리구	-10.763
▁수치	-10.7632
연	-10.7632
▁빡쳐	-10.7635
▁실기	-10.7638
▁맞을	-10.7638
▁펌	-10.7642
▁이든	-10.7642
▁괜찮으면	-10.7644
▁같아여	-10.7645
▁이러면서	-10.7647
▁조심해야	-10.7647
▁나가기	-10.7648
▁놧	-10.7652
▁나나	-10.7654
▁선수	-10.7654
▁건강검진	-10.7666
▁백퍼	-10.7667
준	-10.7667
▁점심때	-10.7673
▁그램	-10.7677
▁넣	-10.7686
존	-10.7687
▁버거킹	-10.769
▁참나	-10.7691
▁집안	-10.7693
▁정산	-10.7695
▁만나자	-10.7695
▁추운데	-10.7705
▁찾	-10.7708
▁있을거	-10.7711
▁목걸이	-10.7713
▁반에	-10.7714
▁..........	-10.7719
▁g	-10.7719
▁삐	-10.772
▁핑계	-10.7736
▁크으	-10.7739
▁문화	-10.7741
▁힘들게	-10.775
규	-10.7754
▁하기도	-10.7755
▁한텐	-10.7758
▁실망	-10.7762
▁인게	-10.7763
▁으로만	-10.7768
▁어치	-10.7774
▁부턴	-10.7778
▁블	-10.778
▁에다	-10.778
▁대가	-10.778
▁좋으면	-10.7784
▁쵸	-10.7786
▁린	-10.7789
▁안산	-10.7804
▁셀프	-10.7807
▁접속	-10.7807
▁이쁜데	-10.781
▁여자애	-10.7811
있음	-10.7811
▁얍	-10.7812
▁머그	-10.7818
▁랄	-10.7819
▁결	-10.782
▁복지	-10.782
▁불만	-10.7823
▁깔고	-10.7824
▁아닌지	-10.7825
.	-10.7831
울	-10.7831
▁;;;;	-10.7833
▁있거든	-10.7837
▁잤다	-10.7839
▁아홉시	-10.7839
▁미용	-10.784
먹	-10.7844
▁긔	-10.7844
▁해줘야	-10.7844
▁사준	-10.7848
▁레이	-10.7853
▁중요한	-10.7853
▁짜파게티	-10.7854
▁페북	-10.7855
▁콧물	-10.7856
▁예요	-10.7856
▁감고	-10.7861
▁넘어	-10.7873
레	-10.7877
▁언젠가	-10.7878
▁착각	-10.7878
▁빙수	-10.7879
▁유튜버	-10.7879
▁아까워서	-10.7883
가서	-10.7883
▁와라	-10.7883
▁과거	-10.7891
▁400	-10.7893
▁거도	-10.7896
▁몰랐어	-10.7901
▁차도	-10.7902
▁레몬	-10.7902
▁생크림	-10.7902
▁소득	-10.7903
▁나오	-10.7905
▁제작	-10.7906
▁불편해	-10.7908
▁인증서	-10.7909
▁부천	-10.7909
▁하아	-10.7911
▁싸네	-10.7914
▁음성	-10.7919
▁숫자	-10.7927
▁라이브	-10.7929
있어서	-10.7929
▁많을	-10.7937
▁지고	-10.7942
▁짧게	-10.7942
▁잔다고	-10.7943
▁골목	-10.795
▁경기도	-10.7962
▁늦어	-10.7963
▁특	-10.7964
▁조회	-10.7965
▁기념	-10.7966
▁웨이	-10.7969
▁알았다고	-10.797
▁전에	-10.797
▁다르	-10.7974
▁복사	-10.7977
▁개념	-10.7977
▁색상	-10.7978
▁가로	-10.7981
▁일지	-10.7981
▁알겟	-10.7985
에서	-10.7986
▁입어도	-10.7989
▁남은거	-10.7991
▁가유	-10.7991
▁인테리어	-10.7998
과	-10.8004
▁가능해	-10.8011
▁좋아한다고	-10.8012
후	-10.8015
하나	-10.8016
▁ᄒᄒᄒᄒᄒᄒ	-10.8016
▁오해	-10.8016
▁성인	-10.8019
▁오시	-10.8019
▁있었	-10.802
▁먹었던	-10.8022
▁맥도날드	-10.8022
▁송금	-10.8023
▁매직	-10.8024
▁변	-10.8027
절	-10.8027
누	-10.8044
▁닭강정	-10.8047
▁간호사	-10.8048
▁오이	-10.8049
▁숲	-10.805
▁양재	-10.8051
▁도해	-10.8055
▁시키는	-10.806
▁짧은	-10.8063
▁안녕	-10.8069
▁꽁	-10.8069
▁아몬드	-10.8073
▁제거	-10.8074
▁해본	-10.8074
▁가운데	-10.8085
▁토끼	-10.8092
▁미쳤어	-10.8093
▁할줄	-10.8096
▁했던거	-10.8097
▁뱅기	-10.8098
▁않니	-10.8101
▁삼십분	-10.8102
▁였	-10.8113
▁알림	-10.8116
▁말까	-10.8118
워	-10.812
▁화분	-10.812
▁목욕	-10.8121
▁으악	-10.8121
▁났는데	-10.8122
▁뎌	-10.8123
▁염증	-10.8126
▁잇겟다	-10.8129
▁놀이	-10.8131
▁타야	-10.8132
딴	-10.8132
▁말로	-10.8132
▁인상	-10.8136
▁줘도	-10.8136
▁보는게	-10.8137
운	-10.8139
▁하시는	-10.8139
▁브	-10.8143
▁호호	-10.8145
▁영향	-10.8145
▁기기	-10.8148
닝	-10.8154
▁말고는	-10.8155
▁후우	-10.8158
▁#?	-10.816
▁모르겠고	-10.816
삼	-10.8161
▁도하	-10.8164
▁붙	-10.817
▁워치	-10.8171
▁가볼까	-10.8174
▁잇네	-10.8174
▁쎄	-10.8175
▁잇게	-10.8177
▁나간	-10.8187
▁잇을	-10.8188
▁들어야	-10.8189
▁뻥	-10.8191
▁타오바오	-10.8193
▁청첩장	-10.8193
▁브라운	-10.8193
▁빛	-10.8201
라는	-10.8207
권	-10.8209
▁극혐	-10.8215
▁건대	-10.8216
▁존예	-10.8218
▁결재	-10.8218
▁후딱	-10.8218
▁국내	-10.8219
▁비싸네	-10.822
▁으론	-10.822
잨	-10.8222
▁대단해	-10.8222
▁되겠지	-10.8223
▁주의	-10.8226
▁예쁘	-10.8226
▁편하고	-10.8228
▁주스	-10.8232
▁랰	-10.8235
락	-10.8238
▁먹었더니	-10.8245
▁비해	-10.8245
▁낚시	-10.8245
▁씨유	-10.8246
▁않아도	-10.825
▁어머	-10.8251
▁개맛	-10.8259
▁버리	-10.826
▁볼거	-10.8261
▁기부	-10.8264
▁꿔	-10.8266
▁오니	-10.8269
▁야할	-10.8269
▁새해	-10.827
▁자자	-10.8271
▁수익	-10.8271
▁막창	-10.8271
▁만화	-10.8273
▁잘생긴	-10.8276
▁기억나	-10.8276
▁싶다는	-10.8277
▁간대	-10.8281
▁빗	-10.8284
▁세탁	-10.8289
▁번만	-10.8295
▁빵집	-10.8298
온	-10.8298
▁춥	-10.8299
▁껏	-10.83
▁역대	-10.8306
▁해보면	-10.8309
▁장마	-10.831
▁가네	-10.8311
▁하면되	-10.8312
▁놀자	-10.8314
▁패키지	-10.8317
▁천재	-10.8319
▁안된대	-10.8323
▁할꺼	-10.8324
▁추운	-10.8328
▁없냐	-10.8333
▁이디야	-10.8342
▁밀리	-10.8342
▁일거	-10.8345
▁양식	-10.8346
▁어떠	-10.8348
▁기다려야	-10.8356
▁타로	-10.8362
▁올거	-10.8366
▁기출	-10.8371
▁먹었지	-10.8373
▁샷	-10.838
▁무게	-10.8387
▁할께	-10.8387
▁업데이트	-10.8392
▁엑소	-10.8393
▁단점	-10.8395
▁어쩌다	-10.8395
▁공개	-10.8396
▁해주세요	-10.8404
▁?!!	-10.8406
▁격	-10.8408
▁맞는데	-10.8409
▁들음	-10.8411
▁왜안	-10.8414
▁찾으러	-10.8417
▁무섭다고	-10.8419
▁마냥	-10.8419
▁직장인	-10.842
▁노랑	-10.8422
▁그만두고	-10.8431
▁두통	-10.8437
▁쿨	-10.844
▁렌트	-10.8442
▁찜닭	-10.8442
▁아부지	-10.8443
져서	-10.8444
▁몰러	-10.8444
▁멋져	-10.8444
▁좋을듯	-10.8446
▁농	-10.846
▁출퇴근	-10.8465
▁유투브	-10.8467
▁헿	-10.8468
▁그러니깐	-10.8469
▁음료수	-10.8471
▁하려구	-10.8472
망	-10.8473
▁멘탈	-10.8493
▁핳	-10.8493
▁추카	-10.8493
▁열정	-10.85
▁계약서	-10.8503
▁고맙다	-10.8503
▁뇨	-10.8511
▁보냈는데	-10.8512
▁좌	-10.8518
▁만나기	-10.8518
▁당면	-10.8521
계	-10.8528
그램	-10.8531
?	-10.8538
▁친척	-10.8544
▁코코	-10.8544
▁어카	-10.8561
▁내시경	-10.8569
▁유심	-10.8574
▁빌라	-10.8576
▁중딩	-10.8578
▁한장	-10.8578
▁왔으면	-10.8581
▁쓰려고	-10.8584
청	-10.859
▁신기하네	-10.8592
▁논문	-10.8595
▁답변	-10.8595
▁외식	-10.8596
▁불안	-10.8598
었어	-10.8599
▁어려워서	-10.8602
강	-10.8604
▁a	-10.8614
▁샌	-10.8619
▁덥	-10.862
▁컬러	-10.8621
▁할만	-10.8621
▁빵빵	-10.8622
▁이러	-10.8624
▁넣는	-10.8629
▁안된	-10.8635
▁폐	-10.8636
▁넣을	-10.8637
격	-10.8642
▁웃긴	-10.8643
▁버렸어	-10.8643
▁팝콘	-10.8646
▁숙제	-10.8646
▁엽기	-10.8647
▁나갔다	-10.8649
▁신전	-10.8655
▁싫어하는	-10.8655
▁네시	-10.8656
▁나간다고	-10.8657
▁전철	-10.8658
론	-10.866
셈	-10.8661
맛	-10.8663
▁고갈	-10.8667
▁똑	-10.8668
▁쓰던	-10.867
▁해리포터	-10.8672
▁다니면	-10.8673
▁칩	-10.8674
▁공구	-10.8683
▁주로	-10.8688
▁되지만	-10.8693
▁바닐라	-10.8697
▁메이플	-10.8698
▁먹다	-10.8698
▁소독	-10.8698
▁뱅	-10.8699
▁퇴	-10.8699
쓰	-10.87
답	-10.8703
▁버릴	-10.8708
엔	-10.8713
▁걸리	-10.8721
▁타자	-10.8722
▁뚜껑	-10.8724
▁비싸지	-10.8733
▁다녀서	-10.8733
▁가니	-10.8735
▁범	-10.8738
▁봨	-10.8739
석	-10.8747
▁단기	-10.8748
▁모니터	-10.8749
▁레시피	-10.875
▁솜	-10.8752
▁가져와	-10.8754
▁그러다가	-10.876
▁전화해	-10.8762
▁빠진	-10.8764
▁위주	-10.8766
▁서버	-10.8774
▁포토샵	-10.8776
▁휴게소	-10.8776
▁식욕	-10.8777
▁명품	-10.8782
▁대학생	-10.8783
▁독일	-10.8788
▁#..	-10.8795
▁집주인	-10.8803
▁테이프	-10.8804
▁호주	-10.8808
▁가정	-10.8809
▁고정	-10.8809
▁아바	-10.8817
▁찍는	-10.8818
𐨛	-10.8818
▁매진	-10.8818
▁보려	-10.8827
▁고가	-10.8828
▁중학교	-10.8829
▁팔아서	-10.8829
▁해보려고	-10.8834
▁중인	-10.8835
▁배우자	-10.8835
▁완전히	-10.8838
▁찾아볼게	-10.8851
▁귀엽네	-10.8852
▁립스틱	-10.8854
▁찰떡	-10.8854
▁예능	-10.8855
▁어렵	-10.8856
▁장기	-10.8856
▁물어보면	-10.8857
▁터져서	-10.8857
▁열공	-10.8858
▁S	-10.886
▁물어볼	-10.8861
▁가보자	-10.8868
▁비싸게	-10.8876
▁행복한	-10.8877
▁각각	-10.8881
라도	-10.8883
▁가치	-10.8884
▁청주	-10.8885
▁장점	-10.8887
▁봤지	-10.889
▁인도	-10.8894
▁아치	-10.8898
▁나가지	-10.8899
▁가가	-10.89
▁잌	-10.89
▁받는다고	-10.8901
▁티셔츠	-10.8907
▁코엑스	-10.8907
▁청구	-10.8916
▁나유	-10.8917
▁한글	-10.8919
▁않는데	-10.8923
▁빠르다	-10.8927
▁차려	-10.8931
▁주먹밥	-10.8933
▁남았어	-10.8934
▁B	-10.8935
▁월화	-10.8936
▁창고	-10.8936
충	-10.8944
▁자세히	-10.8952
▁받는데	-10.8953
▁600	-10.896
▁가볍게	-10.896
▁그럴듯	-10.8966
▁런	-10.897
▁오뎅	-10.8971
▁혹	-10.8974
▁틀어	-10.8979
▁썼어	-10.8979
▁부르	-10.8984
▁바꾸면	-10.8984
▁쓴거	-10.8984
저	-10.8986
▁피어싱	-10.8986
▁정거장	-10.8987
▁포항	-10.8987
▁끝났어	-10.8988
▁웬	-10.899
▁실비	-10.8991
▁했으니까	-10.8991
▁주간	-10.9
▁야하는	-10.9002
▁람	-10.9004
▁수다	-10.9005
▁어보	-10.9005
▁이쁜거	-10.9007
▁남았다	-10.9009
▁기초	-10.9012
▁어짜피	-10.9013
▁피피티	-10.9013
▁실업	-10.9013
▁보건소	-10.9014
▁가져다	-10.9016
▁아씨	-10.9017
▁길어서	-10.9018
▁없다는	-10.9018
▁따고	-10.9025
▁내리면	-10.9034
▁그립	-10.9036
▁그러는	-10.9038
▁큼	-10.9041
▁집가는	-10.9043
▁배우고	-10.9045
▁들려서	-10.9046
▁뜨거운	-10.9052
▁고려	-10.9053
▁~~!!	-10.9055
▁ᄏᄀ	-10.9055
▁연수	-10.9061
까지	-10.9065
▁컨셉	-10.9067
▁우짜	-10.9067
▁마침	-10.9068
▁걸린다	-10.9069
놓은	-10.9076
료	-10.9086
▁맛있더라	-10.9087
▁사갈까	-10.9087
▁프라이어	-10.9095
▁보냈다	-10.9097
▁고파서	-10.9097
▁비누	-10.9101
▁하고있어	-10.9104
▁아미	-10.9104
▁않지	-10.9108
▁한복	-10.9111
▁않냐고	-10.912
▁채널	-10.912
▁먹으니	-10.9123
▁영국	-10.9126
▁안타	-10.9129
▁가벼	-10.913
▁제사	-10.9133
▁할까봐	-10.9134
▁예쁜데	-10.9134
▁라테	-10.9141
목	-10.9141
▁먹어라	-10.9144
▁짜나	-10.9146
현	-10.9148
▁빨간색	-10.9148
▁체리	-10.9152
▁했냐	-10.9159
▁없었다	-10.9161
▁썽	-10.9163
▁물어보자	-10.9163
▁자매	-10.9165
▁샘플	-10.9166
▁늦게까지	-10.9171
인데	-10.9173
▁오천	-10.9175
▁선크림	-10.9175
▁조은	-10.9175
▁같은건	-10.9179
▁좋아할	-10.918
▁담당	-10.9184
𐌅	-10.9193
▁휴학	-10.9199
▁되었다고	-10.9201
▁점장님	-10.9202
▁로우	-10.9203
▁바쁘	-10.9204
▁아구	-10.9204
▁왴	-10.9204
▁센스	-10.9205
▁없다며	-10.9215
▁일케	-10.9221
▁로그	-10.9224
▁좋아하지	-10.9224
있다	-10.9225
▁교통	-10.9232
▁크다	-10.9233
▁더위	-10.9236
▁피로	-10.9238
▁^^..	-10.9241
는것도	-10.9241
▁똑같아	-10.9253
▁비상	-10.9255
▁답답해	-10.9255
▁들어옴	-10.9258
▁바이러스	-10.926
▁짜장	-10.9263
▁믿어	-10.9264
▁120	-10.9268
▁말안	-10.9271
▁벌어	-10.9273
밥	-10.9274
▁대장	-10.9274
▁믿고	-10.9275
▁말햇	-10.9276
▁하는디	-10.9277
▁마나	-10.9282
▁위험	-10.9282
▁존버	-10.9294
▁않어	-10.9295
▁라니까	-10.9298
▁밤새	-10.9301
▁없자나	-10.9307
▁서해	-10.9309
▁아이템	-10.9311
▁어린이집	-10.9312
▁걸리는	-10.9313
▁들어온	-10.9314
▁라이트	-10.9315
▁해야겟다	-10.9318
▁써야지	-10.9319
▁나눈	-10.9321
▁번개	-10.9322
▁무기	-10.9327
▁해가지고	-10.9327
▁올까	-10.9328
▁그랫	-10.9329
▁없오	-10.9337
▁애슐리	-10.9339
▁워낙	-10.9339
▁평균	-10.9339
▁녀석	-10.9339
▁라멘	-10.9339
▁걷기	-10.934
▁포도	-10.934
▁몰랐는데	-10.934
▁원룸	-10.9343
▁몰랑	-10.9343
▁옼	-10.9344
▁스시	-10.9344
▁주는거	-10.9346
▁다니면서	-10.9347
▁보상	-10.9348
▁내려가	-10.9348
▁좋아하고	-10.935
▁잠도	-10.9353
▁실시간	-10.9361
▁?.?	-10.9364
▁레깅스	-10.9366
▁보험료	-10.9368
▁진상	-10.9369
▁웃기다고	-10.9373
▁싶을	-10.9374
▁한건데	-10.9375
▁인수	-10.9375
▁이하	-10.9375
▁모르겟	-10.9384
▁덥고	-10.9395
▁일어남	-10.9395
▁왔어요	-10.9397
▁입어야	-10.94
▁받는거	-10.9402
▁코인	-10.9406
▁이어	-10.9413
▁받았	-10.9414
▁그렇겠지	-10.9416
▁대단	-10.9419
▁겠네	-10.942
▁광	-10.942
▁독립	-10.9422
▁개발	-10.9426
▁동선	-10.9426
▁되는거야	-10.9439
▁2000	-10.9442
▁어울려	-10.9443
▁본사	-10.9448
▁보쌈	-10.945
▁묘	-10.9451
▁#...	-10.9454
▁조개	-10.9456
▁나눠서	-10.9456
▁이럼	-10.9457
▁ᅲᅲᅲᅲᅲᅲᅲᅲᅲ	-10.9459
▁초기	-10.9464
▁무한	-10.9464
▁먹어야겠다	-10.9467
▁보더	-10.947
▁대지	-10.9471
▁배아	-10.9474
▁트위터	-10.9478
▁간단히	-10.9478
▁초록색	-10.9478
▁수영복	-10.9479
▁인물	-10.9481
▁뎁	-10.9481
▁마싯	-10.9481
▁키우는	-10.9482
▁좋아함	-10.9487
▁묜	-10.9489
▁가까	-10.949
▁맛있음	-10.9491
▁끝난	-10.9498
▁옄	-10.9499
▁ᄆᄌᄆᄌ	-10.9499
▁자제	-10.9503
▁조명	-10.9503
▁신분증	-10.9506
▁픽업	-10.9506
▁아무튼	-10.9506
▁경비	-10.9507
▁보호	-10.951
긔	-10.9512
▁달력	-10.9512
▁구글	-10.9513
▁뿌려	-10.9514
겨	-10.9515
▁문신	-10.9518
▁생각나	-10.9521
▁ᅮᅮᅮᅮᅮᅮ	-10.9529
▁일회용	-10.9533
▁속눈썹	-10.9534
▁실험	-10.9535
▁오렌지	-10.9535
▁매출	-10.9536
▁알앗어	-10.9537
▁타입	-10.9539
▁구석	-10.954
▁사항	-10.9541
▁용기	-10.9543
기만	-10.9543
름	-10.9543
▁헛	-10.9544
▁이드	-10.9548
▁재밌	-10.9554
▁회복	-10.9555
냥	-10.9555
▁끝내	-10.9559
▁이러다	-10.956
▁놀다	-10.9561
▁훠궈	-10.9562
▁초록	-10.9562
▁빚	-10.9562
▁물어봄	-10.9562
▁세수	-10.9563
▁전시회	-10.9564
▁어딘데	-10.9564
▁다녀와서	-10.9567
몸	-10.9568
▁열고	-10.9569
▁아이디어	-10.9573
▁봣는데	-10.9578
▁해용	-10.958
▁배불러	-10.9581
또	-10.9589
▁̊̈	-10.959
▁왔네	-10.9592
▁일상	-10.9595
급	-10.9595
▁재밌는	-10.9595
▁겄	-10.9598
▁배는	-10.96
▁창원	-10.9603
▁만들면	-10.9605
▁여지	-10.9614
▁드라이	-10.9617
▁쌉	-10.9618
▁최종	-10.9619
▁먹네	-10.9635
▁//	-10.9637
▁.,	-10.9637
▁재밌다	-10.964
▁괜찮을거	-10.9642
▁수강신청	-10.9647
듀	-10.9648
▁심심해서	-10.965
▁있겠지	-10.9651
▁항공	-10.9652
▁애교	-10.9656
▁봐줘	-10.9656
▁가려면	-10.9657
▁게다가	-10.9657
▁??!	-10.9664
▁쉬운	-10.9667
▁모드	-10.9668
▁보내야	-10.9673
▁아니래	-10.9674
송	-10.9674
▁잇대	-10.9675
▁얼렁	-10.9675
▁숙취	-10.9675
▁마이너스	-10.9675
▁팥	-10.9676
▁오타	-10.9679
▁율	-10.9682
▁줄이	-10.9685
▁구역	-10.9688
▁긱사	-10.9689
▁있구나	-10.969
▁줬다고	-10.9693
▁사줄게	-10.9694
▁칫솔	-10.9704
▁채팅	-10.9704
▁속옷	-10.9705
▁역할	-10.9705
벌	-10.9706
▁골드	-10.9708
▁저렴한	-10.9708
거지	-10.9709
▁불량	-10.971
▁모르니	-10.9712
암	-10.9721
▁들어오는	-10.9722
▁안될거	-10.9725
▁지지	-10.9725
▁가죽	-10.9726
▁갤	-10.9727
▁신상	-10.9737
▁가능하다고	-10.9742
▁부모	-10.9743
▁팔면	-10.9743
▁야스	-10.9744
▁삿어	-10.9745
▁돌리고	-10.9746
▁비싼데	-10.9753
▁멋진	-10.9756
▁이양	-10.9759
▁교양	-10.9762
▁증명서	-10.9762
▁신호	-10.9764
▁첨부	-10.9767
▁조식	-10.9768
▁줄까	-10.9769
▁그런것	-10.9777
▁중임	-10.9778
▁나더	-10.9779
▁좋았어	-10.9782
▁스키	-10.9789
▁☆	-10.979
낰	-10.979
값	-10.9791
▁되더라	-10.9791
▁생겼는데	-10.9791
▁갬	-10.9792
▁선호	-10.9792
▁거양	-10.9793
▁시간대	-10.9794
▁사준다고	-10.9795
▁다낭	-10.9796
▁한식	-10.9797
▁들면	-10.9802
▁부족	-10.9803
▁주위	-10.9805
▁랔	-10.981
댘	-10.9812
▁옷장	-10.9814
엄	-10.9817
▁아깝	-10.9817
▁부정	-10.9818
▁탈락	-10.982
▁막혀서	-10.9822
▁사촌	-10.9824
▁필요하면	-10.9825
▁섬	-10.9825
▁내기	-10.9827
▁입지	-10.9829
▁가득	-10.9832
▁다른건	-10.9838
▁그런거야	-10.9838
따	-10.9844
▁비슷해	-10.9846
▁둠	-10.9849
▁지모	-10.9852
▁순천	-10.9859
▁구로	-10.986
▁,,,?	-10.986
욤	-10.9864
▁낙	-10.9867
▁할거면	-10.9868
▁작게	-10.9868
▁생각난다	-10.9874
▁그렇다면	-10.9878
고야	-10.9885
▁좋당	-10.9886
▁조심해서	-10.9894
▁^^...	-10.9901
었	-10.9904
▁살거야	-10.9904
▁헝	-10.9906
▁맛있었다	-10.9906
▁배고	-10.9906
▁스파게티	-10.9906
▁아웃백	-10.9907
▁무늬	-10.9907
▁팔찌	-10.9908
▁수원역	-10.9908
던가	-10.9911
하자	-10.9912
▁먹고싶은데	-10.9913
▁제외	-10.9916
글	-10.9922
▁작고	-10.9922
결	-10.9923
▁피방	-10.9928
교	-10.9929
▁께서	-10.9935
▁파이팅	-10.9936
▁장염	-10.9938
▁지난주	-10.9938
▁들어도	-10.9939
▁검진	-10.9939
▁아메	-10.9939
▁더운데	-10.9941
눈	-10.9945
창	-10.9949
▁좋다는	-10.9959
▁하겠	-10.9962
▁하겠어	-10.9962
▁고맙	-10.9964
▁들어올	-10.9964
▁놀라	-10.9964
▁끝나는	-10.9965
▁여전히	-10.9965
▁kg	-10.9965
▁춥고	-10.9966
▁늦은	-10.9968
▁들어가고	-10.997
하는거	-10.9974
▁화상	-10.9975
▁걸린다고	-10.9979
▁자다	-10.9983
▁플레이	-10.9992
▁올린	-10.9993
▁점검	-10.9995
▁부서	-10.9995
▁검정색	-10.9995
▁정장	-11.0005
▁어울리는	-11.0009
▁키워	-11.0019
▁얀	-11.0024
▁발가락	-11.0024
▁찌개	-11.0026
▁자지	-11.0027
▁버린	-11.003
▁가려구	-11.0033
▁샤	-11.0036
▁한적	-11.0037
처	-11.0042
▁났다고	-11.0048
▁하는건데	-11.0049
▁많으니까	-11.0055
▁춘천	-11.0056
▁머겅	-11.0057
▁있구	-11.0057
▁비염	-11.0059
▁전용	-11.0068
작	-11.007
▁거고	-11.0074
▁먹냐	-11.0076
▁어딘	-11.0077
▁룸메	-11.0083
▁아악	-11.0084
징	-11.0084
▁우편	-11.0085
▁대놓고	-11.0088
▁시설	-11.009
▁죽음	-11.009
▁빼서	-11.0095
▁썻	-11.0096
▁집착	-11.0097
▁ᄏᄏᄏᄀ	-11.0099
▁펴	-11.01
척	-11.0104
▁왤	-11.0105
▁컬	-11.0109
▁영등포	-11.011
▁블라우스	-11.0113
▁삼계탕	-11.0113
▁죄	-11.0113
▁교통비	-11.0113
▁변비	-11.0113
▁냄비	-11.0113
▁존재	-11.0114
▁나이키	-11.0116
▁하우스	-11.0117
▁브라	-11.0118
▁,,,,,,	-11.0119
▁전환	-11.012
▁햇반	-11.0122
야되	-11.0122
▁백신	-11.0122
▁속초	-11.0122
▁ᅳᅮ	-11.0123
▁움직	-11.013
▁으아	-11.0131
▁명의	-11.0137
▁뜨고	-11.0141
▁누군지	-11.0143
▁초등학교	-11.0143
▁신용카드	-11.0143
▁응급실	-11.0143
▁껄껄	-11.0143
▁통신사	-11.0143
▁뜨면	-11.0146
써	-11.0149
▁니당	-11.0149
▁시켰어	-11.0151
▁있었으면	-11.0151
▁!!!!!!!!!	-11.0155
▁할게요	-11.016
려면	-11.016
취	-11.0166
▁안심	-11.0167
▁있었던	-11.0169
▁부대찌개	-11.0172
▁단백질	-11.0173
▁마인드	-11.0173
▁대고	-11.0174
▁탁	-11.0177
▁나간다	-11.0178
▁비비	-11.0182
▁고쳐	-11.0192
▁광명	-11.0203
▁호캉스	-11.0203
▁따흐흑	-11.0203
▁보내는	-11.0205
▁옆집	-11.0211
▁켯	-11.0213
▁못햇	-11.0213
▁있길래	-11.0214
▁들으면서	-11.0215
▁책임	-11.0216
▁딴거	-11.0221
▁오만원	-11.0227
▁D	-11.0228
▁데뷔	-11.0233
▁ᄏᄏᄀᄏ	-11.0234
있으면	-11.0235
▁찾았다	-11.024
▁밭	-11.0243
▁빼야	-11.0244
▁인치	-11.0251
▁일본어	-11.0253
▁까먹고	-11.0256
▁명동	-11.0258
▁패턴	-11.0263
▁절반	-11.0264
▁에코	-11.0265
▁조립	-11.0265
▁야하는거	-11.0266
▁투명	-11.0268
▁싶다며	-11.0269
대로	-11.0271
▁매주	-11.0271
▁채워	-11.0272
▁아픈거	-11.0275
▁감당	-11.0278
▁곤	-11.0279
▁몽	-11.028
▁씻구	-11.028
▁용산	-11.0281
철	-11.0291
▁메인	-11.0293
▁사이다	-11.0294
▁볶	-11.0295
▁개미	-11.0302
▁웃곀	-11.0302
▁맛있었어	-11.0303
▁재수	-11.0305
▁해조	-11.0309
▁젊은	-11.031
으니	-11.0315
▁남는	-11.0317
▁따듯	-11.0318
▁됩니다	-11.0318
앞	-11.032
▁아니겠지	-11.0324
▁매콤	-11.0324
▁마우스	-11.0324
▁외박	-11.0325
▁넷	-11.0332
▁십만원	-11.0338
▁떨려	-11.0346
▁32	-11.0347
▁터져	-11.035
합	-11.0352
▁이쁘다고	-11.0352
▁허걱	-11.0353
▁홈플러스	-11.0354
▁보내주	-11.0355
▁태워	-11.0355
▁비닐	-11.0355
▁고치	-11.0356
▁>_<	-11.0356
▁이쁘지	-11.0361
거래	-11.0361
▁쪄서	-11.0365
▁불편	-11.0376
케	-11.0376
▁울어	-11.0382
▁양산	-11.0385
▁엊그제	-11.0385
▁패션	-11.0385
▁벌어서	-11.0388
▁롯	-11.0391
▁듣는데	-11.0395
▁긋	-11.0399
▁한판	-11.0401
▁인들	-11.0401
▁맞게	-11.0409
▁오사카	-11.0414
향	-11.0415
▁빠짐	-11.0416
▁학과	-11.0416
으니까	-11.0419
▁갔나	-11.0424
▁났	-11.0424
▁이런게	-11.0425
▁인해	-11.0426
▁필요한거	-11.0426
채	-11.0429
▁보긴	-11.0436
▁안양	-11.0437
▁야하지	-11.044
▁있었다고	-11.0441
▁했니	-11.0443
▁쭈꾸미	-11.0446
▁비빔면	-11.0447
▁종로	-11.0448
▁도쿄	-11.0452
▁페이스	-11.0452
▁낙지	-11.0454
야하는데	-11.0464
▁안과	-11.0468
▁???????	-11.0468
▁개조	-11.047
▁입었는데	-11.0474
▁어째	-11.0476
▁범계	-11.0476
▁없구	-11.0477
▁교복	-11.0478
▁매달	-11.0481
▁지진	-11.0483
보다	-11.0485
▁없는지	-11.0486
▁올려서	-11.0487
▁휴일	-11.0489
▁하노	-11.0496
▁가든	-11.05
▁든다고	-11.0501
▁하는구나	-11.0503
▁슬랙스	-11.0509
▁피씨	-11.051
▁모이	-11.0516
▁사먹어	-11.0519
▁꼬리	-11.052
▁가안	-11.052
▁생겼다고	-11.0523
▁햇음	-11.0524
▁닫고	-11.0529
▁비벼	-11.0532
▁부평	-11.0539
▁네이비	-11.0539
▁장만	-11.0539
▁폭발	-11.054
▁물어보는	-11.0541
▁믹스	-11.0542
▁휘	-11.0542
▁주었다	-11.0543
▁보내서	-11.0543
▁그랬지	-11.0544
▁자몽	-11.0545
▁무선	-11.0545
▁도넛	-11.0547
▁봉사	-11.0547
▁3000	-11.0548
▁죽은	-11.0548
▁알아	-11.0549
탄	-11.055
▁이쁘고	-11.0557
▁부르고	-11.0558
▁찍은거	-11.0558
▁뭐얔	-11.0559
▁먹긴	-11.0562
▁부작용	-11.057
▁목도리	-11.057
▁이던	-11.0571
▁반납	-11.0572
▁곱	-11.0573
▁고픈데	-11.0573
▁조사	-11.0576
▁받은거	-11.0581
▁대형	-11.0582
▁먹엇어	-11.0583
▁내릴	-11.0583
▁집안일	-11.0584
▁되기	-11.0584
옹	-11.0585
▁일자	-11.0592
▁정부	-11.0595
▁있기	-11.0596
하면서	-11.0597
▁달러	-11.0598
▁챙겨서	-11.06
▁스피커	-11.0601
▁만의	-11.0603
▁구치	-11.0606
▁웟	-11.0608
▁재미있다	-11.0609
▁올라서	-11.0609
▁립	-11.061
▁지나고	-11.0613
▁비만	-11.0619
▁따라서	-11.0621
▁닥	-11.0622
▁불가능	-11.0623
▁너무해	-11.0625
햐	-11.0626
▁깔아	-11.0628
▁보고서	-11.0629
▁오구	-11.0631
▁그러나	-11.0632
▁빠지는	-11.0632
▁정류장	-11.0633
▁파란색	-11.0633
▁꿀잠	-11.0633
▁외근	-11.0633
▁긍정	-11.0634
▁지마켓	-11.0634
▁날라	-11.0635
▁먹으	-11.0638
▁윤	-11.0642
▁편할	-11.0644
▁약정	-11.0645
▁몰랐다	-11.0647
▁했냐고	-11.0652
▁~??	-11.0654
▁나누고	-11.0657
▁빅	-11.0658
끼	-11.0663
▁추울	-11.0664
▁팬티	-11.0666
▁미친듯이	-11.0666
▁ᅲᅳᅲ	-11.0668
▁조끼	-11.0668
▁땜시	-11.0673
▁주먹	-11.0675
▁잇오	-11.0676
▁대단한	-11.0677
▁동시	-11.0681
▁할건데	-11.0685
▁진짜루	-11.0691
▁뽑고	-11.0693
▁전기장판	-11.0696
▁요구르트	-11.0696
▁곰팡이	-11.0696
▁하는듯	-11.0697
▁가는건	-11.0698
▁픽	-11.0698
▁어떠냐고	-11.07
▁삭	-11.07
▁발전	-11.0704
▁안쪽	-11.071
▁개도	-11.0716
▁년도	-11.0717
▁ᄊ	-11.0719
▁이제야	-11.0724
▁슬픈	-11.0726
▁사은	-11.0726
▁얍얍	-11.0727
▁연말정산	-11.0727
▁견적	-11.0728
▁않네	-11.0728
▁생활비	-11.073
▁먹으라	-11.0732
있는	-11.0736
▁잤	-11.074
▁본가	-11.0741
야해	-11.0743
등학생	-11.0747
▁댁	-11.0756
근	-11.0758
▁일어났어	-11.0759
▁한동안	-11.0759
▁돼지고기	-11.0759
▁호떡	-11.076
▁되려나	-11.0763
▁발톱	-11.0764
▁머신	-11.0765
▁적어서	-11.0769
▁중순	-11.0771
▁빡	-11.0771
▁댕기	-11.0773
▁쓰니까	-11.0777
▁올거야	-11.0778
▁걸리고	-11.0778
▁판교	-11.0779
편	-11.0779
▁알어	-11.078
▁어렵다고	-11.0783
▁인식	-11.0784
▁빠질	-11.0788
투	-11.0789
▁촌	-11.0789
▁프로젝트	-11.0791
▁가습기	-11.0791
▁신천지	-11.0792
▁심사	-11.0793
▁심심해	-11.0795
▁..^^	-11.0796
▁아이유	-11.0797
▁과는	-11.0799
▁보스	-11.0801
▁기다리	-11.0806
▁봤자	-11.0808
▁더운	-11.0811
▁해봤어	-11.0811
▁가는거야	-11.0812
▁파바	-11.0816
▁신난다	-11.0817
▁이런데	-11.0821
▁축의금	-11.0823
▁썸	-11.0824
▁설날	-11.0824
▁택	-11.0824
▁상추	-11.0825
▁모르겠음	-11.0825
▁갱	-11.0826
▁맞앜	-11.0827
▁둥	-11.0834
▁맛있을	-11.0836
▁어이없어	-11.0836
▁일어날	-11.0836
▁먹고싶어서	-11.0839
▁부르는	-11.0841
▁일만	-11.0844
▁미안하다	-11.0846
▁없냐고	-11.0847
▁건너	-11.085
▁보내줄게	-11.0855
▁플라스틱	-11.0855
▁장학금	-11.0855
▁롯데리아	-11.0855
▁텐트	-11.0855
▁출력	-11.0855
▁계곡	-11.0856
▁스콘	-11.0856
▁있긴한데	-11.0856
▁좋았는데	-11.0856
▁보아	-11.0864
▁먹나	-11.0865
▁모래	-11.0866
▁튼데	-11.0867
▁빠지	-11.0869
▁였음	-11.0869
▁미쳤나	-11.087
▁배려	-11.0871
▁사고싶어	-11.0874
▁다나	-11.0877
▁야한다	-11.0877
▁모르겟다	-11.0878
▁가본	-11.0881
▁전번	-11.0886
▁랜덤	-11.0887
▁드레스	-11.0887
▁경제	-11.089
북	-11.0895
▁상한	-11.0902
▁생리대	-11.0903
▁밍	-11.0908
▁이혼	-11.091
▁오프	-11.0912
▁떨어질	-11.0917
▁칭구	-11.0919
▁결론	-11.092
▁민증	-11.092
▁반바지	-11.092
▁바삭	-11.0921
▁아니요	-11.0921
▁판단	-11.0922
▁변기	-11.0923
▁고르고	-11.0923
▁식품	-11.0924
▁넝	-11.0926
덕	-11.0926
▁맴	-11.0932
▁화보	-11.0935
▁시원한	-11.0938
▁안마	-11.0939
▁망할	-11.094
하며	-11.0946
▁타지	-11.0948
▁가봐야	-11.095
▁많나	-11.0952
▁이케아	-11.0953
▁오븐	-11.0954
▁해장	-11.0955
▁미쳤네	-11.0959
▁다짐	-11.096
▁갔으면	-11.0964
▁좋다며	-11.0964
▁수기	-11.0965
▁했으	-11.0965
▁도장	-11.0967
▁한거	-11.0968
▁오래된	-11.0972
봐	-11.0978
▁일산	-11.0978
▁냨	-11.098
▁초보	-11.0984
▁항공권	-11.0984
▁야할거	-11.0985
▁파트	-11.0987
▁천국	-11.0987
▁망했다	-11.0988
왓	-11.0988
▁랴	-11.0988
▁되잖아	-11.0992
▁산소	-11.0997
구먼	-11.0997
▁올라와	-11.0998
양	-11.1
▁조리	-11.1005
▁먹을수	-11.101
▁드려	-11.1011
▁주세요	-11.1016
▁헉헉	-11.1017
▁인쇄	-11.1017
▁댕겨	-11.1018
▁충치	-11.1018
▁목록	-11.1018
▁여붕	-11.1019
▁워터	-11.102
▁소파	-11.1021
▁안좋아서	-11.1022
▁좋은지	-11.1023
▁쟁	-11.1027
▁저리	-11.1028
▁응모	-11.1033
▁드리고	-11.1038
▁가드	-11.1039
▁조정	-11.1042
▁도저히	-11.1049
▁셔틀	-11.1049
▁펜슬	-11.105
▁우리엄마	-11.1051
▁통영	-11.1052
▁이쁨	-11.1054
이션	-11.1055
▁방식	-11.1059
▁공차	-11.1059
▁자네	-11.1061
▁일기	-11.1065
각	-11.107
▁더블	-11.1075
▁키우고	-11.1079
욬	-11.108
▁되는게	-11.108
▁x	-11.1082
▁샤브샤브	-11.1082
▁알레르기	-11.1082
▁이상하다	-11.1083
▁아주머니	-11.1083
▁건조기	-11.1084
▁귀여운데	-11.1084
법	-11.1084
▁카페인	-11.1086
▁일자리	-11.1087
▁바질	-11.1091
▁쉬어야	-11.1093
▁주일	-11.1093
▁취하	-11.1094
▁놔야	-11.1095
▁캐시	-11.1097
▁시켰다	-11.11
▁씻	-11.1101
▁걷는	-11.1106
▁막혀	-11.1106
▁있으	-11.1111
▁알려줄게	-11.1115
▁1.5	-11.1116
▁할말	-11.1116
햌	-11.1117
▁먹었나	-11.1121
▁다르지	-11.1125
가지구	-11.1127
▁케어	-11.1135
▁받게	-11.1137
▁살인	-11.1137
▁멀라	-11.1139
▁는거	-11.1141
▁라식	-11.1144
▁합시다	-11.1145
▁고함	-11.1146
가지	-11.1147
▁복권	-11.1149
▁조퇴	-11.1149
▁어후	-11.1151
▁실적	-11.1152
▁조교	-11.1153
▁이만	-11.1157
▁디게	-11.1159
▁삘	-11.1163
▁삼일	-11.1163
▁미쳣	-11.1165
▁힝구	-11.1165
▁모루	-11.1166
▁드러	-11.1167
▁쒀	-11.1168
▁d	-11.117
▁하얀	-11.1178
▁식탁	-11.1181
▁종아리	-11.1181
▁핀	-11.1183
▁중국집	-11.1185
하더라	-11.1185
▁지굼	-11.1186
▁의문	-11.1188
▁고수	-11.1192
▁입음	-11.12
▁차서	-11.12
▁살아야	-11.12
▁녹	-11.12
▁게장	-11.1201
▁무지	-11.1203
꺼야	-11.1205
▁우울해	-11.1205
령	-11.1209
▁림	-11.1211
▁훅	-11.1215
▁안되네	-11.1215
▁붙어서	-11.1219
▁자신감	-11.122
▁쉬다가	-11.1221
▁심한	-11.1231
▁박사	-11.1232
▁상사	-11.1235
링	-11.1242
▁김해	-11.1242
▁전국	-11.1244
▁보증금	-11.1248
▁해장국	-11.1248
▁신촌	-11.1248
▁작품	-11.1249
▁원두	-11.125
▁700	-11.1254
▁고개	-11.1259
▁어린이	-11.1259
▁하길	-11.1265
▁많은거	-11.1268
런	-11.1268
▁기장	-11.1276
▁♡♡	-11.1277
▁ᅲᅲᅮ	-11.1278
▁기상	-11.1278
▁메시지	-11.1283
▁등급	-11.1284
▁아니에요	-11.1285
▁다르다	-11.1285
▁800	-11.1285
▁줬으면	-11.1286
▁아이구	-11.1287
▁이긴한데	-11.1292
▁사고싶다	-11.1297
▁가지러	-11.1303
▁파스	-11.1306
▁춥지	-11.1307
▁잇냐	-11.1309
태	-11.131
▁글쿠	-11.1311
▁해당	-11.1313
▁에버랜드	-11.1315
▁표시	-11.1315
▁출연	-11.1315
▁깔끔하게	-11.1315
▁껌	-11.1316
▁예배	-11.1318
▁담당자	-11.1318
▁따리	-11.132
▁33	-11.1323
▁언제나	-11.1331
▁가래	-11.1333
▁괜찮아요	-11.1334
▁두꺼운	-11.1336
▁빌	-11.1337
▁때메	-11.1339
▁듯이	-11.1342
▁속상해	-11.1345
▁메모	-11.1348
▁뽀뽀	-11.1348
▁같오	-11.1349
▁슥	-11.135
▁헬	-11.1352
댕	-11.1352
▁비주	-11.1352
▁알겟어	-11.1353
▁같긴해	-11.1355
▁ᄋᄋᄋᄋᄋ	-11.1355
▁공식	-11.1356
▁배그	-11.1359
▁진주	-11.136
▁자는데	-11.136
▁나오라고	-11.1361
▁심리	-11.1362
▁이뻐서	-11.1362
골	-11.1362
▁편하다	-11.1365
▁풀이	-11.1373
▁보냈어	-11.1373
▁피곤하다	-11.1377
▁장어	-11.1382
▁홈쇼핑	-11.1382
▁및	-11.1382
▁버리는	-11.1382
▁길거리	-11.1384
▁살아서	-11.1387
▁세명	-11.1387
학생	-11.1394
▁이랬는데	-11.1403
▁재밌겠다	-11.1404
▁빠지고	-11.1409
▁해석	-11.141
▁옵션	-11.1416
▁정수기	-11.1417
▁민족	-11.1417
▁됑	-11.1419
▁씻어	-11.1421
▁없는게	-11.1421
▁그러더라	-11.1422
겤	-11.1423
▁축	-11.1424
▁이십	-11.143
▁보내라고	-11.1431
▁쟈철	-11.144
▁아울렛	-11.145
▁커튼	-11.145
▁쿠쿠	-11.145
▁최선	-11.1451
응	-11.1455
▁션	-11.1465
도록	-11.1466
▁바꿔야	-11.1469
▁봤던	-11.1474
▁바스	-11.1475
▁큰데	-11.148
▁된장찌개	-11.1484
▁장례식	-11.1484
▁탈퇴	-11.1485
▁오오오오	-11.1487
람	-11.1487
▁불편해서	-11.1489
▁별일	-11.1494
▁기구	-11.1495
▁재미있다고	-11.1497
▁뺄	-11.1497
▁생길	-11.1498
▁써여	-11.1498
▁줬	-11.1502
▁인공	-11.1502
▁간당	-11.1504
▁만져	-11.1506
▁동대문	-11.1518
▁가보네	-11.1518
▁디즈니	-11.1518
▁시리얼	-11.1519
▁붓기	-11.152
▁변화	-11.152
▁포토	-11.152
▁휴식	-11.1521
▁주임	-11.1522
▁거구	-11.1522
▁급식	-11.1524
▁있으라고	-11.1525
손	-11.1526
▁뛰어	-11.1527
▁할려고	-11.1532
▁나을듯	-11.1544
▁파이	-11.155
▁찍으면	-11.1552
▁주도	-11.1553
▁스프	-11.1555
▁싫음	-11.1555
▁난이	-11.1557
▁서야	-11.1557
▁제육	-11.1557
▁사람인	-11.156
▁뽑아서	-11.156
▁건아	-11.1561
▁구성	-11.1561
▁돌려서	-11.1564
본	-11.1565
▁없을듯	-11.1565
▁사이드	-11.1565
▁일곱	-11.1569
▁세차	-11.157
▁몰라도	-11.1571
▁탔다	-11.1572
▁티나	-11.1574
▁돌아가	-11.1575
▁도랏	-11.1577
으러	-11.1577
▁가용	-11.1577
▁질러	-11.158
▁다녀온	-11.1582
▁안부	-11.1587
빙	-11.1593
▁올라가서	-11.1593
▁방해	-11.1595
▁바쁘다	-11.1605
▁조아해	-11.1611
▁마라샹궈	-11.1622
▁스캔	-11.1622
▁(?)	-11.1623
▁동갑	-11.1623
▁초등학생	-11.1623
▁식물	-11.1623
▁동료	-11.1624
▁고집	-11.1632
▁..!!	-11.1633
▁싸우고	-11.1637
▁서울역	-11.1637
▁미뤄	-11.164
▁보까	-11.1644
▁ᄐ	-11.1647
▁사정	-11.1651
▁밝은	-11.1656
▁배불러서	-11.1661
▁넣어야	-11.1661
▁오줌	-11.1664
▁구름	-11.1667
▁정기	-11.1669
▁올래	-11.1671
족	-11.1672
▁힘들었다	-11.1674
▁으루	-11.1675
▁안좋	-11.1683
▁아트	-11.1687
▁상관없어	-11.1688
▁챙기고	-11.1689
▁쓸거	-11.1689
▁먹은지	-11.1691
▁왔나	-11.1691
▁목욕탕	-11.1692
▁머것	-11.1692
▁넉	-11.1693
새	-11.1699
▁?!?!	-11.1703
▁취해	-11.1704
▁벌고	-11.1704
▁가다가	-11.1707
▁가위	-11.1708
▁자살	-11.1709
추	-11.171
▁늦지	-11.1716
▁일리	-11.1718
▁하고싶은데	-11.1722
림	-11.1725
▁목적	-11.1726
▁봤더니	-11.1729
칭	-11.173
▁신규	-11.173
▁됐지	-11.1732
▁히잉	-11.1736
▁물어본	-11.1737
▁인계	-11.1738
▁팔지	-11.1741
▁윽	-11.1741
▁미친거	-11.1748
었다	-11.1749
▁시세	-11.1754
▁오십	-11.1754
▁봤나	-11.1754
▁보건	-11.1758
▁떨어	-11.1759
▁잠들	-11.176
웅	-11.176
▁체크카드	-11.1762
▁갑다	-11.1763
겠지만	-11.1763
▁뭐임	-11.1763
▁대기업	-11.1763
▁가고싶	-11.1763
▁했습니다	-11.1764
▁캬캬	-11.1768
겠다며	-11.1768
▁이러다가	-11.1769
득	-11.1776
엉	-11.1779
▁볼수	-11.1782
▁데려다	-11.1787
▁그렇구	-11.1788
▁라그	-11.1789
▁경쟁	-11.1797
▁진지하게	-11.1797
▁농담	-11.1797
▁얻어	-11.1798
▁부츠	-11.1798
▁받으려고	-11.18
▁조림	-11.18
▁피곤한	-11.1802
▁퇴원	-11.1804
▁등장	-11.1804
▁마크	-11.1804
▁출시	-11.1804
▁벗고	-11.1804
▁사탕	-11.1805
▁되는거지	-11.1805
▁쓰다가	-11.1808
▁상관없	-11.1813
▁뽀	-11.1822
▁알앗	-11.1825
했	-11.1827
▁물티슈	-11.1832
▁소세지	-11.1832
▁감자탕	-11.1833
▁캡슐	-11.1834
▁회계	-11.1834
▁다녀야	-11.1834
▁편히	-11.1835
▁그대	-11.1839
▁그러는데	-11.1844
▁된데	-11.1848
▁적어도	-11.1849
불	-11.1849
▁왔지	-11.1851
찌	-11.1853
▁모하	-11.1854
▁야해	-11.1855
졌어	-11.1856
▁안자	-11.1859
▁이었다고	-11.1861
▁누르고	-11.1862
▁드뎌	-11.1865
▁종합	-11.1868
▁어떰	-11.1868
▁잡채	-11.1868
▁불쌍해	-11.1869
▁많으니	-11.187
▁다그	-11.1872
▁공포	-11.1872
▁진단	-11.1873
▁남색	-11.1873
겟네	-11.1875
▁수육	-11.1876
▁국어	-11.1879
▁탔	-11.188
▁같대	-11.1888
▁봐여	-11.1891
▁ᄀᄎᄀᄎ	-11.1894
▁이왕	-11.1896
▁생겻	-11.1897
▁파는거	-11.1898
▁놀면	-11.1903
▁해외여행	-11.1903
▁노란색	-11.1904
▁탈모	-11.1906
▁M	-11.1906
는거지	-11.1908
▁ᄎ	-11.1908
▁힐	-11.191
▁유튭	-11.1912
▁지롱	-11.1914
▁에잇	-11.1916
▁했었어	-11.1924
▁락	-11.1924
▁센치	-11.1933
▁프레	-11.1935
▁인터뷰	-11.1939
▁물고기	-11.194
▁근육통	-11.194
▁썼다	-11.194
▁쿠우	-11.194
▁팁	-11.1941
▁분양	-11.1942
▁히터	-11.1947
▁가져가서	-11.1948
▁나네	-11.1949
▁나니	-11.1952
▁삼십	-11.1954
▁장비	-11.1954
▁어젠	-11.1956
출	-11.1958
▁들지	-11.196
▁대학원	-11.1961
▁가고싶은데	-11.1966
겟어	-11.1968
▁시트	-11.1968
▁몰랏	-11.1971
같이	-11.1973
▁천둥	-11.1975
▁결말	-11.1976
▁호박	-11.1976
▁치약	-11.1977
▁빠지면	-11.1977
▁젠장	-11.1978
▁전쟁	-11.1979
▁눌러서	-11.198
▁알았지	-11.1983
▁아닌듯	-11.1984
▁진정	-11.1986
▁죽는줄	-11.1986
▁살면서	-11.1991
▁개사	-11.1992
▁분당	-11.1993
▁착해	-11.1993
▁찾아보	-11.1997
▁우아	-11.2
▁샀고	-11.2008
▁우정	-11.2008
▁스페인	-11.2008
▁고속도로	-11.2011
▁무제한	-11.2011
▁좋겠네	-11.2012
하구	-11.2014
▁하든	-11.2016
▁보고싶	-11.2016
▁엄니	-11.2019
▁에그	-11.2021
▁애도	-11.2026
▁겅	-11.2027
▁가냐고	-11.203
쿠	-11.203
▁도리	-11.2033
▁의료	-11.2034
▁받아도	-11.2035
딩	-11.2038
▁하실	-11.2038
▁고요	-11.204
▁싼데	-11.2043
▁빠르네	-11.2044
곡	-11.2044
▁지연	-11.2045
▁비자	-11.2045
▁오토바이	-11.2047
▁프리미엄	-11.2047
▁뚝딱	-11.2047
▁퀄리티	-11.2047
▁힣	-11.2047
▁됐으면	-11.2049
▁반값	-11.2053
▁안되는거	-11.2054
▁후반	-11.2054
▁머냐	-11.2057
▁2-3	-11.2058
십	-11.206
▁차량	-11.2062
▁천사	-11.2068
▁b	-11.2069
▁걷고	-11.2074
▁도수	-11.2079
▁연고	-11.208
▁차고	-11.208
▁신분	-11.2081
▁글자	-11.2082
▁킥	-11.2086
리케	-11.2086
▁해본다	-11.2086
▁물리	-11.209
▁무니	-11.2092
▁얏	-11.2092
▁은애	-11.2094
▁다방	-11.2105
▁떨어진	-11.2107
▁데려가	-11.2108
▁리기	-11.211
▁새거	-11.2111
▁없니	-11.2111
▁해여	-11.2112
▁김치볶음밥	-11.2119
▁에너지	-11.212
텐데	-11.2121
지를	-11.2122
▁좋으니	-11.2122
▁접시	-11.2122
찬	-11.2126
▁발생	-11.2127
▁눈뎅	-11.2128
▁94	-11.2129
▁나부	-11.2131
갘	-11.2133
▁끝나구	-11.2137
▁시켜야	-11.214
▁건강한	-11.2149
▁찾을	-11.2151
▁한화	-11.2152
▁닮은	-11.2154
▁올리브	-11.2155
▁다운로드	-11.2156
▁고마워요	-11.2157
▁웃겨서	-11.2158
▁교시	-11.2158
▁가더	-11.2162
▁자막	-11.2164
▁주자	-11.2164
▁말해	-11.2166
▁이상은	-11.2167
▁내과	-11.2172
▁바뀐	-11.2174
▁멋있다	-11.2174
▁이었	-11.2183
▁본데	-11.2186
▁살살	-11.2188
하니	-11.219
▁종강	-11.2193
▁시원하게	-11.2194
▁운명	-11.2194
▁배추	-11.2197
▁연금	-11.2197
▁담요	-11.22
▁나을거	-11.22
▁해줄까	-11.2205
▁잇다고	-11.2208
▁바리	-11.2208
▁하다니	-11.2211
▁m	-11.2217
▁죽는	-11.2218
▁낄낄	-11.2229
▁알앗는데	-11.2232
껄	-11.2238
▁사전	-11.224
▁므	-11.2242
▁ᅧ	-11.2243
▁부럽다고	-11.2251
▁가능하다	-11.2252
▁위험해	-11.2253
▁잊고	-11.2254
▁해준대	-11.2255
릴	-11.2257
립	-11.2257
▁힘드러	-11.2264
▁굿모닝	-11.2266
▁마쟈마쟈	-11.2266
▁선착순	-11.2266
▁전화번호	-11.2267
▁옥상	-11.2267
▁닉	-11.2269
▁맞는지	-11.2274
▁랜드	-11.2275
▁자격	-11.2277
▁행복하다	-11.2279
▁느껴	-11.2281
▁시원해	-11.2282
▁머금	-11.2289
▁아랫	-11.2292
▁두피	-11.2295
▁후보	-11.2295
▁드는데	-11.2296
▁나왓	-11.2297
▁수입	-11.2299
▁어려	-11.2301
▁일어나야	-11.2301
▁닦고	-11.2303
▁맞습니다	-11.2304
▁않았나	-11.2305
▁연락처	-11.2309
▁사지마	-11.2312
▁버텨	-11.2315
▁할수있어	-11.2321
▁.....?	-11.2321
▁프	-11.2323
느라	-11.2324
▁가냐	-11.2328
▁울면	-11.2339
▁시티	-11.2339
▁마찬가지	-11.234
▁깜놀	-11.234
▁레이저	-11.2341
▁베스트	-11.2341
▁소시지	-11.2341
▁들어왔는데	-11.2342
▁놓은	-11.2344
▁성형	-11.2344
▁그러냐	-11.2344
▁구라	-11.2344
▁파랑	-11.2346
▁정문	-11.2347
▁정식	-11.2349
▁쓰는게	-11.2349
퍼	-11.235
▁엉망	-11.2352
▁매년	-11.2356
▁대루	-11.2358
▁정지	-11.2361
▁사줄	-11.2364
▁같은게	-11.2366
▁내놔	-11.2366
▁다담	-11.2368
▁까지가	-11.2373
던거	-11.2377
▁육개장	-11.2378
▁물어볼게	-11.2379
달러	-11.2382
▁먹을라	-11.2382
▁흙	-11.2383
▁싱	-11.2383
▁한도	-11.2385
열	-11.2386
겠는데	-11.2386
▁이었나	-11.2389
팔	-11.2389
▁깍	-11.2392
▁재밌다고	-11.2392
▁물가	-11.2395
다며	-11.2396
만큼	-11.2403
거에요	-11.2405
▁임대	-11.2405
▁넣어도	-11.2408
▁스카	-11.2411
▁집밥	-11.2412
▁행정	-11.2413
▁참석	-11.2415
▁그랬다	-11.2415
▁신도림	-11.2415
▁메이크업	-11.2415
▁순두부	-11.2415
▁모델링	-11.2416
▁덕후	-11.2417
▁앙앙	-11.2417
▁통과	-11.2417
▁그른	-11.2418
▁끊고	-11.242
▁중국인	-11.2425
▁좋겠	-11.2425
▁후식	-11.2427
▁화제	-11.2429
막	-11.2432
▁재택	-11.2445
▁적도	-11.2446
▁박아	-11.2447
▁...........	-11.245
▁오키도키	-11.2453
▁갔다와	-11.2453
▁인제	-11.2454
▁벌금	-11.2455
▁성향	-11.2456
었다고	-11.2456
▁해운대	-11.2456
▁수납	-11.2457
▁보태	-11.2458
▁180	-11.2458
▁가짜	-11.246
▁쉽	-11.2461
▁전문가	-11.2461
▁하려나	-11.2466
▁가산	-11.2471
▁근대	-11.2471
▁알거	-11.2471
▁만나지	-11.2471
▁썰	-11.2472
▁줄줄	-11.2474
을까	-11.2481
▁넘으면	-11.2483
엇어	-11.2483
▁됐나	-11.2486
▁봣어	-11.2486
▁였다고	-11.2487
▁다다	-11.2488
부터	-11.249
▁중고나라	-11.2491
▁취급	-11.2491
▁부위	-11.2493
▁개오	-11.2494
▁노란	-11.2497
▁차지	-11.2502
▁잘라서	-11.2511
▁멀다	-11.2516
던디	-11.2517
▁베이컨	-11.2528
▁라디오	-11.2529
▁덧	-11.2529
▁팔로우	-11.2529
▁찜질방	-11.253
▁흔	-11.2533
▁없으	-11.2537
▁싸이	-11.2538
▁아퍼	-11.2539
▁여우	-11.2541
▁짬	-11.2543
▁우울	-11.2547
▁이랑은	-11.2556
설	-11.2558
▁남았	-11.2561
▁가쟈	-11.2564
▁내림	-11.2566
▁블루투스	-11.2566
▁재킷	-11.2567
▁케이티	-11.2567
▁최신	-11.2568
▁그다음	-11.2568
▁한마디	-11.2568
▁시럽	-11.257
▁힘들면	-11.257
▁키즈	-11.2571
▁하진	-11.2571
▁식비	-11.2575
▁사당	-11.2577
▁잇더라	-11.2581
▁될거야	-11.2587
액	-11.2587
▁사리	-11.2589
▁구조	-11.2593
▁햇오	-11.2598
▁주워	-11.26
염	-11.2601
▁구가	-11.2603
▁접촉	-11.2604
▁라운드	-11.2605
▁동남아	-11.2605
▁블루베리	-11.2605
▁그랬구나	-11.2606
▁뜨는	-11.2606
▁5000	-11.2607
▁체중	-11.2608
▁마약	-11.261
▁신한	-11.2612
▁오게	-11.2612
▁소원	-11.2614
▁생긴거	-11.2614
▁같기	-11.2618
▁수령	-11.2618
▁치가	-11.2619
▁없는듯	-11.2624
▁뽑기	-11.2624
▁언넝	-11.2628
▁대사	-11.2632
▁예뿌	-11.2634
▁잡지	-11.2634
▁화해	-11.2634
▁첫째	-11.2635
▁파란	-11.2637
▁줄여	-11.264
▁혼밥	-11.2641
▁보내줄	-11.2642
▁고추장	-11.2645
▁훔쳐	-11.2645
▁찾아보니까	-11.2645
▁국제	-11.2645
기에	-11.2646
▁마시러	-11.2646
▁예산	-11.2649
졌다고	-11.2652
▁놀랐다	-11.2652
▁팍	-11.2652
▁용품	-11.2653
▁열한시	-11.2653
▁교대	-11.2653
귀	-11.2657
▁벨	-11.2658
▁좋았다	-11.2659
▁하셔	-11.266
으로	-11.2663
▁이별	-11.2663
압	-11.2663
▁싸지	-11.2665
▁필요할	-11.2666
▁있더라고	-11.2669
▁즐	-11.2673
▁먹던	-11.2678
습니다	-11.268
▁전자레인지	-11.2681
▁포스터	-11.2682
▁신지	-11.2682
▁어떡하지	-11.2683
▁티빙	-11.2684
▁권유	-11.2684
▁구독	-11.2687
▁체질	-11.2688
▁정성	-11.269
▁사냥	-11.2694
▁그렇대	-11.2695
▁역사	-11.2696
▁오셔서	-11.2699
▁해주는데	-11.2706
▁없을거	-11.2707
▁다니는데	-11.2707
▁올리는	-11.2713
▁일어났는데	-11.2714
을텐데	-11.2715
▁관광	-11.2716
▁없게	-11.2717
라는데	-11.2717
▁프랑스	-11.2718
▁일인	-11.272
▁vs	-11.272
▁해봐야겠다	-11.2722
▁하겠네	-11.2722
▁실버	-11.2723
▁머니	-11.2724
▁맡아	-11.2724
▁라벨	-11.2726
▁면역	-11.2728
▁먹었는지	-11.2728
▁몰랐	-11.273
▁설레	-11.2734
▁잤다고	-11.2738
▁되구	-11.274
ᄏᄏᄏᄏᄏᄏᄏᄏᄏᄏᄏᄏᄏ	-11.2744
▁라거	-11.2747
▁용인	-11.2748
▁됫	-11.2753
▁빨강	-11.2757
▁영양	-11.2757
▁스펙	-11.2759
▁냠냠	-11.2759
▁맥북	-11.2759
▁그랬더니	-11.276
▁하늘색	-11.276
댁	-11.2762
▁갈수록	-11.2762
▁최고다	-11.2764
▁뻔했다	-11.2766
▁..;;	-11.277
언	-11.2771
s	-11.2772
▁제도	-11.2773
▁해주는거	-11.2774
▁나와야	-11.2776
▁재생	-11.2778
▁예술	-11.2778
▁세부	-11.2781
▁돌고	-11.2782
▁어렵지	-11.2783
▁문구	-11.2783
▁알랴	-11.2783
▁그래야겠다	-11.2785
▁우는	-11.2789
▁해봐서	-11.2791
▁댄	-11.2794
▁거부	-11.2797
▁레전드	-11.2798
▁노예	-11.2799
▁러브	-11.2801
▁재발	-11.2801
▁올라와서	-11.2801
▁딜	-11.2803
▁댄스	-11.2803
▁이상한거	-11.2804
▁구먼	-11.2804
▁몰랐네	-11.2805
▁뗘	-11.281
▁해킹	-11.281
했어	-11.2813
▁조지	-11.2814
▁터질	-11.2816
▁잇다가	-11.2818
▁죵	-11.2823
▁하는줄	-11.2827
▁분리	-11.2827
▁이구	-11.2829
빵	-11.2833
▁걸이	-11.2835
▁마이크	-11.2836
▁헐헐	-11.2837
▁터짐	-11.2837
▁댕댕	-11.2838
▁딥	-11.2839
쉬	-11.2839
▁잇으니까	-11.284
▁해바	-11.2841
▁애니	-11.2842
▁왔음	-11.2843
▁어울릴	-11.2843
▁확진	-11.2857
▁다오	-11.2858
▁해야대	-11.2859
▁한자	-11.286
가면	-11.2865
환	-11.2867
▁득	-11.2875
▁운전면허	-11.2876
▁숱	-11.2876
▁번역	-11.2876
▁ᄃᄃᄃ	-11.2877
▁찾음	-11.2878
▁싳	-11.2879
▁채소	-11.288
▁선생	-11.2881
▁올리면	-11.2881
▁붕	-11.2881
▁물품	-11.2883
▁많어	-11.2884
▁교사	-11.2885
▁빌려서	-11.2887
▁피지	-11.2899
▁먹을라고	-11.291
줘서	-11.2911
▁닭볶음탕	-11.2915
▁민폐	-11.2915
▁연구실	-11.2916
▁만들었는데	-11.2917
▁하나로	-11.2917
▁추위	-11.292
▁만날까	-11.2921
▁스카이	-11.2921
▁천장	-11.2921
▁깨워	-11.2924
▁끝났	-11.2926
▁맛있대	-11.2927
▁호수	-11.2928
▁알려줘서	-11.2928
▁와요	-11.2936
▁지퍼	-11.2937
▁할꺼야	-11.2939
▁250	-11.2942
▁없는디	-11.2944
▁그람	-11.2949
▁방탄소년단	-11.2955
▁샌들	-11.2955
▁통닭	-11.2955
▁기획	-11.2956
▁잇몸	-11.2957
▁싶네	-11.2958
라면	-11.2959
▁팩트	-11.296
랭	-11.2962
▁시야	-11.2969
하던데	-11.2976
▁지네	-11.2977
▁아니잖아	-11.2977
▁귀찮고	-11.2977
▁해야겠네	-11.2978
▁가까워	-11.2979
▁사주고	-11.2985
▁닠	-11.2986
렌	-11.2986
야겠다	-11.2987
▁두세	-11.2992
▁진혁	-11.2993
▁산부인과	-11.2995
▁캡처	-11.2995
▁웨이브	-11.2995
▁영혼	-11.2996
▁그러면서	-11.2997
▁비율	-11.2997
▁물어보지	-11.2997
▁았	-11.2998
▁가져와서	-11.2999
▁신나게	-11.3001
▁후배	-11.3002
읍니	-11.3003
▁테마	-11.3003
▁카디	-11.3004
▁어쩌구	-11.3009
잌	-11.301
▁올릴	-11.3012
▁마블	-11.3015
▁순서	-11.3016
▁나갈게	-11.3022
▁혈압	-11.3034
▁알러지	-11.3035
▁우울증	-11.3035
메	-11.3035
▁미련	-11.3035
까봐	-11.3036
▁분석	-11.304
▁과학	-11.3041
▁마안	-11.3043
▁상이	-11.3043
▁없어져서	-11.3044
▁있다면	-11.3046
▁된다며	-11.3047
▁이상해서	-11.3048
▁38	-11.305
▁있는거야	-11.305
▁나오니까	-11.3054
▁ᅲᅮᅮ	-11.3055
술	-11.3057
▁나오나	-11.306
▁왔다가	-11.3066
▁디스크	-11.3075
▁저렴하게	-11.3075
▁됌	-11.3076
▁파악	-11.3076
▁하고싶	-11.3076
▁갔더니	-11.3076
▁통증	-11.3078
▁벤	-11.3078
▁다님	-11.3078
▁마음대로	-11.3078
▁밥집	-11.3079
▁채용	-11.308
▁맞는다고	-11.3083
▁들어감	-11.3084
▁시력	-11.3087
▁웃고	-11.3093
▁낮은	-11.3094
▁멜	-11.3095
▁~~~?	-11.3096
가고	-11.3106
▁모여	-11.3106
▁만나야	-11.3108
▁ᄁ	-11.3108
▁알겠다고	-11.311
▁c	-11.3113
참	-11.3113
▁미스터	-11.3114
▁껍질	-11.3115
▁한당	-11.3115
▁골프	-11.3116
▁졸업식	-11.3116
▁훈련	-11.3117
▁모집	-11.3128
거리	-11.313
▁수강	-11.3132
▁해도되	-11.3134
▁짜고	-11.3138
▁내리는	-11.3146
▁빡빡	-11.3152
냨	-11.3154
▁두근두근	-11.3155
▁곤약	-11.3155
▁사나	-11.3157
▁섭	-11.3159
▁올라온	-11.316
▁뀨	-11.3162
▁일부	-11.3162
▁스럽다	-11.3164
▁묵어	-11.3165
▁키트	-11.3166
▁알바생	-11.3168
▁즙	-11.3169
▁하는것	-11.3172
▁상하	-11.3173
▁귀찮다고	-11.3175
놓고	-11.3178
▁서점	-11.3178
▁몰아	-11.3184
▁이주	-11.3184
▁지급	-11.3185
▁부를	-11.3186
▁짜증난다	-11.3187
세요	-11.3187
▁팜	-11.3191
▁백종원	-11.3195
▁놀람	-11.3196
지고	-11.3197
▁뱅크	-11.3198
▁빡쳐서	-11.32
진다고	-11.3201
▁사망	-11.3206
▁마루	-11.3206
▁군용	-11.3207
▁바꾸는	-11.3211
▁예의	-11.3211
▁되야	-11.3212
▁마장	-11.3212
▁약도	-11.3213
▁위장	-11.3213
▁말함	-11.3224
스트	-11.3226
있나	-11.3227
▁세종	-11.323
▁아닌가요	-11.323
▁먹어야해	-11.323
▁빡침	-11.323
▁고하	-11.3232
▁~~^^	-11.3233
엇	-11.3235
▁떨어짐	-11.3236
▁종종	-11.3237
▁에스케이	-11.3238
▁태그	-11.3238
▁받으라고	-11.3239
▁벌임	-11.324
▁바가지	-11.3242
▁해놓은	-11.3243
▁소재	-11.3244
▁L	-11.3246
▁귀찮게	-11.3247
▁쉬어서	-11.3248
잠	-11.325
▁구청	-11.3252
▁이정	-11.3252
▁비싸지만	-11.3253
▁거려	-11.3257
▁있었음	-11.3262
▁2020	-11.3262
▁한정	-11.3266
▁가볼	-11.3267
▁간이	-11.3271
▁켜고	-11.3272
▁내리고	-11.3272
▁희망	-11.3274
탕	-11.3279
▁눙	-11.3279
▁~~~~~~~	-11.3279
▁착용	-11.3279
▁발송	-11.3279
▁애매해서	-11.328
▁뒤져	-11.328
▁어딘가	-11.3283
▁호두	-11.3284
▁들어가야	-11.3286
▁망햇	-11.3288
▁향기	-11.3291
▁놀자고	-11.3294
▁다르다고	-11.3295
▁있을듯	-11.3298
아니	-11.3299
▁화나	-11.331
▁갈게요	-11.3312
▁거제	-11.3314
▁백만원	-11.3314
▁있었나	-11.3316
▁집사	-11.3318
▁돗자리	-11.3318
▁핫팩	-11.3318
▁라섹	-11.3318
▁힘듬	-11.3318
▁배고픈데	-11.3319
▁해야겠어	-11.332
▁솔로	-11.3322
▁맛없어	-11.3325
▁좋겠는데	-11.3326
▁렉	-11.3327
▁48	-11.3327
▁왓다	-11.333
▁바른	-11.3331
▁미드	-11.3333
▁으음	-11.3334
▁보낸거	-11.3335
▁바꾼	-11.3339
짐	-11.334
빠	-11.3341
▁안방	-11.3342
▁조음	-11.3343
▁깊	-11.3346
뎅	-11.3351
▁가져갈	-11.3355
▁고깃집	-11.3359
▁박지훈	-11.3359
▁즐거운	-11.3359
▁질투	-11.336
▁상무	-11.3364
겠군	-11.3366
▁ᅮᅮᅲ	-11.3369
▁있을거야	-11.3374
▁놔두고	-11.3377
▁눌	-11.3382
▁깨고	-11.3389
▁들어왔다	-11.3394
▁않았	-11.3399
▁가르쳐	-11.34
▁설계	-11.34
▁어버이날	-11.34
▁재택근무	-11.34
▁잡으면	-11.3401
▁더울	-11.3401
▁이뿌다	-11.3403
▁걸음	-11.3403
▁보나	-11.3404
▁다시는	-11.3405
▁유형	-11.3405
▁불안해	-11.3408
▁끝났다	-11.3409
▁여덟시	-11.3413
▁샀지	-11.3415
▁열차	-11.3418
▁쩔	-11.342
▁갈건데	-11.3424
▁주심	-11.3427
▁모른	-11.3431
▁마스	-11.3433
▁프라이	-11.3435
▁미쳤	-11.3439
▁웨	-11.3441
▁올만에	-11.3442
▁왜그러지	-11.3442
▁재미있게	-11.3443
▁맡겨	-11.3443
▁형님	-11.3443
▁육회	-11.3447
▁괜찮음	-11.3447
▁간호	-11.3449
▁신랑	-11.3453
▁36	-11.3455
▁몀	-11.3458
뭐	-11.3458
▁일어난	-11.346
▁온다는	-11.3461
▁낀	-11.3464
▁없었	-11.3465
▁높아	-11.3466
▁의식	-11.3471
▁매워	-11.3471
▁미술	-11.3478
▁주시	-11.3479
▁팬미팅	-11.3483
▁아이보리	-11.3483
잖어	-11.3484
▁찾아봤는데	-11.3484
▁사투리	-11.3485
▁겤	-11.3485
▁단골	-11.3486
▁회비	-11.3489
▁공격	-11.3489
▁않아요	-11.349
▁먹었어요	-11.3492
▁넘어가	-11.3493
▁한다면	-11.3497
▁원가	-11.3497
▁래그	-11.3499
▁문장	-11.3501
▁남았다고	-11.3501
인가	-11.3502
플	-11.3503
▁34	-11.3514
▁자국	-11.3515
▁됐고	-11.3515
▁클라	-11.3516
▁살려고	-11.3518
▁거품	-11.3519
▁생기는	-11.352
▁바란다	-11.352
▁아쉽네	-11.3525
▁바깥	-11.3525
▁수제비	-11.3526
▁캔들	-11.3526
▁합쳐서	-11.3526
▁의정부	-11.3526
▁때리고	-11.3528
▁했어야	-11.3533
▁도둑	-11.3534
듯이	-11.3535
쩌	-11.3535
▁뺏어	-11.3539
▁편도	-11.3541
▁닦아	-11.3541
가자	-11.3546
▁아내	-11.3548
▁예쁘지	-11.3552
▁아따	-11.3552
▁버리면	-11.356
▁필요하다	-11.3561
몽	-11.3562
▁갖	-11.3562
둘	-11.3563
▁뱃살	-11.3567
▁걘	-11.3568
▁쳇	-11.3568
▁쫄면	-11.3568
▁고등어	-11.3569
▁이러니까	-11.3569
▁볼링	-11.3571
▁팟	-11.3572
▁하기엔	-11.3574
▁헌	-11.3575
▁입어서	-11.358
▁둥이	-11.3583
▁사겠다고	-11.3584
▁라임	-11.3587
움	-11.3587
▁대회	-11.3591
▁노원	-11.3593
▁했는데도	-11.3594
▁나하	-11.3598
▁맞은	-11.3604
츠	-11.3605
▁엄청난	-11.3607
▁열두	-11.3608
▁전자렌지	-11.3609
▁상큼	-11.361
▁교촌	-11.361
팅	-11.361
▁의외로	-11.3611
▁같았는데	-11.3611
▁높아서	-11.3613
▁[	-11.3613
▁답답해서	-11.3614
▁꾸야	-11.3619
광	-11.3623
▁송도	-11.3623
▁하려는데	-11.3625
▁이상하다고	-11.3625
▁크로	-11.363
▁K	-11.3633
▁예쁨	-11.3636
▁나듀	-11.3636
▁오름	-11.3636
풍	-11.3642
록	-11.3643
슴	-11.3647
▁요일	-11.3649
▁리나	-11.365
▁유니클로	-11.3652
▁오트밀	-11.3652
▁캐나다	-11.3652
▁겉옷	-11.3652
▁클릭	-11.3652
▁폴로	-11.3653
▁라이언	-11.3653
▁싶기도	-11.3654
▁내려가서	-11.3657
▁찍음	-11.3657
▁같구	-11.3662
▁낸다	-11.3665
▁바꾸	-11.3669
▁차선	-11.3674
▁덥다고	-11.3674
▁하자나	-11.3675
▁좋아하는거	-11.3678
하다	-11.3692
▁헤헿	-11.3695
▁멸치	-11.3695
▁갔네	-11.3695
▁*	-11.3696
▁질리	-11.3696
▁달아서	-11.3697
▁령	-11.3697
▁그랬음	-11.3698
▁너무나	-11.3701
▁맥스	-11.3701
▁하신	-11.3704
▁세게	-11.3705
▁딱지	-11.3707
▁썼	-11.3707
▁주름	-11.3708
▁한편	-11.3709
▁뜬	-11.371
▁웤	-11.371
▁와야지	-11.3711
▁보일	-11.3714
▁어엉	-11.3715
▁진도	-11.3718
▁배신	-11.3719
▁해줘야지	-11.3722
▁지면	-11.3724
▁가능한지	-11.3731
▁되겠다고	-11.3731
궁	-11.3732
▁일어났다	-11.3734
▁셀	-11.3735
▁구야	-11.3736
▁에엥	-11.3736
▁빠르	-11.3736
▁이쁘네	-11.3736
▁스포츠	-11.3738
▁되겠네	-11.3738
▁키링	-11.374
▁쌍수	-11.374
▁김포	-11.3741
▁대도	-11.3744
▁수습	-11.3746
▁조치	-11.3748
▁하려는	-11.375
▁간데	-11.375
낭	-11.3753
▁힘들겠다	-11.3755
▁시원	-11.3755
▁한창	-11.3757
▁나물	-11.3761
▁난방	-11.3774
▁신가	-11.3774
▁복도	-11.3774
▁한약	-11.3775
▁겠어	-11.3777
▁ᄏᄏᄏᄏᄀ	-11.3778
▁스파	-11.3779
▁깻잎	-11.378
▁샤넬	-11.378
▁황금	-11.378
주고	-11.3781
▁분홍	-11.3781
▁찜질	-11.3781
▁티몬	-11.3781
▁털어	-11.3782
▁존잘	-11.3782
▁불안해서	-11.3783
▁유료	-11.3784
▁그저	-11.3784
▁왔을	-11.3787
▁비슷	-11.3788
▁배고프면	-11.3789
▁댘	-11.379
▁민원	-11.3793
▁의욕	-11.3796
자나	-11.3797
▁업뎃	-11.3801
▁사야겠다고	-11.3803
▁지출	-11.3805
▁계시	-11.3807
봣	-11.3811
▁C	-11.3818
▁크지	-11.3821
▁노량진	-11.3823
▁바로바로	-11.3823
▁멘붕	-11.3823
▁코코넛	-11.3823
▁무서움	-11.3823
▁진통제	-11.3823
▁시로	-11.3823
▁대략	-11.3824
▁쪼금	-11.3824
▁좋을까	-11.3825
▁않았지만	-11.3826
▁좋겠당	-11.3826
▁현관	-11.3826
▁늦으면	-11.3827
▁고용	-11.3829
▁먹었네	-11.383
▁자궁	-11.3831
▁버렷	-11.3833
▁잡는	-11.3833
▁속상하다	-11.3834
▁기만	-11.3839
▁알려주면	-11.3839
사람	-11.3844
▁른	-11.3844
▁이거야	-11.3844
▁지나가는	-11.3846
거면	-11.385
▁되는디	-11.3853
나요	-11.3853
▁바이	-11.3853
▁모시	-11.386
콘	-11.3861
▁알겠어요	-11.3863
▁연구	-11.3864
▁엘리베이터	-11.3866
▁분홍색	-11.3867
▁땅콩	-11.3867
▁아니었어	-11.3868
▁하셨다	-11.3868
▁학식	-11.3868
▁언어	-11.387
▁괜찮을듯	-11.3871
▁방귀	-11.3872
▁해피	-11.3876
▁진보	-11.3877
▁뽑는	-11.3879
▁납	-11.3879
▁귀엽게	-11.3879
▁저러고	-11.3882
▁따위	-11.3882
▁떨어지는	-11.3887
▁출근길	-11.3889
▁명도	-11.3892
▁그닥	-11.3892
늘	-11.3894
이야	-11.3901
▁족	-11.3905
▁마요네즈	-11.391
▁아디다스	-11.391
▁오프라인	-11.391
▁물놀이	-11.391
▁붙으면	-11.3913
▁스토어	-11.3915
▁온천	-11.3915
▁독서	-11.3916
▁사와서	-11.3919
▁부리	-11.3921
▁핸	-11.3921
▁만들어야	-11.3922
▁있자	-11.3924
▁갈치	-11.3926
▁만든거	-11.3927
▁!!!!!!!!!!	-11.3929
▁즤	-11.3932
▁니지	-11.3934
례	-11.3936
▁~~??	-11.3937
▁도라	-11.3937
▁무섭고	-11.394
▁높이	-11.3941
▁다양한	-11.3941
▁좋을지	-11.3943
▁바쁠	-11.395
▁어때요	-11.395
▁방어	-11.395
▁엑스레이	-11.3954
▁해산물	-11.3954
▁포켓몬	-11.3954
▁레이더스	-11.3954
▁힘들거	-11.3954
▁핸폰	-11.3954
▁공기업	-11.3955
▁사인	-11.3955
▁토욜날	-11.3956
▁느끼	-11.3956
▁배탈	-11.3957
▁하였고	-11.3957
▁컬리	-11.3958
▁뒤에	-11.3959
▁육수	-11.396
▁알겠오	-11.396
는뎈	-11.396
님	-11.3961
빈	-11.3962
▁걸리는데	-11.3962
▁껭	-11.3966
▁웃긴다	-11.3969
▁사먹	-11.3975
▁잡은	-11.3976
▁기세	-11.398
▁사무	-11.3982
▁오마	-11.3982
▁G	-11.3983
▁타도	-11.3988
▁힘드네	-11.3994
▁언닌	-11.3997
▁대중교통	-11.3997
▁초음파	-11.3997
▁물리치료	-11.3997
▁에어비앤비	-11.3997
▁국민은행	-11.3997
▁주년	-11.3998
▁멋있어	-11.3999
▁등록금	-11.4
예	-11.4002
▁마심	-11.4006
▁에센스	-11.4007
▁반전	-11.4011
▁왘	-11.4016
▁수지	-11.4018
▁대안	-11.4025
▁에겐	-11.4029
▁...^^	-11.403
▁되나요	-11.403
▁여주	-11.4032
▁싸다고	-11.4037
▁짭	-11.4038
▁어딨어	-11.404
▁초콜렛	-11.4041
▁쳣	-11.4042
▁파우더	-11.4042
▁특정	-11.4042
▁라라	-11.4043
▁가까워서	-11.4045
▁물어보니까	-11.4045
▁지정	-11.4047
거라서	-11.4052
▁편해서	-11.4054
▁늦어도	-11.4054
텐	-11.4054
얌	-11.4055
▁하시고	-11.4056
▁묵자	-11.4056
보기로	-11.4058
▁봤지만	-11.4058
▁갔고	-11.4059
▁그러는거	-11.4059
▁덩이	-11.406
▁적당한	-11.4061
▁다닌	-11.4062
▁컨	-11.4064
▁쓰리	-11.407
▁개시	-11.4073
▁내부	-11.4076
▁가겠다	-11.4078
▁올듯	-11.4082
을듯	-11.4083
▁유니폼	-11.4086
▁드립	-11.4086
▁열쇠	-11.4086
▁맛없	-11.4087
▁세탁소	-11.4087
▁신림	-11.4089
▁싸가지	-11.4089
▁믿	-11.409
▁기자	-11.409
▁보낼게	-11.409
▁색감	-11.4094
▁마미	-11.4095
▁로켓	-11.4097
▁한다는데	-11.4099
▁볼일	-11.4102
▁팔자	-11.4103
▁겈	-11.4105
가는	-11.4108
▁기모	-11.4111
▁비대	-11.4116
▁용도	-11.4124
▁ᅥᄂ	-11.4131
▁호빵	-11.4131
▁쇼파	-11.4131
▁분명히	-11.4132
▁생명	-11.4133
▁스틱	-11.4133
▁도배	-11.4135
▁잘게	-11.4135
▁백만	-11.4139
▁사거리	-11.414
던지	-11.4141
자마자	-11.4143
▁걸고	-11.4144
▁가벼운	-11.4145
▁푸드	-11.4146
넴	-11.4148
▁어따	-11.415
▁빼고는	-11.415
▁갔지	-11.4152
▁일수	-11.4153
▁푼	-11.4154
▁량	-11.4154
▁필테	-11.4156
▁제이	-11.4157
▁심하다	-11.416
녀	-11.4163
▁있는건	-11.4165
▁없애	-11.417
▁읽는	-11.4173
▁찾으면	-11.4173
▁심각	-11.4173
▁추측	-11.4175
▁발바닥	-11.4175
▁쩜	-11.4175
▁ᄋᄌᄋᄌ	-11.4176
▁탄산수	-11.4176
▁꽝	-11.4176
▁허브	-11.4177
▁개통	-11.4178
▁찍었는데	-11.4178
▁진동	-11.4183
▁많던데	-11.4183
▁반성	-11.4185
▁엔씨	-11.4185
▁그랬다고	-11.4189
침	-11.4192
▁비슷한거	-11.4196
▁이보	-11.42
▁많지만	-11.4204
▁??!!	-11.4204
▁셔	-11.4205
▁뜰	-11.4209
▁중복	-11.421
▁가야되	-11.4212
▁물량	-11.4212
▁넣었는데	-11.4214
▁2.5	-11.4214
▁어이없네	-11.4216
▁서현	-11.4217
▁이내	-11.4218
▁효율	-11.422
▁뉴욕	-11.422
▁폭탄	-11.422
▁어쩜	-11.422
▁풍선	-11.4221
▁심플	-11.4221
▁좋습니다	-11.4222
▁노맛	-11.4222
▁출국	-11.4222
▁비비큐	-11.4222
▁띠용	-11.4224
▁크리스	-11.4228
있지	-11.4229
▁오는지	-11.4229
▁오르	-11.4231
▁먹지마	-11.4232
▁나오기	-11.4233
▁담임	-11.4234
▁나갔어	-11.4237
▁바라	-11.424
▁쓰나	-11.424
▁로고	-11.424
▁마마	-11.4243
▁신경안	-11.4244
▁받네	-11.4246
▁64	-11.4247
▁에게는	-11.425
▁제모	-11.4251
친	-11.4252
▁살아	-11.4255
▁져서	-11.4257
▁한국어	-11.4258
▁쌩	-11.4258
▁보안	-11.426
▁전해	-11.4262
▁뿌듯	-11.4262
▁여의도	-11.4265
▁이메일	-11.4265
▁환율	-11.4265
▁단호박	-11.4265
▁결심	-11.4265
▁인바디	-11.4265
▁모텔	-11.4266
▁기어	-11.4266
▁들어갔는데	-11.4266
▁개학	-11.4266
▁핑크색	-11.4266
▁지내	-11.427
겠당	-11.4272
▁쓸까	-11.4273
▁장판	-11.4276
▁없던	-11.428
▁반도	-11.4282
▁해야하는	-11.4283
▁넓은	-11.4286
▁안이	-11.4287
오면	-11.4289
죽	-11.4289
▁한계	-11.4296
쇼	-11.43
▁나올거	-11.4301
▁웃는	-11.4303
▁을해	-11.4303
▁망했어	-11.4308
▁가지마	-11.4309
▁얼릉	-11.4309
▁가평	-11.431
▁브런치	-11.431
▁정규직	-11.431
▁순삭	-11.431
▁건조해서	-11.4311
▁브레이크	-11.4311
▁넣음	-11.4312
▁미션	-11.4312
▁싶은게	-11.4313
▁간격	-11.4315
▁단식	-11.4316
▁공복	-11.4317
▁사고싶은데	-11.4317
▁구찌	-11.4321
▁쉰다고	-11.4321
▁괜찮나	-11.4323
▁쟝	-11.4326
▁임티	-11.4326
▁벽지	-11.4326
▁<	-11.4327
▁땨	-11.4332
▁피곤하지	-11.4333
▁날듯	-11.4334
▁애매해	-11.4337
▁사줄까	-11.4337
셔서	-11.4339
▁또는	-11.4339
▁걸리지	-11.4344
▁고프다	-11.4346
▁해물	-11.4347
▁보내주고	-11.4347
▁성분	-11.4351
김	-11.4351
▁댈	-11.4354
▁하던가	-11.4354
▁자존심	-11.4355
▁쿄쿄	-11.4355
▁중간고사	-11.4355
▁계란말이	-11.4356
▁메밀	-11.4356
▁하얀색	-11.4356
▁종료	-11.4356
▁버릇	-11.4361
▁할리스	-11.4361
▁챙기	-11.4364
▁괜찬	-11.4365
▁회장	-11.4367
▁다는	-11.4369
▁신부	-11.4369
▁오를	-11.4369
▁고양	-11.4371
▁일등	-11.4372
겡	-11.4373
▁비오면	-11.4375
▁얼어	-11.4376
▁보시	-11.438
▁이었음	-11.4381
▁반려	-11.4384
▁놓	-11.4386
▁파주	-11.4391
▁의외	-11.4391
▁바를	-11.4392
▁물어봤다	-11.4393
▁낭비	-11.4395
▁나빠	-11.4395
▁사야해	-11.4399
옄	-11.4401
▁돌리면	-11.4401
▁경비실	-11.4402
▁기다릴	-11.4402
▁바라고	-11.4404
▁멋지다	-11.4405
▁받기로	-11.4406
▁죄다	-11.4407
▁1500	-11.4409
▁더러워	-11.441
▁필요해서	-11.441
▁이론	-11.4411
였어	-11.4412
▁타기	-11.4415
▁맛있었다고	-11.4419
▁쉬는시간	-11.442
닠	-11.4425
▁2500	-11.4428
▁등기	-11.4429
▁쑥	-11.443
▁힘내라	-11.4436
줄게	-11.4438
▁되어야	-11.4438
▁ᄒᄅ	-11.4442
오래	-11.4445
▁나오더라	-11.4445
▁헤어질	-11.4447
▁트럭	-11.4447
▁여유롭게	-11.4447
▁보러가	-11.4447
▁벨트	-11.4448
▁레이스	-11.445
▁파워	-11.4453
▁가해	-11.4454
▁롤러	-11.4457
▁마스터	-11.4457
▁헤어지고	-11.4458
▁자리는	-11.4461
▁이천	-11.4462
▁편하다고	-11.4462
▁우리둘	-11.4463
▁시켜줘	-11.4466
▁장애	-11.4469
▁쓰자	-11.447
▁95	-11.4471
▁믿을	-11.4472
겠구만	-11.4481
▁나가는데	-11.4482
▁오브	-11.4482
▁벌면	-11.4484
▁그칭	-11.4486
▁들어간다	-11.4486
▁마른	-11.4488
▁짧아	-11.4488
삿	-11.449
▁스케쥴	-11.4493
▁당일치기	-11.4493
▁추첨	-11.4494
▁연극	-11.4494
▁사이버	-11.4494
▁밤낮	-11.4494
▁조앙	-11.4496
▁단종	-11.4497
▁좋으니까	-11.4497
▁그만둔다고	-11.4497
▁그칰	-11.4499
▁분식	-11.4502
▁드리	-11.4502
▁있습니다	-11.4503
▁팍팍	-11.4506
▁있으며	-11.4506
잇	-11.451
▁업자	-11.4511
깨	-11.4512
으라고	-11.4515
▁오른	-11.4522
주세요	-11.4525
항	-11.4526
▁올라가는	-11.4529
밍	-11.4529
▁치우고	-11.4532
▁떠나	-11.4532
기도	-11.4535
▁로라	-11.4536
▁출첵	-11.4539
▁싫어해	-11.454
▁탄산	-11.454
있고	-11.4541
▁이집	-11.4542
▁좋을텐데	-11.4542
▁불편한	-11.4544
욕	-11.4546
▁놀러와	-11.4548
거라고	-11.455
▁싸인	-11.4554
▁발음	-11.4557
▁제공	-11.4558
▁자금	-11.4565
▁보냈	-11.4568
▁페	-11.4568
▁ᄏᄒ	-11.4569
▁가긴	-11.4573
▁치기	-11.4578
▁위메프	-11.4586
▁유부초밥	-11.4586
▁매트리스	-11.4586
▁복근	-11.4587
▁혐	-11.4588
▁교실	-11.4589
▁풍경	-11.4589
▁만나도	-11.4591
▁전시	-11.4596
▁구워서	-11.4599
▁있을걸	-11.4601
▁𐨛	-11.4603
▁했당	-11.4605
▁일어나는	-11.4605
▁잇던데	-11.4607
▁밀어	-11.4608
▁듬	-11.461
▁찔	-11.461
▁베리	-11.4611
▁보여준	-11.4621
▁피하	-11.4623
▁찍기	-11.4629
▁되었는데	-11.463
▁광화문	-11.4633
▁후쿠오카	-11.4633
▁야무지게	-11.4633
▁존귀	-11.4633
▁활	-11.4634
악	-11.4634
▁왕창	-11.4635
▁뮤직	-11.4635
▁심심	-11.4637
▁ᄒᄒᄒᄒᄒᄒᄒ	-11.4639
▁싫지만	-11.4639
▁긴데	-11.4639
떡	-11.4641
▁댔어	-11.4642
▁된장	-11.465
▁보이더라	-11.4651
으신	-11.4657
▁어나	-11.4662
▁그로	-11.4668
희	-11.4671
▁ᄀᄏ	-11.4673
▁준데	-11.4676
▁아니구나	-11.4676
▁포스	-11.4676
▁찾았어	-11.4678
▁기생충	-11.4679
▁스케일링	-11.468
▁깸	-11.468
▁갱신	-11.4681
▁어떨지	-11.4681
▁읭	-11.4681
▁쓸모	-11.4682
▁부른	-11.4685
▁미쳣다	-11.4686
▁중요해	-11.4693
▁봤고	-11.4695
▁뜨는데	-11.4695
▁흉	-11.4699
▁세제	-11.4701
▁쉰다	-11.4714
▁살려	-11.4715
▁서리	-11.4726
▁이북	-11.4726
▁빼빼로	-11.4727
▁청춘	-11.4727
▁어르신	-11.4727
▁러닝	-11.4727
▁유독	-11.4728
▁이오	-11.4729
▁짧아서	-11.473
▁광안	-11.473
▁안되니까	-11.4732
▁입으라고	-11.4732
▁~~~!	-11.4733
봄	-11.4734
▁형식	-11.4735
▁있나요	-11.4738
▁많대	-11.4739
▁추리	-11.474
▁했구나	-11.4742
▁하장	-11.4743
▁편하지	-11.4743
▁인연	-11.4745
▁판이	-11.4748
▁가즈	-11.4748
▁입자	-11.4753
▁퇴근길	-11.4755
▁구미	-11.4756
▁안사	-11.4764
▁세월	-11.4765
▁지니	-11.4766
▁써요	-11.4767
▁집값	-11.4767
▁어도	-11.4768
▁갈꺼	-11.4769
▁있는디	-11.4771
▁음주	-11.4772
▁느려	-11.4773
▁사갈게	-11.4773
▁마시기	-11.4774
▁정형외과	-11.4774
▁헠헠	-11.4774
▁세븐	-11.4775
▁시킬까	-11.4776
▁무거	-11.4781
▁부가	-11.4781
▁보람	-11.4782
▁필요한데	-11.4784
▁보고싶은데	-11.4784
▁해줬어	-11.4784
▁썩	-11.4786
▁소음	-11.4795
▁이케	-11.4797
▁뽑을	-11.4798
▁야하는데	-11.4799
▁참을	-11.4802
▁왓어	-11.4803
▁생각남	-11.481
▁좋아하	-11.4814
뇨	-11.4814
▁많았어	-11.4815
▁나가려고	-11.4815
▁꿀잼	-11.4816
▁타는데	-11.4818
▁수유	-11.4822
▁사물함	-11.4822
▁참기름	-11.4822
▁만났는데	-11.4823
▁인절미	-11.4823
▁옙	-11.4823
▁바뀌어서	-11.4823
▁뮤비	-11.4824
▁한꺼	-11.4824
▁풀려서	-11.4824
▁비쌈	-11.4825
▁엽	-11.4826
▁나갔는데	-11.4828
▁정품	-11.4828
▁생산	-11.4828
▁숴	-11.483
▁노동	-11.4832
▁켜서	-11.4833
▁삿는데	-11.4835
▁그야	-11.4837
▁잠바	-11.4837
▁다큐	-11.4844
▁해보기로	-11.4847
▁그러게요	-11.4849
▁장가	-11.4849
▁사원	-11.4852
▁지를	-11.4859
▁그렇지만	-11.486
▁어젯밤	-11.487
▁트레이너	-11.487
▁바뀜	-11.487
▁암웨이	-11.487
▁않으까	-11.487
거든요	-11.487
▁무언가	-11.487
▁쏙	-11.4871
주면	-11.4872
▁부족해서	-11.4872
▁내지	-11.4873
▁이상형	-11.4873
였더니	-11.4875
▁미만	-11.4875
▁만들었다	-11.4876
▁e	-11.4878
▁괜찮은지	-11.4879
▁잇을거	-11.4879
▁정시	-11.4881
▁깃	-11.4882
▁알려줄	-11.4888
▁주거	-11.4889
지말고	-11.489
▁드시고	-11.489
▁빨대	-11.489
▁일가	-11.4892
▁돠	-11.4893
▁어마	-11.4895
는줄	-11.4896
▁조기	-11.4899
▁사상	-11.4899
▁먹는건	-11.4903
나보다	-11.4903
▁양보	-11.4904
▁배우는	-11.4913
앜	-11.4914
▁오피스텔	-11.4918
▁큐브	-11.4919
▁떨어지고	-11.4919
▁북한	-11.4921
라며	-11.4922
▁2~3	-11.4922
▁배워서	-11.4924
▁펑	-11.4924
▁시술	-11.4926
▁입주	-11.4926
▁),	-11.493
▁군인	-11.4932
▁미터	-11.4932
▁돌아가는	-11.4937
▁이삭	-11.4937
▁유전	-11.494
▁어렵고	-11.494
▁있었고	-11.4944
▁까지야	-11.4947
▁빌리	-11.4951
▁올지	-11.4951
▁삼만원	-11.4952
▁삼겹	-11.4966
▁봤네	-11.4968
▁주더	-11.4969
▁상영	-11.497
▁봤음	-11.4971
▁물어봤어	-11.4971
▁역전	-11.4973
▁커트	-11.4976
▁ᅮᅲᅲ	-11.4978
▁끊	-11.4989
▁날거	-11.499
▁평이	-11.4992
▁배도	-11.4995
▁먹고싶은	-11.4995
▁없던데	-11.4999
▁부추	-11.5
▁개정	-11.5005
렛	-11.5006
▁다신	-11.5008
▁섞어	-11.5011
▁걸리네	-11.5013
▁예방	-11.5014
▁해달	-11.5014
▁고데기	-11.5014
▁그나저나	-11.5014
▁탄수화물	-11.5014
▁덩어리	-11.5014
▁팬싸	-11.5015
▁베이글	-11.5015
▁가능할	-11.5015
▁여러가지	-11.5016
▁찬물	-11.5016
▁시키지	-11.5017
▁뛰고	-11.5017
▁토너	-11.5018
▁야할텐데	-11.502
▁했었	-11.5023
▁웃긴게	-11.5024
▁바뀌	-11.5025
▁괜츈	-11.5026
▁푸는	-11.5027
슨	-11.5027
▁어늘	-11.5029
졌다	-11.503
▁수목	-11.503
▁비어	-11.5033
▁망함	-11.5037
▁들어있는	-11.5037
▁나이트	-11.5038
▁고래	-11.5038
룸	-11.5039
▁올라갈	-11.5039
▁놀래	-11.5042
▁들어오고	-11.5042
▁날인	-11.5043
▁나왔고	-11.5048
▁끌려	-11.5048
▁방역	-11.5049
▁안팔	-11.505
▁나가도	-11.5052
▁간다고	-11.5053
▁하체	-11.5055
▁보았다	-11.5056
▁재미있는	-11.5057
▁같으	-11.5061
▁하네요	-11.5063
▁램	-11.5063
▁팔뚝	-11.5064
▁런던	-11.5065
▁창업	-11.5065
▁출신	-11.5065
▁나왔으면	-11.5067
▁인디	-11.5071
▁해야하는거	-11.5074
▁가봤어	-11.5075
▁옮기고	-11.5076
가야	-11.5077
▁워드	-11.5077
▁그러던데	-11.5078
▁마중	-11.5079
▁입어보고	-11.5081
▁낫는데	-11.5081
▁정전	-11.5081
다는	-11.5081
▁갠차	-11.5088
▁도망	-11.509
▁오세요	-11.5095
▁다사	-11.51
▁망해	-11.5101
▁부족한	-11.5104
▁칭	-11.5107
▁사드	-11.5109
백	-11.511
▁분야	-11.511
▁흥미	-11.5111
▁어쨋	-11.5112
▁스쿼트	-11.5112
▁스튜디오	-11.5112
▁바퀴벌레	-11.5112
▁까말까	-11.5112
▁환급	-11.5113
▁놀이터	-11.5113
▁]	-11.5113
▁총무	-11.5114
▁물어보라고	-11.5118
▁급한	-11.5121
▁듕	-11.5122
▁않았고	-11.5125
▁사양	-11.5125
객	-11.5126
▁까지도	-11.5126
▁알아야	-11.5127
▁숍	-11.5128
▁주어	-11.513
▁싫으면	-11.5134
▁160	-11.5141
▁알아보	-11.5142
▁지워	-11.5146
▁보낸다	-11.5148
▁크면	-11.515
은데	-11.5151
▁한다구	-11.5153
▁마셨는데	-11.5156
▁파인애플	-11.5162
▁마케팅	-11.5162
▁갈비찜	-11.5162
▁하시	-11.5162
▁유아	-11.5163
▁샀던	-11.5163
▁170	-11.5165
▁짜서	-11.5167
▁여야	-11.5168
▁웅앵	-11.5168
▁알겠습니다	-11.5169
▁매도	-11.5169
▁..#	-11.517
▁말려	-11.5172
▁묻는	-11.5173
▁필요하다고	-11.5175
▁요런	-11.5178
▁다닌다	-11.5179
▁파데	-11.518
▁놀라고	-11.5183
▁개별	-11.5184
▁시킨거	-11.5188
▁두는	-11.5199
▁고백	-11.52
▁상가	-11.5201
▁중요하지	-11.5205
▁낄	-11.5206
▁프듀	-11.5211
▁캠	-11.5211
단다	-11.5213
▁홍삼	-11.5213
▁예압	-11.5214
▁낌	-11.5214
▁마세요	-11.5215
▁음식물	-11.522
야겟다	-11.5221
▁는지	-11.5221
▁저축	-11.5225
▁봐야겟다	-11.5227
▁온다는데	-11.5227
▁되겟다	-11.5228
▁웬일	-11.5229
▁씹어	-11.5232
▁프라	-11.5234
▁대단하다고	-11.5238
▁마당	-11.524
렴	-11.5243
▁쓰다	-11.5246
▁땡긴다	-11.5248
▁애정	-11.5248
▁마신	-11.5249
▁예아	-11.5249
▁물어봐야	-11.5251
하다고	-11.5252
▁웬만하면	-11.5261
▁클래스	-11.5261
▁사볼까	-11.5261
▁알차게	-11.5262
▁입기	-11.5262
▁부럽네	-11.5262
▁?!!!	-11.5263
▁케잌	-11.5264
▁그럴수	-11.5265
▁화학	-11.527
▁덴	-11.5273
▁!!!!!!!!!!!	-11.5274
▁15000	-11.5277
▁코디	-11.5281
▁늠	-11.5285
▁이만원	-11.5285
▁짱구	-11.5286
▁가고있어	-11.5288
▁타이	-11.529
▁출고	-11.5292
었음	-11.5296
▁먹여	-11.5296
▁된다면	-11.5297
▁스러워	-11.5298
▁ᅲᅲᅲᅲᅲᅲᅲᅲᅲᅲ	-11.5298
▁맞아여	-11.5299
옴	-11.5299
▁하고있다	-11.53
▁안에	-11.5302
▁잠수	-11.5303
▁한대	-11.5306
왜	-11.5306
▁팩스	-11.5307
▁아보카도	-11.5311
▁어쨌든	-11.5311
▁횟집	-11.5311
▁계란찜	-11.5311
▁복귀	-11.5312
▁치맥	-11.5312
▁콤보	-11.5312
▁심심하면	-11.5312
▁했었다	-11.5315
▁떡국	-11.5315
▁배운	-11.5318
▁맞는듯	-11.5318
▁들었다고	-11.5328
▁노인	-11.5332
▁가진	-11.5332
▁인용	-11.5334
▁버렸	-11.5335
▁엄지	-11.5337
랰	-11.534
▁미소	-11.5344
▁신용	-11.5347
▁쓰면서	-11.5353
▁바르는	-11.5361
랔	-11.5362
▁뱀	-11.5362
▁웃으면서	-11.5362
▁바꿈	-11.5362
▁라이프	-11.5364
▁갠찮	-11.5367
▁나눔	-11.5369
▁찍었다	-11.537
▁분량	-11.5371
▁생수	-11.5375
▁버려야	-11.5377
▁책장	-11.5381
이가	-11.5387
▁눈거	-11.5402
▁잇니	-11.5403
▁먹냐고	-11.5403
▁~!!!	-11.5405
▁싸울	-11.5406
▁금토	-11.5407
▁이기도	-11.5409
▁금도	-11.5411
▁도깨비	-11.5412
▁분리수거	-11.5412
▁이비인후과	-11.5412
▁바게트	-11.5412
▁슬쩍	-11.5412
▁깁스	-11.5412
▁자기전에	-11.5412
▁베이비	-11.5413
▁틴트	-11.5413
▁이러케	-11.5414
▁올렸는데	-11.5414
▁닫아서	-11.5414
▁게뭐	-11.5414
▁치즈볼	-11.5414
▁단거	-11.5414
▁당뇨	-11.5415
▁보충	-11.542
▁기온	-11.5423
▁눈물나	-11.5424
▁테라	-11.5432
▁전원	-11.5439
▁고르	-11.5442
▁생겼	-11.5442
▁cm	-11.5447
▁제보	-11.5448
▁먹을듯	-11.5449
▁중요	-11.5451
욘	-11.5452
▁어그	-11.5453
니다	-11.5454
▁????????	-11.5459
▁어땠어	-11.5462
▁심부름	-11.5462
▁킹덤	-11.5462
▁공휴일	-11.5462
▁엠티	-11.5463
▁해줬는데	-11.5464
▁배울	-11.5464
▁귀찮은	-11.5465
▁코피	-11.5467
▁보자마자	-11.5467
▁자니	-11.5467
▁될수도	-11.547
▁쏠	-11.547
▁일반인	-11.547
▁원본	-11.5472
▁먹고와	-11.5473
▁죽고	-11.5475
▁분실	-11.5479
▁서른	-11.5482
▁라네	-11.5483
▁이징	-11.5483
▁보냈다고	-11.5483
▁나갓	-11.5486
▁사주면	-11.549
▁두운	-11.549
▁목포	-11.5491
▁즐겨	-11.5494
▁볶아	-11.5497
▁어이없	-11.5499
▁자나	-11.5508
▁끝났는데	-11.5509
하는게	-11.551
하기	-11.551
▁힘든거	-11.5511
▁보여줄게	-11.5513
▁링클	-11.5513
▁멤버십	-11.5514
▁러쉬	-11.5514
▁꼬막	-11.5514
▁리필	-11.5514
▁악몽	-11.5514
▁환상	-11.5515
▁카누	-11.5515
▁어어어어	-11.5515
▁아시아나	-11.5515
▁재밌을	-11.5517
▁영통	-11.5519
▁붙여서	-11.5522
▁에이치	-11.5525
▁장미	-11.5527
▁재밋어	-11.5529
▁가두	-11.553
했다	-11.553
▁보내주면	-11.5531
▁사수	-11.5533
▁났네	-11.5533
▁둔거	-11.5535
▁피는	-11.5535
▁본방	-11.5536
거아니야	-11.5536
▁막차	-11.5542
닥	-11.5543
▁다르고	-11.5546
,	-11.5548
▁하기는	-11.5551
것만	-11.5552
▁한우	-11.5557
▁괜찮겠지	-11.5561
▁파도	-11.5563
▁방수	-11.5564
▁트레이닝	-11.5564
▁곰돌이	-11.5565
▁스마트	-11.5565
▁버블티	-11.5565
▁승인	-11.5568
▁낯	-11.5568
▁될텐데	-11.5568
▁으아아	-11.5569
▁잇서	-11.557
▁아니어도	-11.5572
▁같으니까	-11.5573
샤	-11.5573
▁먹어야겠다고	-11.5575
▁백원	-11.5575
▁좋구	-11.5576
▁균	-11.5577
▁ᄂᄂᄂ	-11.5578
▁운동복	-11.558
▁나갈까	-11.5586
야하나	-11.5588
▁냠	-11.5589
▁냇	-11.5597
ᄏᄏᄏ	-11.5597
▁신기한	-11.5598
육	-11.561
▁재밌지	-11.5611
▁오진다	-11.5613
▁풀리면	-11.5614
▁봤냐	-11.5614
▁바닷가	-11.5616
▁누룽지	-11.5616
▁오리고기	-11.5616
▁트롯	-11.5616
▁거래처	-11.5617
▁까페	-11.5617
▁바르면	-11.5618
▁뺀	-11.5618
▁동탄	-11.5619
▁짜증남	-11.562
▁매워서	-11.562
▁팝	-11.562
▁문법	-11.5621
▁오분	-11.5625
▁다름	-11.5625
얔	-11.5627
▁이십분	-11.5628
▁조차	-11.563
▁먹었니	-11.563
▁서울대	-11.563
ᄏᄏ	-11.5635
▁나오게	-11.5638
▁대타	-11.5641
▁야경	-11.5643
▁본지	-11.5645
▁이즈	-11.5646
▁바부	-11.5647
▁다드	-11.5656
진다	-11.5657
▁무섭게	-11.5659
지마	-11.5664
▁♡♡♡	-11.5668
▁불닭볶음면	-11.5668
▁피드백	-11.5668
▁뜬금	-11.5668
▁애매하게	-11.567
▁위염	-11.5672
▁베이스	-11.5673
▁되니깐	-11.5673
▁아닌것	-11.5673
▁마르	-11.5674
▁욕조	-11.5674
▁실감	-11.5675
▁매물	-11.5675
▁야한대	-11.5677
▁재산	-11.5681
▁피고	-11.5681
▁말고도	-11.5684
▁오메	-11.5685
▁있을게	-11.5686
▁소서	-11.5686
▁같이가	-11.5686
▁할지도	-11.5687
▁싶었던	-11.5687
▁봐야해	-11.569
▁구직	-11.569
▁그래여	-11.5691
▁당연한	-11.5693
했다고	-11.5695
▁갈려고	-11.5697
인줄	-11.5698
▁빼는	-11.57
앙	-11.57
▁부려	-11.5701
▁사놓고	-11.5711
것처럼	-11.5712
▁쉬워	-11.5713
했는데	-11.5713
▁뜬다	-11.5715
▁이웃	-11.5717
▁지르고	-11.5718
▁너무하네	-11.5719
▁샤부샤부	-11.572
▁호불호	-11.572
▁다녀왔는데	-11.5721
▁으앙	-11.5722
▁합의	-11.5722
▁줄알	-11.5724
▁단호	-11.5725
▁요정	-11.5725
▁물어보려고	-11.5726
▁어뗘	-11.5728
▁저금	-11.5729
▁임용	-11.5731
▁시켰	-11.5734
▁썼다고	-11.5737
▁가는지	-11.5737
▁천만원	-11.5739
▁뽑	-11.5747
▁듣지	-11.575
▁생파	-11.575
▁마셔도	-11.5752
▁먹엇	-11.5752
▁명함	-11.5753
것다	-11.576
▁덥지	-11.5762
▁튀어	-11.5762
▁전하	-11.5767
주겠다고	-11.5768
▁다니기	-11.577
▁같았어	-11.5771
▁온데	-11.5771
▁닥터	-11.5771
▁아무나	-11.5772
▁시그널	-11.5772
▁훌쩍	-11.5772
▁동사무소	-11.5772
▁닌텐도	-11.5773
▁튜브	-11.5773
▁페인트	-11.5773
▁복싱	-11.5773
▁룰루	-11.5773
▁엇음	-11.5774
▁밀려서	-11.5774
▁헤어지자	-11.5774
▁깔끔하고	-11.5775
▁알았음	-11.5778
▁먹엇다	-11.5778
▁가봤는데	-11.5779
▁모으고	-11.5781
▁뎀	-11.5787
▁위생	-11.579
▁아니얌	-11.5791
▁끝나는데	-11.5794
▁슈가	-11.5795
▁시리	-11.5798
▁죽을거	-11.5803
▁식스	-11.5811
▁이상하네	-11.5813
▁하남	-11.5816
▁잘해	-11.5816
▁느끼는	-11.5817
▁산이	-11.5818
▁미치겠다	-11.5819
▁항생제	-11.5825
▁프렌즈	-11.5825
▁사회생활	-11.5825
▁강화	-11.5825
▁여쭤	-11.5825
▁아닙니다	-11.5826
▁깨끗하게	-11.5826
▁ᅲᅲᄏᄏᄏ	-11.5826
▁괜찮아서	-11.5826
▁갈고	-11.5827
▁정확한	-11.5827
▁미아	-11.5829
▁찰	-11.5829
▁단위	-11.5829
독	-11.5829
▁익산	-11.583
▁드라이기	-11.583
▁느껴져	-11.5831
▁기다리라고	-11.5831
▁보석	-11.5834
▁피곤하고	-11.5837
▁부르면	-11.5837
▁뚝	-11.5838
▁재밌어서	-11.5841
▁쟈기	-11.5842
▁얼집	-11.5842
▁싸우는	-11.5842
▁용서	-11.5846
▁껀데	-11.5848
▁닫아	-11.5851
▁불쌍	-11.5853
▁같은것도	-11.5853
▁토일	-11.5861
▁일어났	-11.5863
▁나은거	-11.5863
▁만들었어	-11.5863
▁ᄏᄀᄀ	-11.5863
▁코노	-11.5864
▁리해	-11.5866
▁오스	-11.5868
▁같아도	-11.5869
죵	-11.5871
▁홧팅	-11.5877
▁리조트	-11.5878
▁왕십리	-11.5878
▁스마트폰	-11.5878
▁후라이드	-11.5878
▁미안한데	-11.5881
▁야구장	-11.5881
▁엄청나게	-11.5882
▁오메가	-11.5883
▁봤니	-11.5887
▁분노	-11.5893
▁아니어서	-11.5893
▁𐌅	-11.5894
▁찾아봐야	-11.5894
▁건조	-11.5897
▁발리	-11.5898
▁배고프	-11.5899
▁우주	-11.5899
먄	-11.5903
▁죽겠어	-11.5903
▁잡혀	-11.5903
▁보냐	-11.5904
▁뚫고	-11.5906
▁올라오는	-11.5913
▁타라	-11.5913
▁배고플	-11.5918
맨	-11.5922
착	-11.5922
▁나방	-11.5924
▁지적	-11.5925
촌	-11.5926
▁75	-11.5929
▁할로윈	-11.5931
▁스피닝	-11.5931
▁맞은편	-11.5931
▁쉼	-11.5932
▁보너스	-11.5932
갓	-11.5932
▁쫙	-11.5932
▁성능	-11.5933
▁힛	-11.5933
▁바꾸려고	-11.5934
▁몰랔	-11.5935
▁받침	-11.5935
▁뭇	-11.5935
▁강남역	-11.5937
▁목살	-11.5938
▁보수	-11.5938
▁해보여	-11.5939
▁보셈	-11.594
▁체인	-11.5942
▁사업자	-11.5943
▁방도	-11.5948
▁주신	-11.595
▁콤	-11.5951
▁벌이	-11.5952
▁안되겠다	-11.5952
▁줭	-11.5953
▁차라	-11.5955
▁고픈	-11.5957
▁볼거야	-11.5959
▁사라져	-11.5961
▁안다	-11.5961
▁먹겠다	-11.5962
▁탄다	-11.5962
▁잇는게	-11.5967
▁숙	-11.5969
▁ᄏᄏᄏᄀᄏ	-11.5975
▁잘안	-11.5977
▁,.	-11.5978
▁담주부터	-11.598
▁배고픈	-11.598
▁뭐더	-11.5982
▁밀고	-11.5984
▁볼펜	-11.5986
▁원서	-11.5986
른	-11.5986
▁바꿀까	-11.5986
▁먹고싶네	-11.5987
▁900	-11.5987
▁들으니까	-11.5987
▁필러	-11.5988
▁갔었는데	-11.5988
▁올리	-11.5988
▁룰	-11.599
▁별명	-11.5991
▁스러운	-11.5991
▁휴대	-11.5992
▁식구	-11.5994
▁싶당	-11.5994
▁..;	-11.5995
▁에혀	-11.5997
▁갈아입고	-11.6
▁호에	-11.6
▁보던	-11.6002
▁이겨	-11.6004
▁복구	-11.6005
▁유자	-11.601
▁부대	-11.6019
▁혼나	-11.6019
▁사가지고	-11.6019
▁태도	-11.6022
▁애매한	-11.6023
▁은우	-11.6025
▁정정	-11.6027
▁가야대	-11.6027
깅	-11.603
▁대중	-11.6032
▁디자이너	-11.6038
▁무한리필	-11.6038
▁젓가락	-11.6038
▁해소	-11.6038
▁포스팅	-11.6039
▁후다닥	-11.6039
▁폭풍	-11.6039
▁않으니	-11.6039
▁샀네	-11.604
▁버릴까	-11.604
▁측	-11.6041
▁샀음	-11.6042
▁근력	-11.6044
▁이러는데	-11.6044
▁히트	-11.6047
▁질질	-11.6048
▁달글	-11.6048
▁다닌다고	-11.6051
▁보쟈	-11.6052
▁찌는	-11.6056
▁ᅡᄂ	-11.6058
▁시위	-11.606
▁좋아하면	-11.6063
▁영하	-11.6065
▁방치	-11.6066
▁듣는다	-11.6067
▁맞추고	-11.6069
▁되는건	-11.607
더라구요	-11.6071
▁안온	-11.6072
▁분해	-11.6073
▁왓는데	-11.6073
▁잡기	-11.6082
▁비올	-11.6082
▁받아야지	-11.6085
▁필요없	-11.6087
▁다를	-11.609
▁다이아	-11.6093
▁일어나자마자	-11.6093
▁흐엉	-11.6093
▁사라짐	-11.6094
▁열시미	-11.6094
▁특강	-11.6094
▁꿀맛	-11.6094
▁행운	-11.6095
▁왕따	-11.6095
▁대리점	-11.6095
▁추우면	-11.6095
▁바짝	-11.6096
▁놀지	-11.6096
▁들어왔어	-11.6097
▁감탄	-11.6097
▁해주기로	-11.6097
▁헤어진	-11.6098
▁켜놓고	-11.6104
▁젠데	-11.6107
▁갈겡	-11.6109
▁............	-11.6109
▁갈것	-11.612
▁클렌징	-11.6121
▁추어	-11.6122
▁마시지	-11.6128
▁신기하	-11.6132
▁놓을	-11.6133
▁!??	-11.6137
▁보내기	-11.6138
고싶다	-11.614
▁보리	-11.6141
▁대용	-11.6144
▁중식	-11.6144
▁갠톡	-11.6145
▁싱가폴	-11.6147
▁앎	-11.6147
▁빽	-11.6148
▁아프네	-11.6148
▁떼잉	-11.6148
▁디엠	-11.6148
▁어키	-11.6148
▁섞어서	-11.615
▁기다리면	-11.615
▁상관없이	-11.6152
▁교보	-11.6152
▁학습	-11.6152
▁무도	-11.6155
▁와의	-11.6155
렁	-11.6156
▁허억	-11.6158
슬	-11.6158
▁콧	-11.6162
▁놔야지	-11.6163
▁응웅	-11.6165
구려	-11.617
블	-11.6171
▁어려울	-11.6171
▁날때	-11.6176
▁였고	-11.6179
▁젖	-11.6179
▁죽겠다	-11.618
▁보고있어	-11.6184
▁사야하나	-11.6184
▁낫겠지	-11.6185
▁치워	-11.6187
▁좋아하나	-11.6188
▁부인	-11.6189
나서	-11.6194
▁가봐서	-11.6199
▁웹	-11.62
▁신기하다고	-11.6201
▁순식간	-11.6201
▁자존감	-11.6201
▁위약금	-11.6201
▁헤헷	-11.6201
▁퇴직	-11.6202
▁같기두	-11.6203
▁쪼끔	-11.6203
▁직무	-11.6204
▁정치	-11.6204
▁에두	-11.6205
▁몰아서	-11.6206
▁사줌	-11.6207
▁언급	-11.6207
▁쓸수	-11.6209
▁해주시	-11.621
▁보내준다고	-11.6211
▁지내고	-11.6211
였는데	-11.6213
▁비쌀	-11.6216
▁이대로	-11.6221
▁찾은	-11.6223
▁죽어도	-11.6224
▁걸렸다	-11.6224
▁긁어	-11.6225
▁돌아오는	-11.6234
▁텐	-11.6234
있다고	-11.6237
▁깼다	-11.6249
▁가깝	-11.625
헤	-11.6253
▁끼는	-11.6253
▁겨드랑이	-11.6256
▁놀이기구	-11.6256
▁비빔국수	-11.6256
▁쉐이크	-11.6256
▁전남친	-11.6256
▁폐렴	-11.6257
▁대한항공	-11.6257
임산부	-11.6257
▁종교	-11.6257
▁강쥐	-11.6257
▁떴는데	-11.6258
▁스마일	-11.6258
스타	-11.6262
▁완벽한	-11.6262
▁잡음	-11.6263
▁리그	-11.6264
▁ᄀᄂᄁ	-11.6264
▁액자	-11.6265
▁가능한데	-11.6269
▁맘스	-11.6269
▁해보지	-11.6276
▁공동	-11.6277
▁답답	-11.6284
▁크다고	-11.6286
▁가까운데	-11.6287
▁차비	-11.6294
▁있어야지	-11.6294
▁내리	-11.6295
▁늙어서	-11.6301
▁색도	-11.6302
▁쓸게	-11.6309
▁자수	-11.6311
졋	-11.6311
▁그닝까	-11.6312
▁필요없어	-11.6312
▁어떨까	-11.6312
▁맞춤	-11.6312
▁오케오케	-11.6312
끝	-11.6312
▁재능	-11.6313
▁주중	-11.6313
▁라야	-11.6314
▁스무	-11.6315
▁건강하게	-11.6315
▁리즈	-11.6315
▁싸면	-11.6316
▁깎아	-11.6317
▁버틸	-11.6318
▁해야하지	-11.6319
▁민망	-11.632
▁사옴	-11.6321
지면	-11.6322
▁그롬	-11.6325
▁방울	-11.6327
▁수액	-11.6329
▁틀어놓고	-11.6329
▁아닌디	-11.6329
▁수제	-11.6329
▁햇던	-11.6331
▁틱	-11.6332
▁십년	-11.6334
탈	-11.6337
▁가봐요	-11.6338
▁기관	-11.6338
▁ᄅᄅ	-11.6342
▁그녀	-11.6348
▁합성	-11.6353
엇다	-11.6355
▁오면서	-11.636
▁지어	-11.636
▁이뿌	-11.6363
카드	-11.6363
▁칵테일	-11.6367
▁달고나	-11.6367
▁흐름	-11.6368
▁갈비탕	-11.6368
▁달동	-11.6369
▁안될까	-11.6369
▁배틀	-11.637
▁출산	-11.637
▁의논	-11.6371
▁조은데	-11.6374
▁맘터	-11.6377
▁안될듯	-11.6377
▁더욱	-11.6378
▁잊지	-11.638
▁이러지	-11.638
▁포켓	-11.6382
▁시가	-11.6382
▁하려다가	-11.6384
▁사두	-11.6385
▁먹었지만	-11.639
▁오산	-11.6391
▁오겠지	-11.6391
▁쬐	-11.6391
▁할수가	-11.6392
▁찹쌀	-11.6393
▁요구	-11.6395
▁유기	-11.6396
내가	-11.6396
▁당시	-11.6397
▁신으면	-11.6398
▁갈라구	-11.6398
▁나음	-11.6399
▁꺼져	-11.6402
▁객	-11.6405
▁질려	-11.6406
▁적고	-11.6406
▁먹고시	-11.6407
▁달린	-11.6412
▁이중	-11.6414
▁ᄍ	-11.6415
▁찾아보니	-11.6416
핑	-11.6417
▁할건	-11.6418
▁하죠	-11.6422
▁갑시다	-11.6423
▁군것질	-11.6423
▁스킬	-11.6423
▁노리	-11.6423
▁설빙	-11.6424
▁로사	-11.6424
▁물었더니	-11.6425
▁초과	-11.6425
▁앞뒤	-11.6427
▁대가리	-11.6427
▁치매	-11.6428
▁오백	-11.6428
▁긋다	-11.643
▁보이는거	-11.6432
▁떳	-11.6433
▁악마	-11.6433
▁바쁜데	-11.6434
▁어쩌다가	-11.6435
▁원작	-11.6436
▁헌혈	-11.6437
▁참는	-11.6446
▁피디	-11.6446
▁배구	-11.6447
▁당함	-11.6447
▁끌어	-11.6449
▁하신다	-11.645
▁갠찬	-11.6452
▁되겠	-11.6452
▁놓으면	-11.6453
▁먹는거야	-11.6459
▁무거운	-11.6461
▁아잉	-11.6464
▁모르는거	-11.6464
▁빙	-11.6465
한거	-11.6469
▁에게도	-11.6471
평	-11.6472
▁물어봤	-11.6473
돌	-11.6474
▁자는거	-11.6475
▁앉은	-11.6477
▁̆̈	-11.6479
▁시네마	-11.6479
▁샤이니	-11.6479
▁들어가지	-11.6479
▁계열	-11.648
▁봅니다	-11.648
▁빈속	-11.648
▁골반	-11.6481
▁외과	-11.6481
▁겁니다	-11.6481
▁배치	-11.6481
▁동창	-11.6482
▁쩌러	-11.6483
▁재밌고	-11.6484
▁찾아봐야지	-11.6485
▁틀린	-11.6486
▁주면서	-11.6486
▁당직	-11.6489
▁일전	-11.649
▁99	-11.6491
▁였으면	-11.6494
▁살아야지	-11.6494
수가	-11.6496
▁각질	-11.6496
▁길다	-11.6498
▁잇는지	-11.65
련	-11.6501
▁간거야	-11.6504
▁약사	-11.6504
▁무려	-11.6505
▁이었고	-11.6506
▁된당	-11.6508
▁쳐도	-11.6509
▁안자고	-11.6511
▁받았고	-11.6511
▁주네	-11.6512
얼	-11.6513
▁델	-11.6518
므로	-11.6518
훈	-11.6519
▁물회	-11.6521
▁해보자고	-11.6523
축	-11.6526
▁전산	-11.6528
습	-11.653
▁비빔	-11.6534
▁E	-11.6535
▁힘듦	-11.6535
▁뽐뿌	-11.6536
▁클라우드	-11.6536
▁보드게임	-11.6536
앗	-11.6536
▁워홀	-11.6536
▁특유	-11.6537
▁잤더니	-11.6537
▁깜	-11.654
▁좀전에	-11.6541
▁꼬마	-11.6543
▁길고	-11.6544
▁면담	-11.6545
▁자아	-11.6547
▁다크	-11.6547
▁39	-11.6547
▁갈꺼야	-11.6547
▁캄	-11.6553
▁록	-11.6555
▁멀지	-11.6556
댱	-11.6557
▁고르는	-11.6557
을거	-11.656
주라	-11.6569
▁먹을꺼	-11.6574
있는거	-11.6577
▁인대	-11.6577
▁살걸	-11.6578
▁ᄏᄃᄏᄃ	-11.6578
▁가고싶은	-11.6581
▁어스	-11.6592
▁파트너	-11.6593
▁형광	-11.6595
▁->	-11.6595
▁관절	-11.6596
▁상관없는데	-11.6596
▁구마	-11.6596
▁입양	-11.6597
▁날로	-11.6601
▁성남	-11.6602
▁먹을만	-11.6603
▁듣	-11.6603
▁열어서	-11.6606
▁조아요	-11.6609
▁인척	-11.661
▁유효	-11.661
▁모라	-11.6612
인듯	-11.6616
▁시킨다	-11.6616
▁사야되	-11.6618
▁하고싶은	-11.6618
▁이었으면	-11.662
▁나누	-11.6623
▁가기전에	-11.6624
▁왜구	-11.6627
▁아홉	-11.6629
!	-11.6632
▁먹어용	-11.6635
▁관람	-11.6636
▁오겠다고	-11.6639
▁준다는	-11.6642
▁z	-11.6643
▁반말	-11.6643
▁했어여	-11.6645
깤	-11.6647
▁많잖아	-11.6649
▁흡입	-11.6651
~	-11.6651
▁논란	-11.6651
▁존경	-11.6652
▁학번	-11.6653
▁냈는데	-11.6653
▁4000	-11.6654
▁땡기	-11.6654
▁전화했는데	-11.6655
▁않기로	-11.6655
▁선임	-11.6658
▁닫	-11.6663
▁앖	-11.6667
▁증거	-11.6667
▁연동	-11.6668
▁개그	-11.6671
▁분장	-11.6673
▁임시	-11.6673
잡	-11.6674
▁맛있나	-11.6674
▁호오	-11.6675
▁온거야	-11.6675
▁뜨지	-11.6678
▁힘들지만	-11.6679
짜	-11.6679
▁이상하	-11.6686
▁안줘	-11.6687
▁강도	-11.6688
왕	-11.6689
▁얼려	-11.6689
▁왔다며	-11.6693
▁키울	-11.6698
▁기다린다	-11.6699
▁능거	-11.67
놓	-11.67
▁,,,,,,,	-11.6702
▁정말로	-11.6705
▁미스	-11.6705
▁바베큐	-11.6707
▁경쟁률	-11.6707
▁케이블	-11.6707
▁폭염	-11.6708
▁알아보는	-11.6708
▁부러워한다	-11.6708
▁손잡이	-11.6708
▁찾았는데	-11.6708
▁멀티	-11.6709
▁금욜날	-11.671
▁범인	-11.671
▁됐음	-11.671
▁알콜	-11.671
▁감각	-11.6713
▁못자	-11.6714
▁가져가라고	-11.6714
▁사구	-11.6715
▁경찰서	-11.6716
▁타워	-11.6717
▁참내	-11.6718
▁들었	-11.672
▁비추	-11.6721
▁피곤하다고	-11.6726
▁왜캐	-11.6727
▁성의	-11.6729
▁지훈	-11.6731
▁브리	-11.6733
▁기다려서	-11.6736
는듯	-11.6737
▁허다	-11.6741
▁먹었을	-11.6744
▁시오	-11.6746
▁소중한	-11.6756
▁펄	-11.6759
딘	-11.676
▁미가	-11.6762
▁헷갈려	-11.6762
▁중심	-11.6764
▁하차	-11.6764
▁마즘	-11.6766
▁많았는데	-11.6767
▁얇게	-11.6767
▁행복하게	-11.6769
▁은색	-11.6771
▁먹으려면	-11.6772
▁만점	-11.6772
▁없을걸	-11.6772
캐	-11.6775
▁맛있었는데	-11.6775
봨	-11.6775
나무	-11.6776
▁했자	-11.6776
▁st	-11.6777
▁받앗	-11.6777
▁게이	-11.6779
▁요양	-11.6779
싱	-11.678
▁피시	-11.6782
▁3-4	-11.6782
었던	-11.6784
▁문어	-11.6788
▁코로	-11.6789
▁공유기	-11.679
▁과의	-11.6792
▁어울린다	-11.6794
숙	-11.6795
▁혈	-11.6796
▁해주겠다고	-11.6798
▁할겨	-11.6798
니께	-11.6805
둥	-11.6806
▁해놨어	-11.6807
▁하고있	-11.6807
눈데	-11.6807
ᄏᄏᄏᄏ	-11.6807
냐며	-11.6809
▁줘야지	-11.681
▁떨린다	-11.6811
▁사주는	-11.6813
▁따가	-11.6815
▁그만두면	-11.6816
▁깔깔	-11.682
▁숟가락	-11.6823
▁싱글	-11.6823
▁사무직	-11.6823
▁신뢰	-11.6824
▁물어봤더니	-11.6824
▁까먹음	-11.6824
▁직거래	-11.6824
▁뭐시기	-11.6825
▁익스	-11.6827
완	-11.6827
▁급행	-11.6828
▁시원하고	-11.6829
▁밥솥	-11.6829
▁먹고시퍼	-11.6832
▁아스	-11.6832
▁바쁘고	-11.6835
▁예비	-11.6837
▁놀기	-11.684
▁세로	-11.6842
▁남으면	-11.6845
▁잡아야	-11.6847
▁날개	-11.6849
갈아	-11.6851
▁부스	-11.6856
▁찾아볼	-11.6856
▁야한다고	-11.6858
싶다	-11.6863
▁쓰여	-11.6864
책	-11.6865
▁삿다	-11.6867
▁낫겠다	-11.6872
▁넘는	-11.6872
▁냈다	-11.6875
▁이해해	-11.6875
▁느낀	-11.6877
▁딴데	-11.6879
였	-11.688
▁달도	-11.6881
늠	-11.6881
▁해야겠	-11.6881
▁쉬엄쉬엄	-11.6882
▁파리바게트	-11.6882
▁견과류	-11.6882
▁압박	-11.6882
▁넉넉하게	-11.6882
졍	-11.6882
▁뿅	-11.6882
▁크로스	-11.6884
▁홈런	-11.6884
▁찬성	-11.6885
▁아쉽지만	-11.6885
▁냈어	-11.6885
▁겠네여	-11.6886
▁타이어	-11.6886
▁밀면	-11.6888
▁되었고	-11.6889
▁방석	-11.689
▁산업	-11.6891
▁만들려고	-11.6892
▁전화할	-11.6895
▁무서운데	-11.6895
▁예민	-11.6896
▁봤냐고	-11.6898
▁였던	-11.6899
▁살자	-11.6901
▁좋아했는데	-11.6901
▁하기전에	-11.6902
▁바쁘다고	-11.6902
▁할겡	-11.6906
하긴	-11.6906
▁T	-11.6907
▁탈수	-11.6907
▁가발	-11.6909
▁좋던데	-11.691
▁배차	-11.6911
▁아깝다고	-11.6912
▁그럴거면	-11.6913
▁...???	-11.6913
▁붙이는	-11.6914
▁댱	-11.6918
▁무침	-11.6919
▁십만	-11.6919
▁렁	-11.6927
▁만드는거	-11.6934
▁아니거든	-11.6936
릉	-11.6938
▁도와주	-11.6939
▁블럭	-11.694
▁예쁜거	-11.6941
▁객관	-11.6941
▁캐슬	-11.6941
▁난로	-11.6942
▁맞으러	-11.6943
▁마련	-11.6943
▁피곤하면	-11.6944
▁보디	-11.6944
▁넣기	-11.6945
▁로봇	-11.6947
▁헤에	-11.6947
▁강의실	-11.6948
▁소린	-11.6948
▁떼고	-11.6949
▁사고싶	-11.6949
▁보내지	-11.6949
▁간판	-11.6952
▁디카	-11.6953
▁회수	-11.6957
▁이브	-11.6957
어서	-11.6959
▁내려갈	-11.6959
▁시켰다고	-11.6961
▁기안	-11.6967
밀	-11.6967
▁났나	-11.6968
▁없었다고	-11.6968
▁지식	-11.6975
▁심심할	-11.6977
꾸	-11.6978
▁배안	-11.6978
▁내려와	-11.6979
겠음	-11.6983
▁들어갔다	-11.6984
▁받구	-11.6985
▁다녀오	-11.6986
▁있던거	-11.6988
▁바르	-11.699
▁버리지	-11.6992
▁지문	-11.6993
▁보느라	-11.6996
범	-11.6997
▁기엽	-11.6997
▁어렵네	-11.6999
▁바구니	-11.7
▁선글라스	-11.7
▁트렌치	-11.7
▁추우니까	-11.7
▁스프레이	-11.7001
▁물어볼까	-11.7001
▁아놬	-11.7002
▁불법	-11.7003
▁단추	-11.7003
혼	-11.7005
▁본격	-11.7006
▁벅	-11.7009
한다	-11.7011
▁깊은	-11.7013
▁돌리는	-11.7013
▁굼	-11.7013
▁원만	-11.7014
▁자두	-11.7014
▁왔오	-11.7016
▁사본	-11.7018
밖	-11.7018
겠냐고	-11.7021
▁떵	-11.7022
▁12000	-11.703
▁같당	-11.7034
▁성질	-11.7034
▁쉰	-11.7036
▁여러분	-11.7036
▁간단한	-11.7037
▁저격	-11.7038
▁열면	-11.7039
▁자르	-11.7039
▁거미	-11.7041
▁남기고	-11.7042
▁나돜	-11.7044
▁내장	-11.7046
▁,..	-11.7048
ᅲᅲᅲᅲᅲᅲᅲᅲᅲᅲᅲᅲᅲᅲᅲᅲ	-11.7054
▁고등	-11.7056
????????????????	-11.7056
▁사귀는	-11.7057
▁ᄐᄏᄏᄏ	-11.7058
▁실리콘	-11.7059
▁규칙	-11.7059
▁다양하게	-11.706
▁태어나서	-11.706
▁힘드니까	-11.706
▁긴급	-11.7062
▁아리	-11.7065
▁웃어	-11.7065
▁매매	-11.7066
▁차례	-11.7067
▁들러서	-11.7067
▁당해서	-11.707
▁완벽	-11.7071
▁쓰긴	-11.7071
▁파전	-11.7072
▁보증	-11.7073
▁엨	-11.7075
▁유산	-11.7075
▁전화하면	-11.7078
쥐	-11.708
▁웅응	-11.7083
▁리오	-11.7083
▁화이	-11.7085
▁씻을	-11.7088
오라고	-11.7091
썽	-11.7094
▁받으면서	-11.7095
▁으로가	-11.7095
▁맞아야	-11.7095
▁애매	-11.7096
▁미노	-11.7098
▁사봐	-11.7099
▁뭣	-11.7099
▁알았네	-11.7099
▁먹는지	-11.7103
▁140	-11.711
▁까는	-11.7111
▁런닝	-11.7112
▁i	-11.7112
▁러시아	-11.7118
▁어쩐	-11.7118
▁블라인드	-11.7119
▁스타트업	-11.7119
▁씨제이	-11.7119
▁협상	-11.7119
▁궁금한	-11.712
▁츠	-11.712
▁껍데기	-11.7121
▁갈릭	-11.7121
▁소풍	-11.7122
▁부품	-11.7123
▁수도권	-11.7124
▁폴	-11.7124
▁가보려고	-11.7126
▁본체	-11.7127
▁보세요	-11.7128
▁해보께	-11.7128
▁담아서	-11.7129
▁나온대	-11.7129
▁페인	-11.7129
▁물어보았다	-11.7132
▁세용	-11.7134
▁만나는거	-11.7136
▁바늘	-11.7138
▁ᅲ슈	-11.7139
▁그래용	-11.7139
▁대본	-11.7142
구멍	-11.7144
▁그럴줄	-11.7145
▁캣	-11.7146
▁된듯	-11.715
떄	-11.7151
▁해보게	-11.7152
▁대는데	-11.7154
▁맞이	-11.7159
▁받는게	-11.7163
▁붐	-11.7163
▁모르나	-11.7164
▁개잘	-11.717
▁들으러	-11.7176
▁측정	-11.7177
▁65	-11.7178
▁릴	-11.7179
▁죄송합니다	-11.7179
▁웨딩	-11.7179
▁거마	-11.718
▁컴백	-11.718
▁쓰레기통	-11.7181
▁아포	-11.7182
▁기다렸다가	-11.7182
▁헷	-11.7185
▁현미	-11.7185
▁늦었다	-11.7186
▁피곤한데	-11.7187
▁으잉	-11.7188
▁꺼내서	-11.7189
▁내복	-11.7189
가요	-11.7191
▁상세	-11.7192
▁드는거	-11.7195
▁입국	-11.7195
▁편한데	-11.72
▁37	-11.7203
▁보내도	-11.7212
▁마가	-11.7218
▁오삼	-11.7221
▁할배	-11.7224
맘	-11.7224
▁카라	-11.7224
▁헉스	-11.7229
▁씨방	-11.7231
▁리도	-11.7232
졌	-11.7233
▁쪽지	-11.7234
▁쭈	-11.7235
▁윙	-11.7235
▁우도	-11.7236
▁하셨	-11.7237
▁옶	-11.7238
▁남았네	-11.7238
▁배스킨라빈스	-11.724
▁주꾸미	-11.724
▁메가박스	-11.724
▁절레절레	-11.724
▁그럴것	-11.724
▁인증샷	-11.724
▁정작	-11.7245
▁상식	-11.7249
▁비슷한데	-11.7252
▁모카	-11.7254
▁원주	-11.7254
▁기해	-11.7255
▁비치	-11.7256
▁어무	-11.7256
▁홈트	-11.7257
▁뺏	-11.7258
▁탔다고	-11.7259
▁싶은디	-11.726
▁벗	-11.7263
▁맛있으면	-11.7264
▁가능하고	-11.7265
▁사긴	-11.7265
▁강한	-11.7266
▁#!	-11.7269
▁불로	-11.727
이거	-11.727
▁원대	-11.7272
▁피스	-11.7273
▁정원	-11.7276
▁알아볼	-11.7277
▁완죤	-11.7277
▁많이는	-11.7278
▁잊	-11.7279
▁가주	-11.7282
▁110	-11.7283
▁남지	-11.7285
▁좋나	-11.7286
▁느끼고	-11.7291
▁씻어야	-11.7291
▁정확하게	-11.7296
▁이어도	-11.7296
겠습니다	-11.7298
▁레스토랑	-11.7301
▁몬스터	-11.7301
▁수하물	-11.7301
▁호다닥	-11.7301
▁손바닥	-11.7301
▁던킨	-11.7301
▁꿀팁	-11.7302
랏	-11.7302
▁했데	-11.7303
▁미스트	-11.7304
▁다르네	-11.7304
▁없을까	-11.7305
▁ᅮᅮᅮᅮᅮᅮᅮ	-11.7306
▁박살	-11.7306
▁잔고	-11.7307
▁텅	-11.7307
▁나왓어	-11.7308
▁달리기	-11.7309
▁타코	-11.7309
▁없어여	-11.731
▁마카	-11.7311
▁맛있었	-11.7311
▁반까지	-11.7312
▁소바	-11.7315
▁버티	-11.7316
▁먹거나	-11.7319
▁마시면서	-11.7321
▁진로	-11.7321
이면	-11.7326
▁츄	-11.7327
▁닿	-11.7328
▁걸으면	-11.7335
▁지리	-11.7337
아냐	-11.7337
▁대는	-11.7337
승	-11.7338
▁덮고	-11.7338
▁샀나	-11.7342
▁묻	-11.7343
▁셋째	-11.7343
▁부족해	-11.7345
▁채우고	-11.7347
▁뒤집어	-11.735
있을	-11.7353
▁보냇	-11.7355
▁지겨워	-11.7359
▁하디	-11.736
▁비트코인	-11.7362
▁아이파크	-11.7362
▁다래끼	-11.7362
▁심히가	-11.7362
▁달걀	-11.7363
▁풀려	-11.7363
▁마셔야	-11.7363
▁확실하게	-11.7363
▁찍으러	-11.7363
▁체온	-11.7364
▁조율	-11.7364
▁바꿨는데	-11.7364
▁리본	-11.7365
▁잡혀서	-11.7366
▁편입	-11.7366
▁입을까	-11.7368
▁하지도	-11.7369
▁조작	-11.737
▁부엌	-11.7372
▁나가게	-11.7372
흐	-11.7373
▁다기	-11.7373
▁늦을거	-11.7374
▁조져	-11.7374
▁특별	-11.7377
▁걸어야	-11.7377
필	-11.7377
▁들어간다고	-11.7379
▁미역	-11.7379
▁잎	-11.7382
▁세포	-11.7383
▁할려	-11.7383
▁미안해서	-11.7385
▁댔	-11.7386
나와	-11.7388
▁머시	-11.7388
▁끼워	-11.7388
▁해보는	-11.7389
▁이길	-11.739
▁나오니	-11.7395
▁이또	-11.7404
▁정해진	-11.7404
▁안되니	-11.7406
▁가는거지	-11.7407
▁헤드	-11.7408
이다	-11.741
▁않겠지	-11.7413
▁반년	-11.7419
뿌	-11.7423
▁스위치	-11.7424
▁이었던	-11.7424
▁접때	-11.7425
▁빈티	-11.7425
▁무신	-11.7426
▁저렴	-11.7428
▁않을거	-11.7428
▁어떠케	-11.7429
▁입을지	-11.743
▁쓰지마	-11.7431
▁후추	-11.7431
▁피나	-11.7432
▁나도나도	-11.7434
▁식감	-11.7434
▁에스티	-11.7435
▁육아	-11.7436
▁기대하고	-11.7438
▁야시장	-11.744
▁고데	-11.744
밤	-11.7441
▁전골	-11.7441
▁걷	-11.7445
▁전라도	-11.7447
하지만	-11.7448
▁챙겨야	-11.745
▁댄다	-11.7451
▁77	-11.7451
▁해안	-11.7451
▁맞추기	-11.7451
▁버렸다고	-11.7453
▁록스	-11.7454
▁인줄	-11.7456
▁본듯	-11.7456
▁꼽	-11.7458
▁짖	-11.7459
▁남주	-11.7463
▁읽을	-11.7463
껀	-11.7471
▁긁	-11.7472
▁먹고있어	-11.7478
▁도보	-11.748
▁찾아보자	-11.7482
우리	-11.7482
▁돌아올	-11.7485
▁애니메이션	-11.7486
▁쨍쨍	-11.7486
▁슬픔	-11.7486
▁우연히	-11.7486
▁펭수	-11.7486
▁컵밥	-11.7487
▁빡시게	-11.7488
▁쿡	-11.7488
▁산지	-11.7488
▁눈빛	-11.7488
▁하나은행	-11.7489
▁왔더니	-11.749
▁재미있어서	-11.749
▁안나는데	-11.7491
▁화목	-11.7491
▁놀기로	-11.7492
▁장도	-11.7493
▁유학	-11.7495
▁태연	-11.7498
▁확신	-11.7499
▁있었지	-11.7503
▁열려	-11.7505
▁ᄐᄏᄏ	-11.7507
▁넣었어	-11.7509
▁없당	-11.7509
짝	-11.7512
▁짜증나네	-11.7513
▁갔는지	-11.7517
▁맛있지만	-11.7523
▁있는것	-11.7528
▁찍어야	-11.7528
▁어떤게	-11.7534
겟당	-11.7535
▁가자마자	-11.7537
▁통일	-11.7538
아아	-11.7538
▁TV	-11.7548
▁기저귀	-11.7548
▁무사히	-11.7549
데이	-11.7549
▁공홈	-11.7549
▁하와이	-11.755
▁승리	-11.755
▁크아	-11.7552
▁메이커	-11.7552
▁있다는데	-11.7552
▁지우고	-11.7552
▁삼김	-11.7553
▁어쩌라고	-11.7553
▁개구리	-11.7553
▁씻어서	-11.7555
▁이상한데	-11.7556
▁개판	-11.7559
▁감상	-11.7561
▁보류	-11.7562
▁일보	-11.7565
▁피곤할	-11.7566
▁하수	-11.757
▁야호	-11.7572
▁받을수	-11.7572
가야지	-11.7573
▁잇으	-11.7574
▁산거야	-11.7575
▁잨	-11.7576
▁률	-11.7577
▁당연하	-11.7581
구여	-11.7587
▁입었어	-11.7587
이라	-11.7593
▁편하긴	-11.7596
베	-11.7597
▁괜찮지만	-11.7598
▁좋을것	-11.76
▁안다고	-11.7601
▁떨어지	-11.7605
밖에	-11.7605
▁비행	-11.7606
있었어	-11.7606
▁다니던	-11.7606
▁오드	-11.7606
▁느껴진다	-11.7608
▁컨트롤	-11.761
▁잇을까	-11.7611
▁토이스토리	-11.7611
▁스탠딩	-11.7611
▁콩국수	-11.7612
▁섭취	-11.7612
▁동해	-11.7612
▁건전지	-11.7612
▁쿠키런	-11.7612
▁몫	-11.7613
▁낳고	-11.7615
▁깨져서	-11.7615
▁기요	-11.7615
▁실행	-11.7615
▁천만	-11.7616
▁해줘도	-11.7616
▁자르면	-11.7616
▁갔음	-11.7616
▁괜찮더라	-11.7618
▁높	-11.7618
▁출금	-11.7618
▁닮았다고	-11.7619
▁보가	-11.7622
▁신나서	-11.7623
▁가부	-11.7624
곳	-11.7626
▁거치	-11.7627
▁..,	-11.763
▁모으는	-11.7633
▁공단	-11.7633
▁일일	-11.7635
▁나은지	-11.7635
▁김천	-11.7636
▁개구	-11.7642
▁열은	-11.7642
▁올림	-11.7644
▁하도록	-11.7644
▁좋은걸	-11.7646
▁알겠지	-11.7647
▁ᄒᄃᄃ	-11.7648
▁머쓱	-11.7649
잖아요	-11.765
▁누리	-11.7655
▁방지	-11.7658
▁잃어버린	-11.7659
▁피곤하겠다	-11.7667
▁왁싱	-11.7672
섭	-11.7673
▁타이레놀	-11.7675
▁놋북	-11.7675
▁와사비	-11.7675
▁수화물	-11.7675
▁가계부	-11.7675
▁어려움	-11.7675
▁스타킹	-11.7675
▁안하	-11.7675
▁호랑이	-11.7676
▁가져갈게	-11.7676
▁평점	-11.7677
▁위험한	-11.7677
▁올림픽	-11.7677
▁금연	-11.7679
▁까만	-11.768
▁깊게	-11.7681
▁될꺼	-11.7681
▁금식	-11.7682
▁선정	-11.7682
▁파업	-11.7682
▁가터	-11.7682
▁멍멍	-11.7683
▁괜찮냐고	-11.7685
▁망한	-11.7685
▁잇거든	-11.7685
▁전화하고	-11.7685
▁신문	-11.7687
▁눈알	-11.7688
▁또래	-11.769
▁지경	-11.769
▁기다리는데	-11.7692
▁잔치	-11.7692
▁할수록	-11.7692
▁고만	-11.7693
▁즘	-11.7694
▁시름	-11.7694
▁크네	-11.7694
▁식초	-11.7696
▁레이어	-11.7697
▁삼아	-11.7703
▁쓰던거	-11.7704
▁나인	-11.771
▁하는거라	-11.7713
▁견	-11.7713
▁보는건	-11.7713
▁걸릴거	-11.7714
▁부안	-11.7718
▁달인	-11.772
▁둬야	-11.7727
▁시차	-11.7727
▁지망	-11.7727
ᄋ	-11.7728
▁구한	-11.7729
▁훗	-11.7733
▁나가는거	-11.7735
▁어뜨케	-11.7737
▁공기청정기	-11.7738
▁만화책	-11.7739
▁결석	-11.7739
▁안전하게	-11.774
뒤	-11.774
▁스팀	-11.774
자는	-11.7741
다리	-11.7742
▁생각나네	-11.7744
▁많아져서	-11.7744
▁소품	-11.7745
▁싫어해서	-11.7746
가는데	-11.7748
▁끓여서	-11.775
▁송이	-11.775
▁움직여	-11.7753
▁되길	-11.7755
▁좋았다고	-11.7757
▁겠	-11.7758
▁쏘리	-11.7759
▁왔대	-11.7761
▁능데	-11.7766
다구	-11.7766
▁난대	-11.7767
▁보여주자	-11.7768
▁가이드	-11.7769
▁딘	-11.7776
▁네모	-11.7786
▁좁은	-11.779
떠	-11.7795
▁살다	-11.7795
▁냉장	-11.7795
▁다니는거	-11.7797
▁드셔	-11.7797
▁조아하는	-11.7799
▁먹니	-11.78
▁샤오미	-11.7802
▁슈크림	-11.7803
▁발레	-11.7803
▁완결	-11.7803
▁당당하게	-11.7803
▁찐으로	-11.7803
▁오래되서	-11.7804
▁몰입	-11.7804
▁지쳐서	-11.7805
▁드세요	-11.7805
▁힘내자	-11.7806
▁깔아서	-11.7809
▁조하	-11.7809
▁뜯어서	-11.7812
▁데워	-11.7812
▁빠지지	-11.7814
▁힙	-11.7814
▁갈거면	-11.7814
▁가져온	-11.7816
▁대창	-11.7818
▁신청서	-11.7818
▁젛	-11.7821
▁통보	-11.7821
는대	-11.7823
▁없구나	-11.7823
▁X	-11.7824
▁둣	-11.7824
▁줄라	-11.7831
▁하게되	-11.7832
▁ᄇᄅ	-11.7836
▁보이긴	-11.7836
▁그렁	-11.7837
줘야	-11.7838
▁어케해	-11.7839
▁서사	-11.784
▁오르고	-11.7843
▁다니지	-11.7844
▁p	-11.7848
▁찍었	-11.785
▁꽂아	-11.7854
▁루프	-11.7858
겅	-11.7859
▁명인	-11.7864
▁방안	-11.7865
▁날수	-11.7865
▁어니	-11.7866
▁세워	-11.7867
▁넓고	-11.7867
▁케이티엑스	-11.7867
▁고속버스	-11.7867
▁주황색	-11.7867
▁카뱅	-11.7867
▁대통령	-11.7868
▁로맨스	-11.7868
▁필통	-11.7868
▁포카	-11.7869
▁없었으면	-11.787
▁#~	-11.787
▁와이프	-11.7872
▁듀스	-11.7872
▁다야	-11.7872
▁콜라보	-11.7872
▁비슷해서	-11.7874
▁만나려고	-11.7874
▁엊	-11.7877
▁어려운데	-11.7877
▁봐용	-11.7877
▁해놨는데	-11.7878
▁탄다고	-11.7883
▁진한	-11.7884
▁장식	-11.7885
없	-11.7887
▁가실	-11.789
▁사연	-11.7891
▁기념일	-11.7893
▁마셨어	-11.7894
킹	-11.7896
▁입는거	-11.7898
▁반쯤	-11.7901
▁달까	-11.7903
▁내껀	-11.7904
▁예민한	-11.7906
▁따서	-11.7906
▁.............	-11.7909
▁잇어야	-11.791
▁그랰	-11.791
▁운동장	-11.7912
▁대게	-11.7914
▁더러	-11.7915
▁찢	-11.7922
▁사다줘	-11.7923
▁님들	-11.7924
▁아까는	-11.7932
▁디지털	-11.7932
▁뭐랄까	-11.7932
▁씨지브이	-11.7932
▁월남쌈	-11.7932
▁프린터	-11.7932
▁붙은	-11.7932
▁파김치	-11.7932
▁썬	-11.7932
▁특징	-11.7932
▁센티	-11.7933
▁절약	-11.7934
▁데스크	-11.7934
▁빼곤	-11.7934
▁귀찮은데	-11.7935
▁끝나지	-11.7935
▁경유	-11.7936
▁있으려나	-11.7937
▁승진	-11.7937
▁재미있고	-11.7937
▁맡기고	-11.7938
▁먹고싶당	-11.7938
▁소형	-11.7938
▁만료	-11.7939
▁받어	-11.7942
▁가능하면	-11.7943
▁촉	-11.7945
▁가깝고	-11.7945
▁형제	-11.7946
▁살림	-11.7947
▁습기	-11.7947
▁쥬스	-11.7948
▁루루	-11.7949
▁돌아서	-11.7949
▁;;;;;	-11.795
▁가능하	-11.795
▁간조	-11.7951
▁싶은건	-11.7952
▁좋아하지만	-11.7957
▁그래라	-11.7958
▁차별	-11.796
▁인듯	-11.7961
▁떨고	-11.7964
▁있는듯	-11.7964
▁일러	-11.7969
▁느데	-11.7971
▁호구	-11.7975
▁부시	-11.7976
▁지름	-11.7979
▁팔로	-11.798
▁I	-11.7987
▁박수	-11.7988
▁손절	-11.7989
거니까	-11.799
▁선거	-11.7992
▁묻어	-11.7997
▁태권도	-11.7997
▁유모차	-11.7997
▁넘겨	-11.7997
▁벅스	-11.7999
▁세미나	-11.7999
▁먹으까	-11.7999
▁구롬	-11.8001
▁시키려고	-11.8001
▁버정	-11.8001
▁정책	-11.8002
▁&	-11.8003
▁뮬	-11.8004
▁바쁘면	-11.8006
▁물류	-11.8009
▁권하고	-11.8009
▁어울린다고	-11.8009
▁사시	-11.8011
▁마오	-11.8013
▁하시네	-11.8013
샷	-11.8013
▁까비	-11.8014
▁난이도	-11.8015
▁찾아보면	-11.8015
▁보낸다고	-11.8015
▁나갔다가	-11.8015
▁마신다	-11.8016
▁막판	-11.8017
▁독해	-11.8018
▁똑같다	-11.8018
▁해변	-11.8018
▁되도	-11.8019
수록	-11.802
▁안되냐	-11.8023
▁없긴	-11.8023
▁효도	-11.8024
▁없는것	-11.8025
▁시점	-11.8029
▁가왜	-11.8031
▁싸운	-11.8033
▁키스	-11.8035
▁중반	-11.8035
▁전역	-11.8038
▁많아요	-11.8039
▁ᄋᄌᄅ	-11.804
▁할말이	-11.8043
▁차트	-11.8044
▁보겠다	-11.8058
▁부은	-11.8059
▁이노	-11.8062
▁모르겟네	-11.8063
▁업로드	-11.8063
▁헤엑	-11.8063
▁엠비티아이	-11.8063
▁범위	-11.8064
▁분식집	-11.8064
▁유혹	-11.8064
▁매운탕	-11.8064
맥	-11.8064
▁플레인	-11.8064
▁재밌음	-11.8065
▁재미없어	-11.8066
▁사무소	-11.8066
▁되겟지	-11.8066
▁댔는데	-11.8066
▁k	-11.8066
랫	-11.8067
▁기다리다가	-11.8067
▁잠들어서	-11.8067
▁산타	-11.8067
▁가던	-11.8068
▁너구리	-11.8068
▁된다는데	-11.8069
겄	-11.8071
▁거둔	-11.8072
러더	-11.8074
▁어필	-11.8077
▁먹었냐고	-11.8078
▁알겠음	-11.8078
▁아디	-11.8079
▁모으면	-11.8081
▁안되게	-11.8089
▁^.^	-11.809
▁잡았다	-11.809
▁피곤하	-11.809
▁봤으면	-11.8093
▁일텐데	-11.8096
할까	-11.8096
▁막아	-11.8097
▁요약	-11.8098
▁핑	-11.8098
▁삶은	-11.8102
▁찾아봐야겠다	-11.8104
▁던지	-11.8107
▁죽으면	-11.8109
▁비트	-11.811
▁자를	-11.8112
▁죽여	-11.8113
▁울었다	-11.8114
수밖에	-11.8115
▁비싸긴	-11.8116
▁아쉽다고	-11.8118
▁대에	-11.812
▁떴다	-11.812
▁걸어가는	-11.8121
혈	-11.8122
▁메리	-11.8125
▁~!~!	-11.8127
쪙	-11.8128
▁오랫동안	-11.8129
▁나쁘진	-11.813
▁생각나는	-11.813
▁쓱	-11.813
▁스몰	-11.813
▁스키장	-11.8131
▁농장	-11.8131
▁토핑	-11.8132
▁뷰티	-11.8132
▁푸라	-11.8132
▁찾다가	-11.8132
▁죄송하다고	-11.8134
변	-11.8134
▁만오천원	-11.8135
▁포차	-11.8136
▁재활용	-11.8136
▁불금	-11.8137
▁됭	-11.8137
▁불쌍한	-11.8138
▁론데	-11.8139
▁부들부들	-11.8139
▁크리	-11.8139
▁수분	-11.8141
▁없겠지	-11.8143
▁ᅲᅲᄏᄏᄏᄏ	-11.8144
▁좋아하니까	-11.8148
▁진리	-11.815
▁샤프	-11.815
▁할수있	-11.8153
▁실용	-11.8155
▁쉬는데	-11.8157
▁게스트	-11.8158
▁나갔	-11.8159
▁차안	-11.8159
▁해죠	-11.816
▁식장	-11.8161
▁머거야	-11.8161
▁!!!!!!!!!!!!	-11.8162
▁해봤	-11.8166
▁들어왔	-11.8172
▁문서	-11.8172
▁고른	-11.8174
▁선선	-11.8175
덩	-11.8176
▁운전자	-11.8177
▁들렸다가	-11.8178
인디	-11.8179
▁130	-11.8179
▁타는거	-11.8181
▁.,,	-11.8182
▁안좋다	-11.8183
ᄏ	-11.819
▁집업	-11.8193
▁말아야	-11.8194
▁귀여웡	-11.8196
▁온갖	-11.8196
▁그저께	-11.8196
▁퀄	-11.8196
▁마늘빵	-11.8197
▁스크린	-11.8197
▁믿음	-11.8197
▁나왔네	-11.8197
▁맛있겠당	-11.8197
▁무섭네	-11.8197
▁등본	-11.8199
▁고픔	-11.8199
▁느려서	-11.82
▁좋은가	-11.8201
▁터널	-11.8201
▁극장	-11.8201
▁재밌었어	-11.8202
▁사십분	-11.8202
▁52	-11.8202
▁카이	-11.8202
▁착해서	-11.8202
▁ᅲᄏᄏᄏ	-11.8202
▁편함	-11.8204
▁좋군	-11.8204
▁만큼은	-11.8205
▁고르라고	-11.8208
▁없길래	-11.8211
▁잘해야	-11.8211
▁동전	-11.8212
▁압	-11.8212
▁그렇더라	-11.8214
▁하겠습니다	-11.8214
▁생겼네	-11.8218
▁매수	-11.8223
▁다왓	-11.8223
▁F	-11.8225
▁2019	-11.8228
▁대량	-11.8231
았	-11.8232
싶	-11.8232
0%	-11.8233
▁하모	-11.8235
▁좋았	-11.8237
▁트는	-11.8239
▁다만	-11.8239
▁....!	-11.8239
▁공용	-11.824
▁심정	-11.824
▁부터가	-11.8241
▁여덟	-11.8243
▁해준거	-11.8244
ᄂ	-11.8245
탑	-11.8248
▁v	-11.8252
▁3~4	-11.8256
▁안타깝다	-11.8259
▁이크	-11.826
▁안개	-11.826
▁어금니	-11.8263
▁함부로	-11.8263
▁피크닉	-11.8263
▁유툽	-11.8263
▁싶긴한데	-11.8263
▁안녕하세요	-11.8264
옥	-11.8264
▁배꼽	-11.8264
▁추워져서	-11.8265
▁닮아서	-11.8265
▁꼰대	-11.8266
▁팔려서	-11.8266
▁못자서	-11.8267
▁소액	-11.8267
▁코너	-11.8269
▁뛰어서	-11.827
▁사치	-11.827
▁플렉스	-11.8271
▁급해서	-11.8271
▁작동	-11.8272
▁간반	-11.8272
▁돌리	-11.8272
▁싶어도	-11.8273
▁넨	-11.8273
▁가능해서	-11.8275
▁보삼	-11.8275
▁물어보는데	-11.8275
▁나올듯	-11.8277
▁경로	-11.8278
▁재미있었다	-11.828
▁앉을	-11.828
▁지능	-11.8282
▁나주	-11.8283
▁특별한	-11.8284
▁심각한	-11.8284
▁잠들어	-11.8285
▁몰랐다고	-11.8287
▁싸는	-11.829
▁구체	-11.8293
▁높게	-11.8295
▁끊을	-11.8296
▁만드는데	-11.83
▁되자	-11.83
▁제해	-11.83
▁비싸더라	-11.83
▁깬	-11.8301
▁같은걸	-11.8303
▁쉬면서	-11.8308
▁대국	-11.831
나는	-11.8312
랬	-11.8312
팀	-11.8314
을수도	-11.8316
▁나가니까	-11.8319
▁현지	-11.832
▁한주	-11.8322
▁먹은게	-11.8323
▁듣는거	-11.8324
었으면	-11.8324
▁업어	-11.8324
▁그래야겠어	-11.8326
▁논거	-11.8326
▁해리	-11.8327
ᄀ	-11.8327
▁....??	-11.8329
▁미루고	-11.833
▁박람회	-11.8331
▁펑펑	-11.8331
▁거북목	-11.8331
▁막국수	-11.8331
▁브라우니	-11.8331
▁버블	-11.8331
▁체인점	-11.8331
▁남방	-11.8331
▁타르트	-11.8331
▁삼각대	-11.8332
▁샹궈	-11.8332
▁혹은	-11.8332
▁마쟝	-11.8332
▁가져가면	-11.8333
고있어	-11.8333
▁빔	-11.8334
▁안아	-11.8335
▁ᄐᄏᄏᄏᄏ	-11.8342
▁마신다고	-11.8344
▁그래놓고	-11.8345
▁약해서	-11.8345
▁흔들	-11.8347
▁나사	-11.8351
▁수염	-11.8353
▁해동	-11.8354
▁돜	-11.8355
▁~~~~~~~~	-11.8357
▁야할것	-11.8358
▁가보자고	-11.8359
▁비워	-11.8362
▁그떄	-11.8364
▁되는듯	-11.8364
▁나왔나	-11.8367
▁취준	-11.837
▁밧	-11.837
▁내려가는	-11.8372
▁긴거	-11.8379
▁분도	-11.8381
▁만들어도	-11.8387
▁디스	-11.8388
▁반영	-11.8393
▁메세지	-11.8399
▁유재석	-11.8399
▁증명사진	-11.8399
▁파운드	-11.8399
▁티라미수	-11.8399
▁걸어가	-11.8399
▁투잡	-11.8399
▁폴더	-11.84
▁잃어버려서	-11.84
▁실컷	-11.84
▁럿	-11.84
▁폴라	-11.8401
▁상승	-11.8402
▁올라오면	-11.8402
▁등교	-11.8402
▁되도록	-11.8402
▁있도록	-11.8402
▁빠진다	-11.8404
▁사갈	-11.8404
▁망해서	-11.8404
▁콜드	-11.8405
▁무배	-11.8406
▁재밌는데	-11.8407
▁연하	-11.8407
▁정색	-11.8411
▁의상	-11.8418
▁알았지만	-11.8418
▁비슷하다	-11.8424
▁해보라	-11.8425
층	-11.8427
렼	-11.8431
▁한다면서	-11.8431
▁배고프다고	-11.8434
는것	-11.8435
▁이른	-11.8437
▁101	-11.844
▁다녀올	-11.8442
▁에드	-11.8445
▁나도야	-11.8447
▁음원	-11.8448
▁모르겠어요	-11.845
▁입은거	-11.8452
▁버린다	-11.8453
▁수량	-11.8456
▁여해	-11.8456
▁뵈	-11.8459
즤	-11.846
▁만난다	-11.8463
▁졸린	-11.8463
▁59	-11.8465
▁아자	-11.8466
▁보톡스	-11.8468
▁납부	-11.8468
▁봅시다	-11.8469
▁돌체	-11.8469
▁송장	-11.847
▁호흡	-11.847
▁돌아와	-11.847
▁국산	-11.8471
▁다녀오라고	-11.8471
▁로나	-11.8472
▁힘들었어	-11.8474
▁놀라서	-11.8475
▁반죽	-11.8475
▁야해요	-11.8476
▁느낀다	-11.8476
듬	-11.8477
▁그릴	-11.8478
▁쉬어야지	-11.8479
▁노우	-11.8482
▁공제	-11.8486
▁먹으며	-11.8487
▁대행	-11.849
을만한	-11.849
▁고름	-11.8491
▁다는데	-11.8491
▁스럽지	-11.8494
▁맛있겠	-11.8499
▁슬프	-11.8503
▁거든요	-11.8504
▁다녀오고	-11.8511
▁많았다	-11.8514
▁알려주는	-11.8514
하니깐	-11.852
▁아니라는	-11.8521
▁보여줄	-11.8524
빼	-11.8532
말해	-11.8533
▁일시	-11.8535
▁...!!	-11.8535
▁터진	-11.8536
▁똑바로	-11.8536
▁코끼리	-11.8536
▁신경치료	-11.8536
▁중소기업	-11.8536
▁건너편	-11.8536
▁올라옴	-11.8537
▁출입	-11.8537
▁멍청이	-11.8537
▁줬더니	-11.8537
▁씨앗	-11.8538
▁조커	-11.8539
▁한솥	-11.8539
▁했었지	-11.854
▁하지말	-11.854
▁더러워서	-11.8541
▁야할지	-11.8542
▁귀여운거	-11.8542
▁사라져서	-11.8542
▁뚫어	-11.8542
▁섬유	-11.8544
▁김치전	-11.8547
▁쎄게	-11.8547
▁보내려고	-11.8551
▁배고픔	-11.8555
▁끝났다고	-11.8556
▁맞다고	-11.8556
을걸	-11.8557
▁중도	-11.8558
▁외워	-11.8561
▁아버	-11.8561
▁로망	-11.8561
▁땡땡	-11.8561
▁버티고	-11.8562
었고	-11.8562
▁짜증나서	-11.8564
▁드니	-11.8566
▁들어가기	-11.8567
팬	-11.8568
▁화재	-11.857
▁찍었어	-11.857
▁레고	-11.8571
▁괜찮어	-11.8571
낫	-11.8572
하다가	-11.8572
었지만	-11.8573
▁수프	-11.8574
▁만나는데	-11.8578
▁잘알	-11.8578
▁약한	-11.858
▁바뀌고	-11.8583
▁넓어	-11.8585
▁유도	-11.8585
▁유명한데	-11.8587
▁잘까	-11.8597
▁까요	-11.8601
▁땡기네	-11.8603
▁비둘기	-11.8606
▁외할머니	-11.8606
▁콘센트	-11.8606
▁횟수	-11.8606
▁햄스터	-11.8606
▁기억난다	-11.8606
▁판타지	-11.8606
▁띵	-11.8607
▁순환	-11.8608
▁크롬	-11.8608
▁등록증	-11.8609
▁선반	-11.8609
▁호르몬	-11.8609
▁머릿	-11.8611
▁보소	-11.8611
▁탭	-11.8612
▁파크	-11.8612
▁들어갔어	-11.8612
(	-11.8613
▁중요하다고	-11.8616
▁어떤데	-11.862
▁커리	-11.862
▁보려면	-11.862
▁고기랑	-11.8622
▁사주려고	-11.8623
▁아니까	-11.8624
▁바꿨다	-11.8627
▁차가운	-11.8628
▁말곤	-11.8628
▁개당	-11.8629
▁마주	-11.863
▁거저	-11.8631
▁밥값	-11.8631
▁빼기	-11.8631
▁또한	-11.8631
▁해줘요	-11.8632
▁쓸데없는	-11.8634
롱	-11.8634
▁당부	-11.8639
▁뽑은	-11.864
▁잇구	-11.8643
▁아픈건	-11.8644
▁알았으면	-11.8644
▁버리기	-11.8647
찍	-11.865
▁좋네요	-11.8651
▁하러가	-11.8654
▁중단	-11.8658
▁골라줘	-11.8658
▁해서는	-11.8661
▁수록	-11.8663
▁주니	-11.8663
▁있는거지	-11.8665
▁무리하지	-11.8667
▁배정	-11.8667
▁파스텔	-11.8676
▁마일리지	-11.8676
▁게시판	-11.8677
▁부는	-11.8677
▁클리어	-11.8678
▁단축	-11.8678
▁단독	-11.8678
▁팔아도	-11.8678
▁낮아서	-11.8678
▁그쳐	-11.8678
▁백숙	-11.8678
▁얇아서	-11.8678
▁졸린데	-11.8678
▁해줬으면	-11.8678
▁까먹어서	-11.8678
▁입니당	-11.8678
▁덤	-11.8679
▁그러치	-11.8679
▁충분	-11.8681
▁보도	-11.8682
▁맞았어	-11.8683
▁지성	-11.8685
놈	-11.869
▁심하다고	-11.8694
고싶어	-11.8694
▁좋구만	-11.8695
▁보이던데	-11.8696
▁물집	-11.8702
▁쎀	-11.8702
▁네오	-11.8703
▁일어나기	-11.8705
앤	-11.8706
▁있어여	-11.8707
▁온다며	-11.8707
▁쓰려	-11.8707
▁꿉	-11.8708
▁소용	-11.8711
▁^^....	-11.8712
▁조용한	-11.8714
▁전복	-11.8716
▁쇠	-11.8718
▁당했다	-11.8719
▁당하는	-11.872
▁벌기	-11.872
▁뒹굴	-11.8724
▁플로	-11.8726
▁ᄒᄏ	-11.873
느데	-11.8731
말고	-11.8734
▁고를	-11.8736
갸	-11.8737
▁멘	-11.8739
▁몰라요	-11.8742
▁합치	-11.8743
▁지쳐	-11.8743
▁장인	-11.8743
▁가야겟다	-11.8745
▁인터파크	-11.8746
▁뚜레쥬르	-11.8746
▁공포영화	-11.8746
▁탑승	-11.8746
▁오레오	-11.8746
▁복습	-11.8747
▁마싯겟다	-11.8748
▁소맥	-11.8748
올	-11.8749
▁적극	-11.8749
▁펫	-11.8749
▁본게	-11.875
▁흡수	-11.875
▁몰에서	-11.8751
▁일어나니까	-11.8751
▁우리은행	-11.8751
▁두라	-11.8753
▁남앗	-11.8753
▁잏	-11.8753
▁삶아	-11.8754
▁에라도	-11.8756
▁편하	-11.8756
돠	-11.8756
▁알았오	-11.8756
폰	-11.8759
▁가자는	-11.8759
커	-11.876
▁만은	-11.8763
▁중요하다	-11.8764
▁왔지만	-11.8767
▁똑같은데	-11.877
▁걱	-11.8774
▁많다며	-11.8775
▁머리색	-11.8775
▁시민	-11.8775
▁합정	-11.8776
▁불편하다	-11.8776
▁키우기	-11.8781
▁보는거야	-11.8786
▁고기만	-11.8787
▁안달	-11.8788
▁삼천원	-11.8789
▁쫄	-11.8792
아이	-11.8793
▁싸워	-11.8795
▁까먹	-11.8799
▁자바	-11.8799
▁지기	-11.8799
▁부여	-11.8801
▁고속	-11.8802
▁알제	-11.8803
▁낮게	-11.8806
▁삼만	-11.8807
▁유명	-11.8809
▁도구	-11.8812
▁ᄐᄏᄏᄏᄏᄏ	-11.8814
▁깼어	-11.8815
혜	-11.8815
▁입학	-11.8816
▁비오는데	-11.8816
▁따숩	-11.8817
▁훈제	-11.8817
▁손발	-11.8817
▁곱창전골	-11.8817
▁구내식당	-11.8817
▁줄넘기	-11.8817
▁횡단보도	-11.8817
▁하루하루	-11.8817
▁고무줄	-11.8818
▁괜찮았는데	-11.8818
▁복학	-11.8819
▁임마	-11.8819
▁,,!	-11.8819
▁넓어서	-11.882
▁습해서	-11.882
▁극단	-11.8821
▁없었음	-11.8821
▁버리라고	-11.8822
▁샀는지	-11.8822
▁늘어	-11.8824
▁필드	-11.8824
▁아이피	-11.8824
▁100%	-11.8825
▁바쁘게	-11.8827
▁초장	-11.8827
▁누우	-11.8827
▁먹자나	-11.8832
▁애매하다	-11.8835
▁했어용	-11.8836
▁사먹고	-11.8842
▁사야하는데	-11.8842
▁일월	-11.8845
%	-11.8847
▁무섭지	-11.8851
▁ᅲᄏ	-11.8854
더랔	-11.8854
▁지속	-11.8856
▁올려야	-11.8861
ᄏᄏᄏᄏᄏ	-11.8861
▁하나요	-11.8861
▁과식	-11.8864
▁올린거	-11.8864
▁고프	-11.8867
지긴	-11.8868
▁좁아	-11.8871
▁나진	-11.8871
▁주안	-11.8871
▁나가라고	-11.8873
▁t	-11.8873
▁데스	-11.8875
▁제나	-11.8875
▁자러	-11.8877
▁빼도	-11.8878
▁어떨	-11.8882
▁대단하네	-11.8886
▁영원히	-11.8886
▁거니	-11.8887
▁정직	-11.8888
▁모의고사	-11.8888
▁바게뜨	-11.8888
▁ᅲᅲᄏᄏ	-11.8888
▁예쁘네	-11.8889
▁부지런히	-11.8889
▁상반기	-11.8889
▁미술관	-11.8889
▁기름값	-11.8889
▁그랬으면	-11.889
▁태민	-11.889
▁싸워서	-11.8891
▁민초	-11.8892
▁연출	-11.8892
▁꾹	-11.8893
▁다니라고	-11.8894
▁잉크	-11.8895
▁개중	-11.8895
▁찬스	-11.8896
▁패치	-11.8896
갑	-11.8899
▁알아봐야	-11.89
▁땡겨서	-11.89
츄	-11.89
▁나왔던	-11.8901
▁먹고싶음	-11.8901
▁있을텐데	-11.8902
▁배부르다	-11.8903
▁먹잖아	-11.8904
있네	-11.8906
▁해놓으면	-11.8907
▁ᄏᄀᄀᄏ	-11.8913
▁먹었오	-11.8913
▁나오는지	-11.8915
농	-11.8915
▁헤이	-11.8915
▁ᅳ스	-11.8916
▁가봐야지	-11.8916
▁알수	-11.8919
▁맛없는	-11.892
▁그만둘	-11.8925
▁사야겟다	-11.8928
▁나갈거	-11.8932
▁무겁	-11.8933
▁원정	-11.8937
▁사유	-11.8939
▁없어져	-11.8942
는건데	-11.8945
▁깔끔한	-11.8946
▁숨겨	-11.8946
▁먹지만	-11.8947
었나	-11.8948
▁7000	-11.8949
▁어색해	-11.8951
▁먹었냐	-11.8953
▁서산	-11.8955
▁하겠지만	-11.8956
▁즐거워	-11.8957
▁알았어요	-11.8957
▁^^!	-11.8958
▁박효신	-11.896
▁교통사고	-11.896
▁기다림	-11.896
▁장단점	-11.896
▁골뱅이	-11.896
▁립밤	-11.896
▁환갑	-11.8961
▁있는걸	-11.8961
▁집콕	-11.8963
▁스파오	-11.8963
황	-11.8966
▁매너	-11.8967
몬	-11.8968
퇴	-11.8969
▁기억남	-11.897
▁됐대	-11.897
▁포트	-11.897
▁오옷	-11.8973
▁만난다고	-11.8974
▁먹을거면	-11.8975
▁준비물	-11.898
▁낸다고	-11.8982
▁불안하다	-11.8982
댓	-11.8984
▁하시는데	-11.8985
▁들어오지	-11.8987
▁이천원	-11.8988
▁로드	-11.8991
▁오늘밤	-11.8993
▁사귄	-11.8993
▁길러	-11.8993
▁들여	-11.8994
▁위안	-11.8995
▁맛있다는	-11.8996
▁당한	-11.8998
▁상관없지	-11.8998
▁없는거야	-11.8999
▁명랑	-11.9002
▁자게	-11.9003
▁돌아다니	-11.9004
▁이었지	-11.9005
▁확대	-11.901
▁궁금하다고	-11.9012
▁허네	-11.9013
▁돼야	-11.9018
▁뜯	-11.9021
▁설렌다	-11.9021
으니깐	-11.9022
▁여행지	-11.9025
▁날뻔	-11.9027
▁모리	-11.9027
▁인지도	-11.9029
줄까	-11.9032
▁청국장	-11.9033
▁왠만하면	-11.9033
▁체육	-11.9033
▁보라카이	-11.9033
▁남동생	-11.9033
▁드립니다	-11.9033
▁사직서	-11.9033
▁만들지	-11.9034
▁놓쳐서	-11.9034
▁마시라고	-11.9034
▁특이한	-11.9034
▁다녔는데	-11.9035
▁먹더라	-11.9035
▁살쪄서	-11.9035
▁챙길	-11.9035
▁도나	-11.9035
▁싸구려	-11.9035
▁경영	-11.9036
▁숨기	-11.9036
▁긴해	-11.9037
▁보여주니	-11.9039
▁팔더라	-11.904
▁월차	-11.9041
▁어캄	-11.9041
▁회화	-11.9042
▁나왔대	-11.9043
▁재밌는거	-11.9044
▁씻는	-11.9044
▁멘트	-11.9045
▁다녀야지	-11.9045
땨	-11.9045
▁수집	-11.9046
▁어이없다	-11.9047
▁만든다고	-11.9047
▁보내자	-11.905
▁크니까	-11.905
▁협	-11.9051
▁퍼스	-11.9052
▁않기	-11.9054
▁차야	-11.9054
▁받으	-11.9056
▁올라가면	-11.9056
▁전송	-11.9057
▁해본다고	-11.9057
▁없기	-11.9057
▁나가자	-11.9058
가기로	-11.906
▁들러	-11.9063
▁해줬다	-11.9066
▁사주기로	-11.9067
▁올라올	-11.9069
빨	-11.907
지는데	-11.9072
▁답답하다	-11.9073
▁얻	-11.9074
▁친다	-11.9076
▁쓰라	-11.9077
▁나이스	-11.9079
▁조선	-11.9079
▁쏴	-11.9082
▁온수	-11.9084
▁뽑으면	-11.9087
▁던져	-11.9089
▁만사	-11.909
▁아무렇지	-11.9099
▁소방	-11.91
▁모로	-11.9103
▁보신	-11.9104
▁1-2	-11.9104
흘	-11.9104
▁입는다	-11.9104
▁코바	-11.9105
▁범죄	-11.9105
▁애완동물	-11.9106
▁누군데	-11.9106
▁댑	-11.9106
▁증후군	-11.9106
▁쒸익	-11.9106
▁퓨저	-11.9106
▁머릿결	-11.9106
▁괜찮았어	-11.9107
▁쌈밥	-11.9107
▁날까	-11.9107
▁차이나	-11.9108
ᄏᄏᄏᄏᄏᄏᄏᄏ	-11.9109
▁듣다가	-11.9109
▁내려와서	-11.9109
▁키도	-11.911
▁싶었지만	-11.9111
▁모르면	-11.9111
▁담양	-11.9111
▁감사하다고	-11.9111
▁탈까	-11.9113
▁걸릴듯	-11.9113
▁장보고	-11.9115
▁키위	-11.9115
▁없어짐	-11.9115
▁엔딩	-11.9116
▁ᄏᄏᄀᄏᄏ	-11.9117
샤인	-11.9117
▁맛있긴	-11.9117
▁해보겠다고	-11.9118
▁움직이는	-11.9119
▁조심하고	-11.9121
▁춘해	-11.9121
▁지하철역	-11.9127
▁모으	-11.913
▁느린	-11.9131
▁바하	-11.9131
▁해야하고	-11.9139
▁있데	-11.9139
▁안뇽	-11.914
▁다한	-11.914
▁ᅮᅮᅮᅲ	-11.914
하거나	-11.9142
택	-11.9149
▁보여준다	-11.9153
▁들어간거	-11.9155
▁단가	-11.9155
▁장수	-11.9156
▁44	-11.916
▁128	-11.9165
▁쎈	-11.9166
▁삼천	-11.9166
▁느낄	-11.9167
▁~.~	-11.9168
▁업다	-11.9168
쳐	-11.9168
▁사귀고	-11.9169
▁해줬	-11.9171
▁그렇겠다	-11.9174
▁옮길	-11.9178
▁물려	-11.9178
▁카트라이더	-11.9179
▁휴게실	-11.9179
▁\	-11.918
▁액체	-11.918
▁기다릴게	-11.9181
▁외투	-11.9181
▁느리게	-11.9181
▁든든하게	-11.9181
▁ᄀᄃ	-11.9182
▁좁아서	-11.9182
▁찾아보라고	-11.9182
▁주고받는다	-11.9183
▁바지락	-11.9184
▁크루	-11.9186
▁정석	-11.9186
▁그래픽	-11.9187
▁점순	-11.9187
▁먹으래	-11.9188
▁세척	-11.9189
▁풀어서	-11.9191
▁금토일	-11.9194
▁아잌	-11.9194
▁수련	-11.9194
▁죽이	-11.9197
▁찾아야	-11.9203
▁아니라며	-11.9206
▁따지면	-11.9206
▁넣었다	-11.9207
▁괜찮아졌다	-11.9207
▁스럽	-11.9208
▁마산	-11.9213
▁작다	-11.9213
▁ᅳᄂ	-11.9214
▁짜증나게	-11.9215
▁맛남	-11.9216
▁허어	-11.9223
▁오길	-11.9229
▁줄거	-11.9234
▁게다	-11.9236
▁수거	-11.9242
▁쓰구	-11.9247
었는지	-11.9248
냠	-11.9249
▁좁	-11.9252
▁빌린	-11.9252
▁아니였어	-11.9253
▁제습기	-11.9253
▁찔끔	-11.9253
▁뜬금없이	-11.9253
▁돌잔치	-11.9253
▁하여튼	-11.9254
▁환영	-11.9255
▁빌려줘	-11.9255
▁맞았다	-11.9255
▁진정한	-11.9255
▁9900	-11.9256
▁자는게	-11.9256
▁으이구	-11.9256
▁남녀	-11.9257
▁재현	-11.9258
▁바꾸자	-11.9259
▁부업	-11.926
▁미미	-11.9261
고싶은데	-11.9261
▁있으니깐	-11.9261
▁미루	-11.9261
▁들어가도	-11.9262
▁바뿌	-11.9262
▁신라면	-11.9263
▁미정	-11.9265
▁복수	-11.9265
▁화사	-11.9265
▁눈디	-11.9266
▁갔대	-11.9268
▁궄	-11.9269
▁봤어요	-11.927
▁이러는	-11.9272
▁뻔했어	-11.9273
▁옮	-11.9276
▁확실	-11.9279
▁팔까	-11.9279
진거	-11.928
▁많을거	-11.9284
▁미안해요	-11.9291
▁생긴다	-11.9293
▁들어오	-11.9295
▁ᅲᅲᅲᅲᅲᅲᅲᅲᅲᅲᅲ	-11.9296
▁놀란다	-11.9296
▁전무	-11.9298
▁작은데	-11.9301
▁위기	-11.9302
능	-11.9302
▁바뀌는	-11.9304
▁자른	-11.9312
같	-11.9315
▁무사	-11.932
▁지우	-11.932
▁방가	-11.9322
▁유일하게	-11.9328
▁치즈스틱	-11.9328
▁집어	-11.9328
▁바람막이	-11.9329
▁사우나	-11.9329
▁닭다리	-11.9329
▁봤었는데	-11.933
▁깼는데	-11.933
▁자야겠다	-11.9331
▁발령	-11.9332
S	-11.9333
▁부피	-11.9333
▁논리	-11.9333
▁만으로도	-11.9334
▁입으려고	-11.9334
▁입덕	-11.9334
▁휴강	-11.9334
▁모르겟는데	-11.9335
▁쌔	-11.9336
▁물어봐야지	-11.9338
▁독자	-11.9338
▁칠리	-11.9339
▁언닝	-11.9339
▁조직	-11.9339
▁오픽	-11.9339
▁없군	-11.934
▁걸린대	-11.9342
▁할매	-11.9343
▁받나	-11.9344
▁맛있네	-11.9345
▁떨어졌다	-11.9345
▁죽어서	-11.9345
▁나오던데	-11.9346
▁만기	-11.9346
▁집의	-11.9346
▁빌려줄	-11.9347
▁오랫	-11.9347
▁마시는데	-11.9347
▁사주겠다고	-11.9348
▁없었고	-11.9349
▁멋있다고	-11.935
▁려면	-11.935
▁괜찮대	-11.9352
▁가져가야	-11.9354
▁불편하지	-11.9354
▁버티면	-11.9355
▁근무시간	-11.9356
▁성장	-11.9358
▁에구	-11.9362
있오	-11.9364
▁저가	-11.937
▁살던	-11.9373
▁삼마	-11.9373
▁가는길	-11.9377
▁일박	-11.9381
▁잇어요	-11.9382
▁우울한	-11.9385
▁나을까	-11.9389
▁했더라	-11.9391
였다	-11.9392
▁걸렸어	-11.9394
▁깜박	-11.9396
▁미다	-11.9401
▁버렸네	-11.9402
▁들어온다	-11.9403
▁박물관	-11.9403
▁헛소리	-11.9403
▁위아래	-11.9403
▁박보검	-11.9403
▁꼬북칩	-11.9404
▁싱크대	-11.9404
▁베이지색	-11.9405
'	-11.9405
▁따릉	-11.9405
▁신혼	-11.9405
▁굽는	-11.9405
▁부름	-11.9406
▁무급	-11.9409
▁어떠니	-11.941
▁여즘	-11.941
▁배움	-11.941
▁옵	-11.9411
▁아지	-11.9412
▁뽑는데	-11.9412
▁어울리	-11.9412
▁차마	-11.9413
▁아시아	-11.9414
▁였구나	-11.9415
▁명작	-11.9415
▁들었나	-11.9416
▁왔는지	-11.9416
▁곀	-11.9418
▁갈겨	-11.9418
▁몸매	-11.9419
▁없넹	-11.942
▁하고와	-11.9423
▁태어난	-11.9423
▁한국말	-11.9423
▁뿌염	-11.9425
▁욱	-11.9427
느니	-11.9427
▁동이	-11.9428
▁심야	-11.9428
▁빠졌다	-11.9431
▁시원하다	-11.9431
▁n	-11.9433
뼈	-11.9435
▁더더	-11.9435
▁짧고	-11.944
▁이거지	-11.9441
▁파네	-11.9442
▁후임	-11.9444
▁날려	-11.9446
▁버리네	-11.9447
▁H	-11.9447
▁리안	-11.9448
▁신인	-11.9449
▁더우면	-11.9449
▁뻔햇	-11.9449
뮤	-11.9449
▁넣는거	-11.9451
▁ᅡᅡ	-11.9451
▁흘려	-11.9453
▁만났을	-11.9454
▁껐다	-11.9455
▁도록	-11.9457
▁슨	-11.9458
▁딱이네	-11.9459
▁찾았	-11.9459
▁드가	-11.9466
▁3500	-11.9466
▁어색	-11.947
▁먹쟈	-11.9471
▁받을거	-11.9472
▁넵넵	-11.9472
▁경량	-11.9474
▁꼬박꼬박	-11.9479
▁현기증	-11.9479
▁𐌅𐌅𐌅𐌅𐌅	-11.9479
▁P	-11.9479
▁공모전	-11.9479
▁신한카드	-11.9479
▁인간관계	-11.9479
▁곰탕	-11.9479
▁부가세	-11.948
▁다쳐서	-11.948
▁ᄒᄒᄒᄒᄒᄒᄒᄒ	-11.9481
▁몰랐음	-11.9481
▁뒀는데	-11.9481
▁심즈	-11.9483
▁코앞	-11.9483
▁같진	-11.9483
▁이쯤	-11.9485
▁폐기	-11.9486
▁자용	-11.9488
▁대자	-11.9488
▁딱인데	-11.9489
▁년전	-11.9492
겠죠	-11.9493
▁1~2	-11.9494
▁좋아져서	-11.9495
▁놀아서	-11.9496
▁우려	-11.95
▁하였는데	-11.9501
▁키우면	-11.9502
▁금주	-11.9502
▁보고싶어서	-11.9505
▁마셨다	-11.9506
▁하시면	-11.9506
▁오긴	-11.9507
▁된다구	-11.9507
▁그립다	-11.951
▁오열	-11.9513
▁더러운	-11.9514
▁우한	-11.9514
있었는데	-11.9516
▁하던지	-11.9516
률	-11.9517
콩	-11.9517
하잖아	-11.9518
▁로운	-11.9518
▁잘가	-11.952
▁다친	-11.9521
▁남산	-11.9522
▁붓고	-11.9522
▁?????????	-11.9524
▁온건	-11.9527
▁살건데	-11.9532
▁함정	-11.9535
▁좋아하는지	-11.9538
▁하제	-11.954
▁땡기는	-11.954
▁이길래	-11.9541
▁오는게	-11.9542
▁급해	-11.9544
▁ᅡᄋ	-11.9546
▁수금	-11.9546
▁알것	-11.9546
▁가오	-11.9552
▁싶었다	-11.9552
▁놀랐어	-11.9553
▁오셔	-11.9553
▁읽으면	-11.9554
▁랜	-11.9554
▁별도	-11.9554
▁퉁	-11.9555
▁순두부찌개	-11.9555
▁오조오억	-11.9555
▁적성	-11.9556
▁페스	-11.9557
▁나쁘게	-11.9557
▁소변	-11.9558
▁ml	-11.9558
▁헠	-11.9559
▁졸리다고	-11.956
▁놀래서	-11.956
▁신곡	-11.956
▁먹어줘	-11.9561
▁시동	-11.9564
▁할것도	-11.9565
▁킬	-11.9565
▁사야겠어	-11.9567
▁물었는데	-11.9567
▁않겠다고	-11.9568
▁맹	-11.9569
▁모공	-11.957
▁없거든	-11.957
▁금전	-11.9571
▁현질	-11.9572
겟군	-11.9572
▁하구와	-11.9574
▁일어났다고	-11.9575
▁잘만	-11.9577
▁뻔했다고	-11.9577
▁녹아	-11.9579
▁정해져	-11.9579
▁소장	-11.9579
▁푸다	-11.958
▁이삼	-11.9582
▁낳	-11.9586
▁살듯	-11.9586
▁신나는	-11.9587
ᄊ	-11.959
▁이럴수가	-11.959
▁저녁때	-11.9593
▁개편	-11.9598
▁ᄏᄏᄏᄏᄏᄀ	-11.9601
▁주무	-11.9604
▁분다	-11.9609
▁여사	-11.9609
▁스노	-11.961
▁나기	-11.9612
▁킼	-11.9613
▁인감	-11.9616
▁풋	-11.9617
▁리자	-11.9617
▁나오긴	-11.9619
▁수선	-11.9623
▁과도	-11.9624
▁자냐	-11.9625
▁물질	-11.9626
▁봤거든	-11.9631
▁꽃다발	-11.9632
▁미숫가루	-11.9632
▁쉑쉑	-11.9632
▁파운데이션	-11.9632
▁환절기	-11.9632
▁닉네임	-11.9632
▁테이크아웃	-11.9632
▁신혼여행	-11.9632
▁신한은행	-11.9632
▁바쁘네	-11.9632
▁나왔을	-11.9632
▁쌍둥이	-11.9632
▁나머진	-11.9632
▁는대	-11.9632
▁헤어지	-11.9633
▁마포	-11.9633
▁숙주	-11.9634
▁괌	-11.9634
▁해볼께	-11.9634
▁터지는	-11.9634
▁시끄러워서	-11.9634
▁삽	-11.9635
▁실밥	-11.9636
▁중고차	-11.9637
▁딱이다	-11.9638
▁^-^	-11.9638
주는	-11.9638
ᄏᄏᄏᄏᄏᄏ	-11.964
▁상관없다고	-11.964
▁는데도	-11.9641
▁불쌍하다	-11.9642
▁만났어	-11.9644
▁막히	-11.9646
▁장터	-11.9651
▁에타	-11.9651
▁사왔어	-11.9657
▁..!!!	-11.9657
▁양은	-11.966
▁없는걸	-11.9661
▁빅스	-11.9667
▁할수있는	-11.9669
▁이율	-11.967
▁42	-11.9672
몇	-11.9674
찰	-11.9675
▁!!?	-11.9677
▁먹었음	-11.9677
▁해주라	-11.9678
▁됐을	-11.9682
▁뭐람	-11.9686
으나	-11.9687
▁했었나	-11.9687
▁망치	-11.9688
▁놀구	-11.969
▁안되더라	-11.9691
▁무인	-11.9692
야겠네	-11.9693
▁ᅳᅳᄏ	-11.9693
▁시집	-11.9694
천만	-11.9697
▁늘려	-11.9698
▁기아	-11.9699
벨	-11.97
▁싶은지	-11.9701
▁들어가는데	-11.9704
▁쿵	-11.9709
▁근로장려금	-11.971
▁스페셜	-11.971
▁지하상가	-11.971
▁삼각김밥	-11.971
▁오마이갓	-11.971
▁트러블	-11.971
▁텐션	-11.971
▁스탠드	-11.971
▁괴물	-11.971
▁바코드	-11.971
▁통째	-11.971
▁빕스	-11.971
▁절절	-11.9711
▁잔액	-11.9712
▁식혜	-11.9712
▁플립	-11.9712
▁즐겁게	-11.9712
▁동숲	-11.9713
▁짱짱	-11.9713
▁쳤는데	-11.9713
▁스트	-11.9714
▁체감	-11.9714
▁저렴하고	-11.9715
▁메이드	-11.9715
▁당해	-11.9716
▁어려서	-11.9719
▁붙을	-11.9723
▁였네	-11.9727
▁퀸	-11.9729
▁갚을	-11.9729
▁신기하고	-11.973
이얌	-11.9733
▁댔지	-11.9733
▁행복하다고	-11.9734
▁없엌	-11.9734
하려고	-11.9735
▁갠데	-11.9735
▁화성	-11.9737
▁안된데	-11.9737
▁하는데도	-11.9738
▁올린다	-11.974
▁옴마	-11.974
▁되요	-11.975
▁해놓	-11.9753
ᄅ	-11.9754
▁걸러	-11.9757
럴	-11.9758
▁메이	-11.9759
▁놀랐	-11.976
▁무스	-11.9761
▁어엌	-11.9762
▁구도	-11.9763
▁잃어	-11.9764
▁오르면	-11.9765
▁싫지	-11.9766
▁일주	-11.977
거랑	-11.9779
▁혈액	-11.9788
▁캐릭	-11.9788
▁업그레이드	-11.9788
▁펭귄	-11.9788
▁글쿠낭	-11.9788
▁변태	-11.9788
닌	-11.9788
▁물어본다고	-11.9789
▁운행	-11.979
▁페리	-11.979
▁헣	-11.9792
▁아까부터	-11.9793
▁내린	-11.9797
▁그랬대	-11.9798
▁묶어	-11.9799
▁가운	-11.9799
▁힘들듯	-11.9799
▁하면서도	-11.9802
▁햇더	-11.9802
▁오션	-11.9802
균	-11.9803
▁벙	-11.9803
▁..?!	-11.9803
▁권한다	-11.9803
거아니	-11.9804
▁들어가니까	-11.9804
▁잡자	-11.9806
▁붙는	-11.9806
간만	-11.9808
▁만들었다고	-11.9809
▁회로	-11.9814
렷	-11.9815
▁sk	-11.9817
라서	-11.9818
▁실천	-11.9819
▁금보	-11.9819
▁살꺼	-11.9822
▁둔다	-11.9826
푸	-11.9826
욱	-11.9827
▁고온	-11.9829
▁쉬고	-11.983
퐁	-11.983
▁하냐며	-11.9833
셨	-11.9833
▁면봉	-11.9834
▁돈나	-11.9835
▁ᄏᄀᄁ	-11.9836
▁번인	-11.9837
▁보내준다	-11.9839
▁하규	-11.9841
▁가세	-11.9841
▁싫어한다	-11.9843
▁물음	-11.9846
▁깅	-11.9852
▁갈만	-11.9858
▁사천	-11.9861
▁이탈리아	-11.9864
▁사보	-11.9864
▁됬	-11.9864
▁루미큐브	-11.9866
▁수세미	-11.9866
▁슬기로운	-11.9866
▁워터파크	-11.9866
▁호두과자	-11.9866
▁클래식	-11.9867
▁팬클럽	-11.9867
▁텔레비	-11.9867
▁치즈케이크	-11.9867
▁연남동	-11.9867
▁재촉	-11.9867
▁왁스	-11.9868
▁볼륨	-11.9868
▁연예	-11.9869
▁쉅	-11.9869
▁재밌네	-11.987
▁일욜날	-11.987
▁늦었어	-11.987
▁선약	-11.9871
▁되어있어서	-11.9872
▁이욜	-11.9873
▁수없이	-11.9874
▁잇던	-11.9875
▁불편하고	-11.9875
▁방기	-11.9876
▁않앗어	-11.9876
▁소통	-11.9876
▁논다고	-11.9877
▁만나게	-11.9877
▁웃긴데	-11.9877
▁현상	-11.9879
▁가볼게	-11.988
▁법인	-11.9881
▁버리자	-11.9882
몰	-11.9885
▁햇옹	-11.9886
▁기지	-11.9886
▁그럴거야	-11.9886
▁밀려	-11.9887
▁해볼래	-11.9887
▁쌓아	-11.9887
▁,,,,,,,,	-11.9889
▁82	-11.9889
▁뭐해	-11.9889
▁러시	-11.989
▁폰트	-11.9891
▁근까	-11.9891
▁어떡하냐	-11.9891
▁뜨는거	-11.9891
▁남부	-11.9892
▁맛있다며	-11.9892
▁맞출	-11.9893
▁00	-11.9894
▁열한	-11.9895
▁정자	-11.9898
▁하더라도	-11.9899
▁장려	-11.9901
▁까먹어	-11.9903
▁잘거야	-11.9904
▁사진관	-11.9905
▁찍는데	-11.9906
▁터질거	-11.9913
▁입니	-11.9914
▁치는거	-11.9915
▁거두	-11.9919
▁오더라	-11.9921
3	-11.9921
▁왕자	-11.9922
▁입는데	-11.9924
▁꾸리	-11.9925
▁행거	-11.9926
▁읽은	-11.9927
털	-11.9929
▁알려주지	-11.9934
▁힘드	-11.9934
▁필요하	-11.9938
▁좋잖아	-11.9939
▁지났는데	-11.994
ᄏᄏᄏᄏᄏᄏᄏᄏᄏᄏᄏᄏ	-11.9942
▁응가	-11.9943
▁챙기는	-11.9944
더라도	-11.9944
▁차원	-11.9944
▁저런건	-11.9945
▁바꿔도	-11.9945
▁꽈배기	-11.9946
▁흑임자	-11.9946
▁셜록	-11.9946
▁식도염	-11.9946
▁포샵	-11.9946
▁헙	-11.9946
▁스위스	-11.9946
▁대학병원	-11.9946
▁누굴	-11.9946
▁특별히	-11.9946
▁러버	-11.9947
▁그러겡	-11.9947
▁멍충	-11.9949
▁돌아가면서	-11.995
▁질병	-11.995
▁질려서	-11.995
▁쓰네	-11.9951
▁합리	-11.9952
▁많긴	-11.9952
▁광어	-11.9953
▁우대	-11.9954
▁대변	-11.9955
▁담주는	-11.9956
▁상점	-11.9957
▁꼬셔	-11.9957
▁공통	-11.9957
▁빠졌어	-11.9958
▁피해자	-11.9959
지말라고	-11.9959
▁입안	-11.9961
▁빡친다	-11.9961
▁장르	-11.9961
겈	-11.9963
▁빠진다고	-11.9963
▁츄르	-11.9964
▁큰집	-11.9966
▁있을것	-11.9967
▁하세여	-11.9967
▁무안	-11.997
▁불리	-11.9971
▁길가	-11.9973
▁이긴해	-11.9973
▁찾는데	-11.9975
▁똑같네	-11.9975
▁싸니까	-11.9976
▁f	-11.9978
아니고	-11.9978
▁제때	-11.9982
▁쥴	-11.9982
▁뽑아야	-11.9983
▁이쁘더라	-11.9984
▁비타	-11.9984
▁사려는데	-11.9985
▁해주기	-11.9989
▁재방	-11.9991
거여	-11.9993
▁하겟	-11.9994
▁슬프다고	-11.9996
▁지나가	-11.9998
▁먹었다는	-12
▁가져오	-12.0002
래요	-12.0003
▁일어나지	-12.0004
▁사는건	-12.0005
야겠어	-12.0005
▁길면	-12.0006
할듯	-12.0006
▁삼다	-12.0008
▁배고프지	-12.0008
▁바쁘지	-12.001
테니	-12.0014
하라	-12.0017
▁마싯어	-12.0017
▁캡	-12.0019
금치	-12.0023
▁않았냐	-12.0025
▁샐	-12.0025
▁대우	-12.0026
▁죄책감	-12.0026
▁트라우마	-12.0026
▁사촌동생	-12.0026
▁숏컷	-12.0026
▁아구찜	-12.0026
▁챙김	-12.0026
▁맞춤법	-12.0026
▁교통카드	-12.0026
▁아닙니까	-12.0026
▁바쁨	-12.0026
▁손흥민	-12.0026
▁에스엠	-12.0026
▁그러겠지	-12.0027
▁케텍스	-12.0027
▁흡연	-12.0027
▁그러쿤	-12.0028
▁갯	-12.0029
▁루머	-12.0029
▁난다며	-12.0029
▁돋아	-12.003
▁먹었으면	-12.0031
거처럼	-12.0031
▁왜용	-12.0031
▁먹는다는	-12.0032
익	-12.0032
▁알면서	-12.0033
버렷	-12.0034
▁찾지	-12.0034
▁루트	-12.0035
▁보여주면	-12.0035
▁텍	-12.0037
▁유니	-12.0039
처럼	-12.0039
▁롸	-12.0039
▁’	-12.004
▁티슈	-12.0041
▁엎	-12.0041
▁똑같다고	-12.0041
▁둬서	-12.0041
▁되겟	-12.0042
▁알뜰	-12.0042
▁잇길래	-12.0043
▁아프게	-12.0045
▁없어진	-12.0045
겠구나	-12.0046
▁후문	-12.005
▁나왕	-12.005
▁받앗어	-12.0053
▁아프지만	-12.0058
▁기미	-12.006
▁애견	-12.0061
▁볼걸	-12.0063
▁달에	-12.0065
거려	-12.0066
▁잇긴	-12.0067
▁모던	-12.007
▁붙일	-12.0071
▁시선	-12.0075
▁ᄋᄋᄋᄋᄋᄋ	-12.0075
ᄏᄏᄏᄏᄏᄏᄏ	-12.0077
▁시라	-12.008
▁들렸다	-12.0083
▁ᅲᅮᅲ	-12.0084
굴	-12.0085
▁전도	-12.0092
▁ᄄ	-12.0096
▁그릭	-12.0099
▁였는지	-12.01
▁살다가	-12.01
▁보내라	-12.0101
자고	-12.0103
▁동그라미	-12.0106
▁듬뿍	-12.0106
▁버스정류장	-12.0106
▁커피한잔	-12.0106
▁귀요미	-12.0106
▁청포도	-12.0107
▁아가씨	-12.0107
▁브루	-12.0108
▁쌩얼	-12.0108
▁갯수	-12.0108
▁입을거	-12.0109
▁스러	-12.0109
▁25000	-12.0109
▁새삼	-12.011
▁카키	-12.0111
▁보려구	-12.0111
▁바꾸라고	-12.0111
▁농사	-12.0112
▁워킹	-12.0112
▁레터	-12.0112
▁라이더	-12.0113
▁보호자	-12.0114
▁몰랏어	-12.0115
▁농구	-12.0116
▁문과	-12.0116
▁똑같지	-12.0117
▁쨋	-12.0117
▁달라해	-12.0118
▁안좋은데	-12.0119
▁달래서	-12.012
▁포즈	-12.0121
▁본점	-12.0122
▁고향	-12.0122
▁자면서	-12.0123
▁좋아용	-12.013
▁자석	-12.0131
▁챙겨와	-12.0134
▁드실	-12.0134
1	-12.0135
▁아냐고	-12.0136
▁오랜만	-12.0138
▁사줘서	-12.0139
▁싶긴	-12.0139
▁금리	-12.014
▁소만	-12.0142
▁전형	-12.0143
▁놔도	-12.0143
▁`	-12.0143
▁과대	-12.0143
란다	-12.0144
▁전신	-12.0145
▁밀린	-12.0146
▁나안	-12.015
▁뭉	-12.015
▁끊기	-12.015
▁모의	-12.0152
▁괜찮게	-12.0152
▁쉬어도	-12.0154
▁보고있는데	-12.0154
▁옮기	-12.0155
야게	-12.016
거아니냐	-12.016
▁쥐어	-12.0161
▁달라구	-12.0161
▁내는거	-12.0173
▁야기	-12.0173
▁하고나서	-12.0177
▁시나	-12.0177
띠	-12.0178
탱	-12.0179
T	-12.018
▁어요	-12.018
▁심각해	-12.0181
합니다	-12.0185
▁슬프네	-12.0185
▁가거나	-12.0187
▁아쿠아	-12.0188
▁메신저	-12.0188
▁츄리닝	-12.0188
▁길고양이	-12.0188
▁임플란트	-12.0188
▁오구오구	-12.0188
▁상여금	-12.0188
▁가져옴	-12.0188
▁깡패	-12.0188
▁비공개	-12.0188
된	-12.0188
▁무지개	-12.0188
▁갈아타	-12.0189
▁티웨이	-12.0189
▁생존	-12.0189
▁쫄보	-12.0189
▁자르러	-12.0189
▁요플레	-12.0189
▁몰랐지	-12.019
것두	-12.019
▁심각하게	-12.019
▁이러길래	-12.019
▁신호등	-12.019
▁공룡	-12.019
▁받으니까	-12.019
▁신축	-12.0191
▁증명	-12.0191
▁잇겟지	-12.0193
▁알려주었다	-12.0193
▁나들이	-12.0193
▁묻지만	-12.0194
패	-12.0194
▁장거리	-12.0195
▁파토	-12.0196
▁채워서	-12.0196
▁매점	-12.0197
▁유일한	-12.0198
▁떨어진다	-12.0199
▁야행	-12.0199
▁ᄏᄀᄀᄀ	-12.02
▁어허	-12.02
가도	-12.0201
▁평화	-12.0202
▁대학로	-12.0202
▁이상하지	-12.0203
▁시킨다고	-12.0205
▁비디오	-12.0207
▁괜찮았다	-12.0207
▁대처	-12.0208
▁두산	-12.0209
▁야하는디	-12.0209
▁느꼈다	-12.0211
▁클리	-12.0213
▁모은	-12.0215
▁아숩	-12.0218
▁다녀오면	-12.0218
▁반미	-12.0221
▁같은데요	-12.0222
▁좋겠고	-12.0223
션	-12.0224
▁부사	-12.0224
▁싶어요	-12.0224
▁차리고	-12.0225
▁놀란	-12.0225
▁바비	-12.0225
▁있는줄	-12.0228
▁보겠	-12.0228
▁적혀	-12.0228
▁얇아	-12.0228
▁바루	-12.023
▁각인	-12.0232
▁짜르	-12.0232
▁성당	-12.0233
▁쭉쭉	-12.0233
뜨	-12.0239
▁일과	-12.0242
▁사냐	-12.0243
▁찍자	-12.0243
▁막장	-12.0243
▁ᄏᄏᄀᄀ	-12.0244
▁관리자	-12.0245
▁도와주고	-12.0245
▁시켜도	-12.0246
▁너무하다	-12.0247
▁많았	-12.0247
▁터지고	-12.0251
▁지켜	-12.0255
▁가야겠네	-12.0257
▁두루	-12.0259
▁중성	-12.0259
▁됴	-12.0259
▁그리는	-12.026
▁억울해	-12.0262
▁재미있을	-12.0263
지가	-12.0264
▁1200	-12.0267
▁빠르면	-12.0268
▁돌아가고	-12.0268
▁겸사겸사	-12.027
▁마그네슘	-12.027
▁말레이시아	-12.027
▁스쿠터	-12.027
▁이니스프리	-12.027
▁호로록	-12.027
▁인천공항	-12.027
▁랜선	-12.027
▁남양주	-12.027
▁섭웨	-12.0271
▁올라왔는데	-12.0271
▁변명	-12.0271
▁때리는	-12.0271
▁메론	-12.0272
▁된게	-12.0272
▁우짜노	-12.0272
▁고무	-12.0273
▁계약금	-12.0274
▁똥꼬	-12.0274
▁린스	-12.0275
▁궁합	-12.0275
▁롭고	-12.0275
▁로더	-12.0275
▁들리고	-12.0275
▁커피빈	-12.0275
▁쳤어	-12.0276
▁남성	-12.0276
▁대머리	-12.0276
▁숏	-12.0278
▁했다는데	-12.0278
▁늦음	-12.0278
▁얇은거	-12.0279
▁홍차	-12.0279
▁걸리나	-12.028
▁신체	-12.028
▁참으면	-12.028
▁화난다	-12.028
▁맞추	-12.0281
▁몬데	-12.0284
▁뻔했	-12.0284
▁리코	-12.0285
▁사례	-12.0286
▁앉으면	-12.0287
니가	-12.0287
▁해야하	-12.0288
테니까	-12.029
▁먹구와	-12.029
▁옮기는	-12.0295
▁청소년	-12.0295
▁마비	-12.0297
▁따져	-12.0298
▁찹	-12.0299
▁그랬던거	-12.0301
▁수저	-12.0306
▁쓸어	-12.0306
▁있겠어	-12.0307
▁주셔서	-12.0312
▁좋겟어	-12.0313
▁맛있겠네	-12.0315
▁도마	-12.0316
▁일어난다	-12.0319
▁돌릴	-12.032
▁개선	-12.032
검	-12.032
▁치를	-12.0326
▁사려구	-12.033
▁알겟다	-12.0332
▁따뜻해	-12.0334
▁이쁠	-12.0339
핸	-12.034
▁미러	-12.0343
▁서브	-12.0345
▁뛰는	-12.0346
▁청량리	-12.0352
▁린넨	-12.0353
▁윈도우	-12.0353
▁재수강	-12.0353
▁베베	-12.0353
▁쓸데없이	-12.0353
▁목숨	-12.0353
▁주는게	-12.0353
▁채움	-12.0353
▁종목	-12.0354
▁나쁘다	-12.0354
▁심해져서	-12.0355
▁동백	-12.0355
▁기차표	-12.0355
▁보틀	-12.0357
▁춥네	-12.0357
▁폭주	-12.0357
r	-12.0357
▁따뜻하고	-12.0358
▁아마존	-12.0358
▁죽지	-12.036
▁일찍이	-12.0361
▁뿌려서	-12.0361
▁빡치네	-12.0362
▁결혼식장	-12.0362
더라고	-12.0362
▁또르르	-12.0363
▁매미	-12.0363
▁이상함	-12.0364
▁갔니	-12.0367
▁예쁠	-12.0367
▁샹	-12.0367
▁가능하지	-12.0369
▁경리	-12.037
▁많다는	-12.0373
▁자느라	-12.0375
▁돔	-12.0376
▁도중	-12.0376
▁노는거	-12.0378
▁오는거야	-12.0382
▁본대	-12.0382
▁서핑	-12.0383
▁개수	-12.0387
▁세서	-12.0388
▁했다면서	-12.0388
졌는데	-12.0389
▁여운	-12.0389
▁구간	-12.0393
▁재미있어	-12.0394
▁하겠는데	-12.0394
▁보험사	-12.0395
▁유명해	-12.0395
▁들어야지	-12.0396
싶은데	-12.0397
▁말임	-12.0405
나봐	-12.0406
▁들렀다	-12.0409
▁젊	-12.041
▁붙고	-12.041
▁욕구	-12.0414
▁인거야	-12.0415
▁내려가면	-12.0415
지네	-12.0417
▁ᄏᄒᄏᄒ	-12.0419
▁들었던	-12.042
휘	-12.0425
▁만치	-12.0426
▁고르면	-12.0426
▁어떠냐	-12.0426
▁불편할	-12.0429
▁웃겼다	-12.0429
▁둘리	-12.043
▁읎	-12.0431
▁청정	-12.0432
▁홍시	-12.0432
▁방울토마토	-12.0436
▁컨텐츠	-12.0436
▁트와이스	-12.0436
▁양상추	-12.0436
▁콘셉	-12.0436
▁돼지갈비	-12.0436
▁초코우유	-12.0436
▁드릴게요	-12.0436
▁서유기	-12.0436
▁자유롭게	-12.0436
▁효녀	-12.0436
▁기묘한	-12.0436
▁일거야	-12.0437
▁잡았는데	-12.0437
▁색칠	-12.0438
▁작곡	-12.0438
▁꼭꼭	-12.0438
▁맑은	-12.0438
▁볼게요	-12.0439
므	-12.044
▁발열	-12.044
▁영웅	-12.044
▁의무	-12.0441
▁늦는다고	-12.0441
릿	-12.0441
▁머핀	-12.0441
▁계셔서	-12.0442
룡	-12.0442
▁심하지	-12.0442
우면	-12.0443
▁잇을듯	-12.0443
▁바이오	-12.0444
▁상체	-12.0444
▁차사	-12.0445
시대	-12.0447
▁다르니까	-12.0448
▁뒤쪽	-12.045
▁그래사	-12.0451
▁ᄏᄏᄏᄏᄀᄏ	-12.0451
▁메르	-12.0451
▁갈려	-12.0453
▁대야	-12.0453
▁원해	-12.0454
▁비지	-12.0454
▁멈춰	-12.0455
▁넘을	-12.0456
▁스쿨	-12.0457
▁지나갈	-12.0458
▁노을	-12.0461
▁셩	-12.0464
▁물어봤지	-12.0465
▁자의	-12.0465
▁시체	-12.0465
▁시흥	-12.0468
▁...;;	-12.0469
▁임원	-12.0469
▁삼전	-12.0473
▁집단	-12.0474
▁맛있겠다고	-12.0475
▁엄청나	-12.0477
▁즐기고	-12.0481
▁드시	-12.0482
왘	-12.0484
▁하락	-12.049
▁se	-12.0491
▁양성	-12.0491
▁나은데	-12.0492
▁씻기	-12.0493
▁렴	-12.0496
-	-12.0496
▁350	-12.0497
▁소진	-12.0497
▁믿지	-12.05
▁안치	-12.0504
시러	-12.0504
▁하던거	-12.0505
▁살거면	-12.0509
▁ᅲᄏᄏ	-12.0509
▁벗어	-12.0513
▁봣다	-12.0516
▁아쥬	-12.0517
▁불구	-12.0518
▁묶음	-12.052
▁장조림	-12.052
▁재채기	-12.052
볕	-12.052
▁라운지	-12.052
▁룸메이트	-12.052
▁ᅭᅥ	-12.052
▁스냅	-12.052
▁그럴게	-12.052
▁경상도	-12.052
▁놓치면	-12.052
▁기다렸는데	-12.0521
▁스무디	-12.0522
▁안드	-12.0522
▁단풍	-12.0523
▁6000	-12.0524
▁붉은	-12.0525
▁낸거	-12.0529
▁화나서	-12.0529
▁품질	-12.053
▁고소	-12.053
▁좋겠지만	-12.0531
▁공공	-12.0532
▁치실	-12.0532
▁오백원	-12.0532
이래	-12.0532
▁통제	-12.0533
겠어요	-12.0535
▁무상	-12.0537
▁시드	-12.0537
▁으이	-12.0539
▁애쉬	-12.0539
▁오슈	-12.0545
▁사먹을	-12.0545
▁먹을건데	-12.055
땜	-12.0552
▁즐기	-12.0552
▁갖고싶어	-12.0553
▁걸린거	-12.0554
▁야할까	-12.0554
▁울었어	-12.0557
▁이의	-12.0558
▁쪘다	-12.0558
줌	-12.056
▁타일	-12.0563
▁하기를	-12.0566
▁잡았어	-12.0568
▁친절	-12.0569
▁잇어도	-12.0573
▁되면서	-12.0573
▁조용	-12.0576
▁수명	-12.0576
▁고픈거	-12.0578
▁안타까워	-12.0582
▁볼듯	-12.0583
것지	-12.0583
▁쉬는게	-12.0586
▁따면	-12.0586
고싶	-12.0587
▁참가	-12.0589
▁둡	-12.059
덴	-12.0591
▁찍어줘	-12.0592
▁어울릴거	-12.0594
▁맛있는지	-12.0594
소리	-12.0595
▁팔려	-12.0597
▁뛸	-12.0603
▁중동	-12.0604
▁경복궁	-12.0604
▁녓	-12.0604
▁퀵	-12.0604
▁밀푀유	-12.0604
▁에그타르트	-12.0604
▁연금복권	-12.0604
▁양념치킨	-12.0605
▁텃세	-12.0605
▁사기꾼	-12.0605
▁드럽게	-12.0605
▁된장국	-12.0605
▁캐스팅	-12.0606
▁글쓰기	-12.0607
▁술자리	-12.0607
▁모르겟지만	-12.0607
▁ᄌᄉ	-12.0607
▁전화할게	-12.0607
▁개존맛	-12.0608
▁쌈장	-12.0608
▁헥	-12.0609
▁동태	-12.0609
)	-12.0609
▁올수	-12.0611
▁광대	-12.0612
▁바꿨어	-12.0613
▁차돌	-12.0613
▁스물	-12.0614
▁있다구	-12.0614
▁치러	-12.0615
▁시렁	-12.0615
▁괜차나	-12.0615
▁수동	-12.0615
▁놀게	-12.0616
▁사이비	-12.0616
▁끝난다고	-12.0617
▁로제	-12.0618
틀	-12.062
▁동화	-12.062
▁라오	-12.062
▁복잡해	-12.0622
가면서	-12.0623
컷	-12.0623
▁않을까요	-12.0623
칼	-12.0626
▁구슬	-12.0628
▁되는구나	-12.0628
▁그런다고	-12.0629
▁목동	-12.0632
▁더비	-12.0633
▁유부	-12.0636
▁반점	-12.0637
▁죄송	-12.0637
▁는거야	-12.0638
▁통통	-12.0641
▁허르	-12.0641
▁하지마라	-12.0642
▁읽기	-12.0646
▁찍어도	-12.0649
▁써야해	-12.0651
▁바꾸기	-12.0651
느냐	-12.0652
▁먹어여	-12.0654
계약	-12.0654
▁두께	-12.0655
▁물어봐야겠다	-12.0655
▁모을	-12.0656
즈음	-12.0659
▁면도	-12.0659
▁자재	-12.066
였나	-12.066
▁아니냐며	-12.0661
▁배우면	-12.0668
▁사네	-12.067
▁105	-12.0673
▁굴러	-12.0674
▁장해	-12.0675
▁~~~!!	-12.0675
▁않앗	-12.0678
▁~~!!!	-12.0679
▁출근시간	-12.0679
▁물어봐도	-12.068
▁>.<	-12.0682
▁그럴껄	-12.0682
▁맞는다	-12.0684
데가	-12.0685
▁뮤슨	-12.0686
▁도와줘	-12.0686
지지	-12.0686
▁죽는다	-12.0688
▁고춧가루	-12.069
▁오므라이스	-12.069
▁이래저래	-12.069
▁상견례	-12.069
▁숯불	-12.069
▁잠이안와	-12.069
▁잘생김	-12.0691
▁을지로	-12.0691
▁끝날거	-12.0691
▁세무사	-12.0691
▁궁금하네	-12.0691
▁그만두	-12.0692
▁따뜻해서	-12.0693
▁코팅	-12.0693
▁채점	-12.0693
▁병행	-12.0694
허	-12.0695
▁마법	-12.0695
▁떠나서	-12.0698
▁안무	-12.07
▁양반	-12.07
▁괜찮을거야	-12.07
닛	-12.0702
▁심한데	-12.0703
▁누워있	-12.0704
▁따는	-12.0704
▁그러더니	-12.0704
▁어렵게	-12.0705
▁갔다오면	-12.0705
▁소감	-12.0706
▁어울리지	-12.0707
▁샀오	-12.0707
▁고이	-12.0707
▁비서	-12.0707
▁피트	-12.0708
▁소모	-12.0708
▁가써	-12.0709
▁산건데	-12.0709
▁ᄐᄏᄏᄏᄏᄏᄏ	-12.0712
▁빠르고	-12.0712
▁없더	-12.0713
▁깨면	-12.0714
▁먹느라	-12.0717
▁만났	-12.0718
쟁	-12.0721
▁아산	-12.0725
▁가젤	-12.0727
▁물었다	-12.0727
▁눈감고	-12.0727
▁싫을	-12.0728
▁편한거	-12.0728
걱	-12.0728
유로	-12.0731
▁터지	-12.0735
▁마러	-12.0735
▁먹었다며	-12.0736
▁감안	-12.0736
▁할리	-12.0737
▁모르겠어서	-12.0738
▁없데	-12.0738
▁영도	-12.0739
▁스토	-12.0741
▁샀으면	-12.0743
▁난또	-12.0745
▁맡고	-12.0748
▁치자	-12.0748
줭	-12.0749
때매	-12.0751
▁돈좀	-12.0753
▁올렸다	-12.0757
▁코어	-12.076
▁봤는지	-12.0761
▁O	-12.0761
▁머임	-12.0762
려다가	-12.0763
을거야	-12.077
▁원단	-12.0772
▁그랬던	-12.0774
▁갤러리	-12.0775
▁있겠	-12.0775
▁비슷하지	-12.0775
▁트렌	-12.0776
▁않구	-12.0776
▁kf	-12.0776
▁CGV	-12.0776
▁바사삭	-12.0776
▁팡팡	-12.0776
▁소소하게	-12.0777
▁혹쉬	-12.0777
▁솔직하게	-12.0777
▁체육관	-12.0777
▁2018	-12.0777
▁혈관	-12.0777
▁면허증	-12.0777
르르	-12.078
▁출동	-12.078
▁세대주	-12.0781
▁다니까	-12.0781
▁들어가는거	-12.0781
▁팔았다	-12.0782
▁회피	-12.0782
▁인중	-12.0782
▁8000	-12.0783
▁보여주면서	-12.0783
▁일치	-12.0783
▁게살	-12.0783
▁딱이야	-12.0784
▁술술	-12.0785
▁나올까	-12.0785
▁와이드	-12.0787
▁부르다	-12.0787
▁앉	-12.0788
놓으면	-12.079
▁예금	-12.0792
▁울어서	-12.0793
▁없어지고	-12.0793
▁좋죠	-12.0794
▁짧	-12.0794
▁할미	-12.0795
▁폐쇄	-12.0795
▁점프	-12.0796
▁나은듯	-12.0796
▁봤는	-12.0797
▁나더라	-12.0799
▁하지말라고	-12.0802
▁쩔지	-12.0804
▁쩡	-12.0804
▁파파	-12.0804
▁갚아	-12.0806
▁두근	-12.0809
▁해제	-12.081
▁토로	-12.0811
▁깔면	-12.0813
▁애용	-12.0813
▁ᄏᄀᄏᄏ	-12.0813
▁보군	-12.0815
▁비싸면	-12.0819
▁악기	-12.0824
이라고	-12.0824
▁만든다	-12.0826
▁아까운	-12.0827
▁구러	-12.0827
▁사냐고	-12.0827
▁냈	-12.0827
▁릉	-12.0829
▁나잇	-12.083
▁가져간	-12.083
▁내사	-12.0832
▁앉는	-12.0833
윤	-12.0834
▁고리	-12.0836
▁토리	-12.0836
▁은행가	-12.0837
▁어댜	-12.0841
▁가넝	-12.0844
▁넣지	-12.0844
▁빌어	-12.0845
▁왔던	-12.0845
▁한다던데	-12.0847
▁쪼매	-12.0848
▁주는거야	-12.0852
▁아동	-12.086
▁맬	-12.0861
겟는데	-12.0861
▁막힌	-12.0861
▁누워있다	-12.0862
▁패밀리	-12.0863
▁간신히	-12.0863
▁프랜차이즈	-12.0863
▁부직포	-12.0863
▁뚜벅	-12.0863
▁압축	-12.0863
▁변호사	-12.0863
▁플랜	-12.0863
▁논술	-12.0864
▁접종	-12.0864
▁ᄀᄉᄀᄉ	-12.0864
▁투룸	-12.0864
▁녹화	-12.0865
▁먹어두	-12.0865
▁끝난다	-12.0865
▁경계	-12.0866
▁맞았는데	-12.0866
▁모르겟음	-12.0867
▁바뀌면	-12.0867
▁통합	-12.0867
▁쓰니	-12.0868
▁또륵	-12.0869
▁개야	-12.0869
▁비슷하	-12.0869
▁닮았어	-12.087
▁그렇죠	-12.087
▁그루	-12.087
▁최소한	-12.0871
▁부재	-12.0872
▁그러는거야	-12.0872
▁알리오	-12.0873
▁끼고	-12.0873
▁갔냐	-12.0873
▁사러가	-12.0873
▁틀어서	-12.0873
▁높고	-12.0878
▁있었지만	-12.0878
▁보풀	-12.088
▁안갓	-12.0881
▁리버	-12.0882
▁갈아서	-12.0883
▁무서	-12.0884
▁났을	-12.0886
▁생각난	-12.0886
▁나왓는데	-12.089
▁일본인	-12.0894
▁미워	-12.0895
▁엠알	-12.0895
▁넘음	-12.0896
▁잇겟	-12.0898
▁구거	-12.0899
▁밥맛	-12.0899
▁먹는다며	-12.09
▁66	-12.0903
▁이뿌지	-12.0905
▁어려운거	-12.0905
▁아쉬운	-12.0905
콤	-12.0905
▁깰	-12.0908
▁해줄께	-12.0909
▁나서는	-12.091
▁건성	-12.0911
▁깨끗해	-12.0912
▁동사	-12.0914
▁즐기는	-12.0917
▁먼일	-12.0919
▁이과	-12.0921
▁풍기	-12.0921
▁했구	-12.0921
▁진해	-12.0922
▁보는거지	-12.0926
▁내꺼도	-12.093
▁넛	-12.0933
▁웃긴거	-12.0938
겠노	-12.0939
▁높다	-12.0944
▁띄어	-12.0944
▁시안	-12.0945
▁챙겨가	-12.0945
▁표지	-12.0947
▁에든	-12.0948
▁이대	-12.0948
▁•••	-12.0951
▁계란후라이	-12.0951
▁아리따움	-12.0951
▁필리핀	-12.0951
▁수분크림	-12.0951
▁디즈니랜드	-12.0951
▁맙소사	-12.0951
▁예고편	-12.0951
▁스킨푸드	-12.0951
▁액션	-12.0951
▁기념품	-12.0952
▁진쨔	-12.0952
▁수시로	-12.0952
▁늙어	-12.0952
▁평범한	-12.0953
▁잇으니	-12.0953
▁몰카	-12.0954
▁렙	-12.0954
▁그럼요	-12.0955
▁호가	-12.0955
▁챙기라고	-12.0955
▁당긴다	-12.0956
▁어떻냐고	-12.0956
▁점퍼	-12.0957
▁존중	-12.0957
▁될까봐	-12.0957
▁시키라고	-12.0957
▁끊으면	-12.0958
아니냐	-12.096
▁원샷	-12.096
▁지게	-12.096
▁아팠어	-12.0962
▁받을까	-12.0962
▁약해	-12.0963
▁먹을꺼야	-12.0964
▁있겠네	-12.0965
▁회전	-12.0965
▁확장	-12.0968
▁지나야	-12.097
일러	-12.0971
▁고프다고	-12.0972
▁오심	-12.0973
젤	-12.0973
▁먀	-12.0975
▁괜찮니	-12.0975
▁해봐요	-12.0976
▁우드	-12.098
▁하겠음	-12.098
▁없노	-12.0982
▁메디	-12.0983
봥	-12.0985
▁쓰는건	-12.0987
▁수료	-12.0989
▁맞추는	-12.0993
▁해야하니까	-12.0997
▁라우	-12.1
▁붙잡고	-12.1002
▁다리는	-12.1003
했음	-12.1006
▁먹겠	-12.101
▁움직일	-12.1013
▁마디	-12.1014
▁타인	-12.1015
▁4500	-12.1015
▁답안	-12.1017
▁들구	-12.1034
▁바뻐	-12.1039
▁겨울왕국	-12.1039
▁닭꼬치	-12.1039
▁시외버스	-12.1039
▁벨벳	-12.1039
▁엘에이	-12.1039
▁테슬라	-12.1039
▁학자금	-12.1039
▁기업은행	-12.1039
▁캐롤	-12.104
▁그러려니	-12.104
▁양고기	-12.1041
▁메모장	-12.1041
▁ᄀᄀᄏ	-12.1042
▁케케	-12.1043
▁채식	-12.1043
▁아이콘	-12.1043
▁외로워	-12.1043
▁청담	-12.1044
▁멋대로	-12.1044
▁징그러	-12.1045
▁잘랐는데	-12.1046
▁자율	-12.1046
▁관상	-12.1046
▁안약	-12.1047
▁공대	-12.1051
▁하기에	-12.1051
▁무겁고	-12.1052
▁제왕	-12.1052
▁위쪽	-12.1058
▁내렸어	-12.1058
▁피임	-12.1059
▁우울하다	-12.1059
▁서여	-12.106
▁어떄	-12.106
▁멀고	-12.1062
▁신화	-12.1063
라니	-12.1066
▁잇는디	-12.1067
▁리드	-12.1067
▁시퍼	-12.1068
▁규모	-12.1068
▁쨔	-12.1071
▁그러냐고	-12.1072
▁씬	-12.1073
▁있죠	-12.1074
▁창가	-12.1078
▁막고	-12.1083
▁시식	-12.1085
▁규어	-12.1085
▁대접	-12.1087
▁했어도	-12.1088
▁아끼고	-12.1092
▁밝	-12.1092
줘야지	-12.1092
▁56	-12.1095
▁왜또	-12.1099
▁좀해	-12.1101
▁바라는	-12.1103
▁밥상	-12.1109
게요	-12.1109
▁비오고	-12.1113
▁85	-12.1113
▁뜬거	-12.1113
▁내가	-12.1114
▁달콤	-12.1115
▁내도	-12.1116
싶어	-12.1121
▁빌릴	-12.1123
▁씻으면	-12.1123
▁재밌더라	-12.1124
▁나올지	-12.1127
▁시전	-12.1127
▁깍두기	-12.1129
▁다람쥐	-12.1129
▁단단히	-12.1129
▁얼그레이	-12.1129
▁뺨	-12.1129
▁사모님	-12.1129
▁종이컵	-12.1129
▁국민카드	-12.1129
▁팝업	-12.1129
▁닮음	-12.1129
▁아팠는데	-12.113
▁글씨체	-12.113
▁저렴해서	-12.113
▁찬양	-12.113
▁광장	-12.1131
졌고	-12.1131
▁극복	-12.1131
▁연결해서	-12.1132
▁남앗어	-12.1132
▁확실한	-12.1132
▁봤는디	-12.1133
▁가로수	-12.1134
▁풀릴	-12.1134
▁탈때	-12.1135
▁중지	-12.1135
▁기다리면서	-12.1135
▁뷴	-12.1136
기전에	-12.1136
▁공급	-12.1136
▁강하게	-12.1137
▁취소표	-12.1137
▁버렸는데	-12.1138
▁귀찮지만	-12.1139
▁불매	-12.114
묜	-12.114
▁번지	-12.114
▁추진	-12.114
눙	-12.1143
▁보강	-12.1144
▁코치	-12.1147
▁미안하고	-12.1148
▁보내줘서	-12.1149
▁해주려고	-12.1149
▁심하고	-12.1151
▁대천	-12.1152
다시	-12.1153
▁걸렸다고	-12.1155
▁참는다	-12.1157
▁멀쩡한	-12.1157
세여	-12.1158
ᄏᄏᄏᄏᄏᄏᄏᄏᄏᄏᄏ	-12.1159
▁해주네	-12.1162
▁비즈	-12.1162
▁쓰러	-12.1162
▁났고	-12.1163
▁쓰는지	-12.1164
▁신의	-12.1164
월동	-12.1164
▁그만두는	-12.1165
▁이세	-12.1165
▁주겠다	-12.1165
▁에잉	-12.1166
▁부드러운	-12.1169
▁먹을려고	-12.117
▁개설	-12.1171
▁각오	-12.1171
묵	-12.1172
▁필요하지	-12.1173
▁그렇군요	-12.1175
▁쪙	-12.1177
▁바뀔	-12.1182
▁꺼야	-12.1182
▁심하면	-12.1185
▁바꾸지	-12.1187
홍	-12.1187
▁웬만한	-12.1189
▁있더	-12.1191
▁아닐거	-12.1191
페	-12.1192
▁이응	-12.1193
▁놔야겠다	-12.1194
▁터지게	-12.1197
▁심히	-12.1199
▁해야겟	-12.12
▁없겠다	-12.1204
▁보냐고	-12.1205
▁ᄋᄉ	-12.1206
▁되겠어	-12.1206
머리	-12.1207
▁썰어	-12.121
▁전화한	-12.1211
▁괜찮을까	-12.1213
▁쉬자	-12.1213
▁오야	-12.1214
▁봐야겠네	-12.1215
▁던디	-12.1218
▁귀마개	-12.1219
▁뜨개질	-12.1219
▁오뚜기	-12.1219
▁포트폴리오	-12.1219
▁노놉	-12.1219
▁ktx	-12.1219
▁블투	-12.1219
▁떴어	-12.122
▁연구소	-12.1221
▁왔습니다	-12.1221
▁진급	-12.1222
▁밥버거	-12.1223
▁콕	-12.1223
▁럽	-12.1224
▁친정	-12.1224
▁잔거	-12.1224
▁미루는	-12.1224
주지	-12.1224
▁아프니까	-12.1225
▁닮아	-12.1225
▁헤어지면	-12.1225
▁가져오라고	-12.1225
▁동반	-12.1225
▁상하이	-12.1226
▁웨어	-12.1229
▁두었다	-12.123
▁50%	-12.123
▁인맥	-12.1231
▁•	-12.1232
▁있었네	-12.1233
▁들어오는데	-12.1234
▁잊어	-12.1237
▁입어야지	-12.1238
▁갔지만	-12.1239
▁문학	-12.1239
▁끝낫	-12.1239
▁없죠	-12.124
▁좋아하잖아	-12.124
▁시켜야지	-12.1241
▁우비	-12.1241
▁양주	-12.1241
▁넘기고	-12.1242
▁잇엇어	-12.1243
▁정비	-12.1245
▁고마워용	-12.1246
▁풀리	-12.1247
였음	-12.1248
▁감시	-12.1248
▁수비	-12.1251
▁해야겠당	-12.1251
▁렇	-12.1252
▁강진	-12.1257
▁그만둔	-12.1257
이라며	-12.1257
▁송년회	-12.1265
▁잤네	-12.1267
꽃	-12.1268
▁둿	-12.1268
▁졍	-12.1273
▁53	-12.1276
몀	-12.1277
사자	-12.1278
▁빼주	-12.1278
▁성공한	-12.1283
▁오거	-12.1289
휴	-12.129
엇으	-12.1292
▁찾아도	-12.1296
▁이러는거	-12.1296
라구요	-12.1298
▁걸루	-12.1299
거예요	-12.13
▁만드	-12.13
댐	-12.13
▁오셈	-12.1301
▁들어갔	-12.1303
▁오려나	-12.1306
▁걸어갈	-12.1309
▁아앜	-12.1309
▁쪼꼼	-12.131
▁차근차근	-12.131
▁넉넉히	-12.131
▁단무지	-12.131
▁명세서	-12.131
▁텅텅	-12.131
▁사전예약	-12.131
▁존댓말	-12.131
▁스윗	-12.131
▁후유증	-12.131
▁서운해	-12.131
▁비슷하네	-12.131
▁협박	-12.131
▁초코파이	-12.131
▁떨면서	-12.131
▁동작	-12.1311
▁쨩	-12.1312
▁못자고	-12.1312
▁전략	-12.1313
▁ᅮᅮᄏᄏᄏ	-12.1313
▁해봤자	-12.1313
▁보고와	-12.1313
▁걷다가	-12.1314
▁깼	-12.1314
▁깽	-12.1314
▁역류	-12.1314
▁통계	-12.1315
▁키우	-12.1315
ᄏᄏᄏᄏᄏᄏᄏᄏᄏᄏ	-12.1315
▁위원	-12.1315
▁묻는데	-12.1315
▁넘어가는	-12.1316
▁참아야지	-12.1317
▁열람	-12.1317
▁이신	-12.1318
▁보호대	-12.1318
▁많구나	-12.1318
고만	-12.1319
▁괜찮던데	-12.132
▁세우고	-12.132
▁같아용	-12.132
지마라	-12.1322
▁저쪽	-12.1322
▁나용	-12.1325
▁매고	-12.1325
▁궁금해하고	-12.1325
▁병동	-12.1326
▁너넨	-12.1327
▁붓	-12.1329
▁봤오	-12.1332
▁했구만	-12.1334
▁먹었잖아	-12.1334
▁아니더라도	-12.1335
▁해두	-12.1338
▁앞쪽	-12.1338
▁한가지	-12.1339
▁룽	-12.134
▁알려주자	-12.1341
▁피치	-12.1341
▁않오	-12.1344
▁알약	-12.1344
싶어서	-12.1345
▁13000	-12.1348
▁퐁	-12.135
▁먹을걸	-12.1351
▁하지말구	-12.1352
▁춘하	-12.1353
▁이잉	-12.1354
▁인화	-12.1355
▁온당	-12.1357
▁......?	-12.136
▁내버려	-12.1363
▁습도	-12.1363
▁풀리는	-12.1363
▁올라오	-12.1363
▁지그	-12.1366
▁등촌	-12.1366
▁자르는	-12.1371
▁도면	-12.1372
▁없어졌다	-12.1372
▁궁금하	-12.1373
▁보이니	-12.1377
▁!!!!!!!!!!!!!	-12.138
▁문정	-12.138
▁따라가	-12.1382
▁버티는	-12.1387
▁건디	-12.139
▁루지	-12.1392
▁덮어	-12.1392
▁숙성	-12.1393
▁괘	-12.1395
▁좋겟	-12.1396
▁야하니	-12.1398
▁스테이	-12.1399
▁ᅲᄏᄏᄏᄏ	-12.1401
▁이익	-12.1401
▁간장게장	-12.1401
▁뒹굴뒹굴	-12.1401
▁무화과	-12.1401
▁외장하드	-12.1401
▁트리트먼트	-12.1401
앸	-12.1401
▁게스트하우스	-12.1401
▁프로모션	-12.1401
▁하반기	-12.1401
▁유연제	-12.1402
▁믹서기	-12.1402
▁곁	-12.1402
▁여행사	-12.1403
▁220	-12.1404
▁생으로	-12.1404
▁오노	-12.1404
▁변동	-12.1404
▁가능할까	-12.1405
▁차면	-12.1405
▁최초	-12.1405
▁노출	-12.1405
▁포터	-12.1406
▁읽음	-12.1407
으려고	-12.1407
▁포폴	-12.1407
▁같습니다	-12.1409
▁운세	-12.1409
▁영광	-12.1409
▁소녀	-12.141
▁구함	-12.1411
▁어울려서	-12.1411
▁오늘아침	-12.1411
▁누워있어	-12.1412
▁시더	-12.1412
▁선지	-12.1413
??	-12.1413
▁래퍼	-12.1414
▁많은지	-12.1415
▁올라간	-12.1415
▁왔으	-12.1418
▁일어나고	-12.1418
▁꾸미고	-12.1419
▁싫어하는데	-12.1419
▁많자나	-12.1421
▁맛있던데	-12.1423
▁거중	-12.1424
▁가봐도	-12.1425
▁괜찮다며	-12.1427
▁고작	-12.1427
▁쓸듯	-12.1428
▁과천	-12.1431
▁사셈	-12.1432
▁뭐라해	-12.1432
▁없다니	-12.1434
▁고맙고	-12.1434
▁걸레	-12.1435
▁본전	-12.1437
▁자나요	-12.1437
▁라따	-12.1438
▁빠진거	-12.1438
하길래	-12.1441
▁왔다는	-12.1441
▁뭐좀	-12.1443
ᄉ	-12.1444
▁잇자	-12.1445
겐	-12.1447
▁듣게	-12.1448
▁쓰겠다고	-12.1448
▁잘래	-12.145
다면서	-12.1451
▁두지	-12.1451
▁해줄수	-12.1457
▁장보	-12.1457
▁남긴	-12.1458
▁예정일	-12.1458
▁탑텐	-12.1458
▁없다구	-12.1459
▁(?	-12.1462
▁디아	-12.1463
▁흘리고	-12.1463
▁끓이는	-12.1464
▁사는거야	-12.1466
▁잇잖아	-12.1467
▁뺐다	-12.1473
있어요	-12.1473
▁걸면	-12.1477
▁오르는	-12.148
▁쉽다	-12.1483
▁한때	-12.1484
놀	-12.1486
겠군요	-12.1488
칠	-12.149
▁않아여	-12.149
▁계셔	-12.149
▁이렇	-12.149
겠네요	-12.1491
▁시끄러워	-12.1491
▁아니겟지	-12.1492
▁닮았다	-12.1492
▁않은거	-12.1493
▁묶고	-12.1494
▁알코올	-12.1494
▁마스카라	-12.1494
▁싱가포르	-12.1494
▁청양고추	-12.1494
▁콘텐츠	-12.1494
▁가져가고	-12.1494
▁문방구	-12.1494
▁일상생활	-12.1494
▁월드컵	-12.1494
▁동호회	-12.1494
▁체크아웃	-12.1494
▁핸들	-12.1494
▁평택	-12.1495
▁소나기	-12.1495
▁♡♡♡♡	-12.1495
▁울컥	-12.1495
▁사마귀	-12.1495
▁않도록	-12.1495
▁미침	-12.1497
▁엠디	-12.1499
거아니가	-12.15
▁폭력	-12.1501
▁보습	-12.1501
▁찍는거	-12.1502
▁뺴	-12.1503
▁먹지말고	-12.1504
▁이더라	-12.1506
▁돌아다니는	-12.1506
▁먹구싶다	-12.1508
▁사까	-12.1509
할거	-12.151
천만원	-12.1511
▁싸긴	-12.1512
▁버리게	-12.1513
▁냈다고	-12.1514
▁알려죠	-12.1514
▁사설	-12.1515
슴다	-12.1516
쎀	-12.1516
▁들리는	-12.1518
▁들어왔다고	-12.1518
▁발등	-12.152
▁뿔	-12.152
▁#)	-12.1521
납	-12.1523
떵	-12.1524
▁래미	-12.1526
▁유치	-12.1526
브이	-12.1527
▁까고	-12.1528
▁막힐	-12.1529
▁기다리지	-12.1529
▁길드	-12.153
▁아프더라	-12.1536
▁머머	-12.1537
▁보였어	-12.1538
▁이상하고	-12.154
▁명란	-12.1542
▁할라면	-12.1545
뷰	-12.1546
의식	-12.1549
▁해주께	-12.1549
▁들릴	-12.1549
▁수단	-12.1553
▁고왕	-12.1556
▁두꺼워	-12.1557
▁서든	-12.1558
▁모음	-12.1559
▁소면	-12.1561
▁놀아야	-12.1562
▁해보려	-12.1565
▁하고있는데	-12.1566
▁비슷할	-12.1568
좋	-12.1574
폭	-12.1575
▁험	-12.1575
셨나	-12.1578
▁쳐야	-12.1578
▁꼈	-12.158
▁쓸래	-12.158
던대	-12.1581
▁1:1	-12.1582
▁입었다	-12.1583
▁겪어	-12.1584
▁게시	-12.1586
▁아프리카	-12.1587
▁스파이더맨	-12.1587
▁득템	-12.1587
▁사촌언니	-12.1587
▁추어탕	-12.1588
▁알아볼게	-12.1589
▁가께	-12.1589
▁쳤다	-12.1589
▁이용권	-12.159
▁갗	-12.159
▁뻔했는데	-12.159
▁겁내	-12.159
▁않으려고	-12.1591
▁브라질	-12.1591
▁친하게	-12.1592
▁특수	-12.1592
▁그렇담	-12.1593
▁귀찮음	-12.1594
▁싶었어	-12.1595
▁따구	-12.1596
▁꿔서	-12.1598
▁천지	-12.1599
▁꽈	-12.1599
▁라스	-12.16
▁큰게	-12.1601
겠다는	-12.1602
▁비슷하다고	-12.1603
탁	-12.1604
▁놨다	-12.1604
▁일식	-12.1607
옷	-12.1608
▁잠금	-12.1609
▁넘어가면	-12.161
▁오겠다	-12.1612
▁특가	-12.1612
▁개안	-12.1615
▁그리워	-12.1616
▁엇네	-12.1617
▁아니게	-12.1618
▁만들었	-12.1621
▁이랬	-12.1622
▁KT	-12.1622
▁백마	-12.1625
▁아깝고	-12.1626
▁오래전	-12.1628
▁이이이	-12.163
▁막말	-12.163
▁빠졋	-12.1632
▁43	-12.1633
▁찢어	-12.1633
▁달전	-12.1634
▁살쪄	-12.1635
▁파라	-12.1635
▁깨지	-12.1639
▁자라는	-12.1641
렸다고	-12.1643
▁어울리고	-12.1646
웤	-12.1646
이지	-12.1647
으루	-12.1647
▁애드	-12.1651
가는거	-12.1651
▁시비	-12.1661
▁않더라	-12.1662
▁할거라	-12.1665
▁떴	-12.1668
▁도망가	-12.1668
▁벌어야	-12.167
▁먹는대	-12.1672
엿	-12.1672
▁치는데	-12.1675
▁쫌따	-12.1675
놧	-12.168
▁프라푸치노	-12.1682
▁후라이팬	-12.1682
▁거꾸로	-12.1682
▁범벅	-12.1682
▁체지방	-12.1682
▁퀘스트	-12.1682
▁안될것	-12.1682
▁퍼즐	-12.1682
▁어벤져스	-12.1682
▁스피드	-12.1682
▁판도라	-12.1682
▁리셋	-12.1683
▁드라이버	-12.1683
▁정신없이	-12.1683
▁파닭	-12.1683
▁친추	-12.1683
▁불렀는데	-12.1683
▁품목	-12.1683
▁후후후	-12.1683
▁다녀왔어	-12.1684
▁괜차너	-12.1684
▁보고시퍼	-12.1685
▁SK	-12.1685
▁토퍼	-12.1685
▁얼추	-12.1686
▁가볍고	-12.1688
▁마녀	-12.1688
▁미치겠네	-12.1688
▁공채	-12.1689
▁호점	-12.1689
▁쳐다보고	-12.169
▁호감	-12.1691
▁돌아가서	-12.1691
▁묻은	-12.1692
▁사왔	-12.1693
▁연상	-12.1695
▁샀거든	-12.1698
▁학사	-12.1699
▁버려야지	-12.1699
▁-_-	-12.17
▁예쁘지만	-12.1702
하거든	-12.1702
▁쉬려고	-12.1704
▁감히	-12.1704
▁예시	-12.1705
▁무셔	-12.1707
▁10%	-12.1707
▁사다리	-12.1709
▁됐는지	-12.1709
▁산성	-12.1712
▁점도	-12.1712
▁느껴지는	-12.1712
▁초면	-12.1713
▁한자리	-12.1713
▁되었	-12.1714
▁갔거든	-12.1714
▁비비고	-12.1715
▁떨어졌	-12.1716
킨	-12.1718
▁전후	-12.1719
▁중요한거	-12.172
▁먹는것도	-12.172
▁어디루	-12.1721
▁고비	-12.1721
▁안목	-12.1721
▁샀다며	-12.1721
▁시려	-12.1723
▁심하네	-12.1723
▁빠르다고	-12.1723
▁57	-12.1726
▁서술	-12.1731
▁전구	-12.1731
▁와아	-12.1734
▁톡톡	-12.1735
▁중형	-12.1739
▁가리고	-12.1742
▁만으로	-12.1743
아니야	-12.1744
▁돋	-12.1748
맞	-12.1753
▁쥔	-12.1754
▁다녀왔다	-12.1754
▁깔끔해	-12.1755
▁해봐라	-12.1755
▁늘어나	-12.1756
▁임다	-12.1757
▁49	-12.1759
▁챙	-12.1761
든지	-12.1761
▁다녀도	-12.1763
▁먹었으니	-12.1763
▁타나	-12.1764
▁뽑았	-12.1766
▁들림	-12.177
▁N	-12.177
▁으어	-12.1772
▁애매하네	-12.1774
▁사귈	-12.1775
▁가는것도	-12.1777
▁데릴러	-12.1777
▁인스턴트	-12.1777
▁투썸플레이스	-12.1777
▁프리랜서	-12.1777
▁글램핑	-12.1777
▁터지면	-12.1777
▁젓갈	-12.1777
▁추우니	-12.1777
▁얜	-12.1778
▁땡김	-12.1778
▁ᄇᄃᄇᄃ	-12.1778
▁직빵	-12.1778
▁아닌게	-12.1778
▁잼나게	-12.1779
▁4.5	-12.1779
▁직항	-12.1779
▁휴양지	-12.1779
▁픈데	-12.178
▁깝	-12.178
▁리퍼	-12.1781
▁공책	-12.1781
▁터키	-12.1782
▁귀염	-12.1782
▁가자가자	-12.1782
▁궁금한데	-12.1782
▁엽서	-12.1783
▁빱	-12.1783
▁법적	-12.1783
▁같은거야	-12.1784
▁먹으로	-12.1784
▁양양	-12.1784
▁팬츠	-12.1784
▁맨발	-12.1785
▁답답하고	-12.1787
▁쑤셔	-12.1787
▁가상	-12.1793
▁먹오	-12.1794
▁서명	-12.1795
▁아냨	-12.1795
▁매실	-12.1795
ᄏᄏᄏᄏᄏᄏᄏᄏᄏ	-12.1796
▁청라	-12.1796
▁흘러	-12.1797
▁그럴지도	-12.1797
▁생긴다고	-12.1798
▁암만	-12.1801
▁놔둬	-12.1801
▁용어	-12.1802
▁안전한	-12.1804
▁플스	-12.1806
▁아앀	-12.1806
▁남해	-12.1808
▁제니	-12.1808
▁지킬	-12.1808
▁잰	-12.181
▁보고싶은	-12.1811
▁서울시	-12.1812
▁보이스	-12.1814
▁채우면	-12.1815
▁생기지	-12.1815
▁단디	-12.1818
▁빠르지	-12.182
▁도와줄	-12.1821
▁딧	-12.1821
▁아니더라	-12.1822
▁무음	-12.1823
▁써라	-12.1823
▁보내준거	-12.1825
거였어	-12.1827
▁살안	-12.1827
옆	-12.1828
▁할껄	-12.1828
▁대애	-12.183
▁그런줄	-12.183
▁갚고	-12.183
▁대강	-12.1831
▁되던데	-12.1834
▁재밋다	-12.1834
▁에서의	-12.1834
▁그래가지고	-12.1836
▁크긴	-12.1839
▁롯시	-12.184
▁다주	-12.1844
▁??????????	-12.1846
▁곤란	-12.1847
▁본것	-12.185
▁가는줄	-12.1852
▁대세	-12.1854
▁확실해	-12.1855
는구나	-12.1855
▁먹었는데도	-12.1858
▁늬	-12.1861
▁하겠다는	-12.1862
▁재워	-12.1864
▁해놨	-12.1865
▁유가	-12.187
▁구비	-12.1872
▁네스프레소	-12.1873
▁두드러기	-12.1873
▁서프라이즈	-12.1873
▁리모컨	-12.1873
▁스트랩	-12.1873
▁만둣국	-12.1873
▁GS	-12.1873
▁반드시	-12.1873
▁끝나자마자	-12.1874
▁줘라	-12.1875
▁강습	-12.1875
▁받으려면	-12.1875
▁성공해서	-12.1876
▁월욜날	-12.1876
▁왔거든	-12.1877
▁옵치	-12.1877
▁낱	-12.1877
▁않으니까	-12.1877
▁스톤	-12.1877
▁없습니다	-12.1878
▁사줘야	-12.1878
▁잘한	-12.1879
▁코딩	-12.1879
▁부럽당	-12.188
▁토르	-12.188
▁외주	-12.1881
▁회상	-12.1881
▁놓는	-12.1882
▁알았더니	-12.1884
▁깨는	-12.1884
▁감자전	-12.1884
▁관세	-12.1884
▁쓰냐	-12.1884
▁만들라고	-12.1884
▁어땡	-12.1885
▁들고가	-12.1886
▁정체	-12.1886
▁아껴서	-12.1886
▁높다고	-12.1886
▁허세	-12.1887
받	-12.1889
▁부른다	-12.189
▁호우	-12.189
▁좋넹	-12.1891
▁바꿨	-12.1891
▁있다던데	-12.1891
▁포디	-12.1892
▁좋아여	-12.1893
짱	-12.1894
▁뤼	-12.1894
▁오매	-12.1897
▁몰겟	-12.19
▁앉아있어	-12.1901
▁갈건	-12.1901
▁)(	-12.1901
▁로비	-12.1902
▁하지는	-12.1902
▁빠른데	-12.1904
▁낫겟지	-12.1904
▁분할	-12.1905
▁잇당	-12.1907
▁개신	-12.1908
▁보겠어	-12.1909
▁그르게	-12.1909
▁보넹	-12.1913
▁들렀다가	-12.1913
▁궁금한거	-12.1914
▁정신차려	-12.1918
▁날아가	-12.192
▁팔도	-12.1922
▁버릴거	-12.1922
늬	-12.1922
▁한소리	-12.1922
▁잘생겨	-12.1923
▁나오는게	-12.1923
쨔	-12.1924
▁아인	-12.1925
▁힘들더라	-12.1926
▁의향	-12.1928
▁리라	-12.1928
▁웅우	-12.1929
▁맞는게	-12.1931
▁본드	-12.1931
▁짓고	-12.1931
▁들꺼	-12.1932
▁가져올	-12.1934
▁적당	-12.1939
▁..???	-12.1939
껀데	-12.194
▁뒤질	-12.1942
엠	-12.1942
▁읽지	-12.1945
▁입게	-12.1945
게되	-12.1946
▁넘어갈	-12.1947
▁라마	-12.1947
▁단순	-12.195
▁도박	-12.1951
▁해오	-12.1952
가는게	-12.1954
▁없네요	-12.196
▁괴로워	-12.1966
▁ᄐᄏ	-12.1967
▁흙흙	-12.1967
▁있었던거	-12.1968
▁로퍼	-12.1969
▁장치	-12.1969
▁아이언맨	-12.197
▁태블릿	-12.197
▁불면증	-12.1971
▁착착	-12.1971
▁밥그릇	-12.1971
▁다녀옴	-12.1971
▁널널	-12.1972
▁잘생겨서	-12.1973
▁근황	-12.1973
▁슬링	-12.1973
▁느끼해서	-12.1973
▁받앗는데	-12.1973
▁지난달	-12.1974
▁부채	-12.1974
▁성공하면	-12.1974
▁보았는데	-12.1975
▁먹고있	-12.1975
▁..............	-12.1975
▁이럴줄	-12.1976
▁잘은	-12.1976
▁넥	-12.1976
▁노후	-12.1977
▁노선	-12.1977
▁포크	-12.1977
▁스푼	-12.1978
▁산대	-12.1979
▁대패	-12.1979
▁아파요	-12.198
▁시를	-12.1983
▁제대	-12.1984
것네	-12.1984
▁옮겨서	-12.1987
▁하셔요	-12.199
▁긋네	-12.1991
▁주전	-12.1994
▁재미없	-12.1996
▁있다니	-12.1997
▁깨진	-12.1998
▁고칠	-12.1998
▁간정	-12.1999
▁넘기	-12.2001
▁와아아	-12.2001
▁어피	-12.2001
▁차피	-12.2003
틱	-12.2005
▁부로	-12.2006
▁뜨끈한	-12.2008
▁씻지	-12.2008
▁없구만	-12.2008
▁나오잖아	-12.2009
▁막히고	-12.201
▁같네요	-12.2011
▁었	-12.2016
8	-12.2017
됏	-12.2017
핀	-12.2017
▁알아보자	-12.2019
▁푹쉬어	-12.2023
▁시지	-12.2024
▁움직이	-12.2025
▁서운한	-12.2025
▁두리	-12.2026
▁줬던	-12.2028
▁사라졌다	-12.2029
▁에서부터	-12.203
▁?^^	-12.2031
▁받자	-12.2032
▁당할	-12.2032
▁명단	-12.2035
▁소가	-12.204
▁박고	-12.204
▁올려도	-12.2041
▁알잖아	-12.2046
▁알파	-12.2047
ᄆ	-12.205
▁잘생겼다	-12.2052
▁산건	-12.2053
▁깨끗한	-12.2053
▁달리는	-12.2053
▁가봐야겠다	-12.2053
▁똑똑	-12.2055
▁싸야	-12.2057
스터	-12.2057
었네	-12.2058
▁이탈	-12.2058
▁락스	-12.2058
▁3.5	-12.2062
▁이씨	-12.2066
▁두렵다	-12.2067
▁일오	-12.2068
▁브로콜리	-12.2068
▁슈프림	-12.2068
▁레포트	-12.2068
▁떡갈비	-12.2068
▁뒤늦게	-12.2069
▁공시	-12.2069
▁유니크	-12.2069
▁학부모	-12.2069
▁옆구리	-12.2069
▁교과서	-12.2069
▁반대편	-12.2069
▁찾아봄	-12.207
▁종각	-12.207
▁포카리	-12.207
▁당겨서	-12.2071
▁착하고	-12.2072
▁쀼	-12.2072
▁주의보	-12.2072
▁어색해서	-12.2073
▁좋냐	-12.2073
▁정착	-12.2073
▁스님	-12.2073
▁키친	-12.2073
▁핫바	-12.2074
▁간김	-12.2075
▁걸리니까	-12.2075
▁먹는거지	-12.2075
▁깨워서	-12.2076
▁꼈어	-12.2076
것을	-12.2076
▁숭	-12.2076
▁늘어서	-12.2077
▁다니다가	-12.2077
▁쿄	-12.2078
▁키워서	-12.2078
▁샀냐고	-12.208
▁올께	-12.2081
▁굶고	-12.2081
▁보다도	-12.2082
▁있으면서	-12.2082
▁어쩌면	-12.2083
▁하기에는	-12.2084
▁살아도	-12.2085
▁연관	-12.2086
▁알아요	-12.2088
▁드니까	-12.2088
▁떨어졌어	-12.2089
▁했겠지	-12.209
▁맞추면	-12.209
▁샀지만	-12.2091
▁듣는다고	-12.2093
▁뛰면	-12.2094
▁흑발	-12.2096
▁가느라	-12.2097
힘	-12.2098
지말구	-12.2099
▁용지	-12.21
▁해남	-12.2105
▁둘까	-12.2106
▁이처	-12.2106
▁해주었다	-12.2106
▁얇	-12.2107
▁금정	-12.2109
싸	-12.2111
▁맞았	-12.2111
▁괴	-12.2112
▁가려다가	-12.2117
▁들으니	-12.212
▁유진	-12.2125
넷	-12.2127
▁서나	-12.2128
▁돌아다니고	-12.2128
▁화난	-12.2129
▁ᄋᄂ	-12.2131
▁개장	-12.2132
▁눙물	-12.2132
▁매가	-12.2135
▁같냐	-12.2135
▁아니었는데	-12.2137
나가	-12.2139
▁막힌다	-12.2139
▁제자	-12.2141
▁신데	-12.2144
▁사십	-12.2145
▁치고는	-12.2146
하냐	-12.2147
▁고사	-12.2148
▁제시	-12.2148
▁없으면서	-12.2148
▁서라도	-12.2149
▁있는데도	-12.2149
▁싸우	-12.215
▁사온	-12.215
▁할거라고	-12.2157
▁MB	-12.2158
▁귀지	-12.2158
▁r	-12.2159
▁틀려	-12.2161
..	-12.2161
▁같았다	-12.2163
졐	-12.2164
▁일당	-12.2165
▁저러면	-12.2166
▁렌터카	-12.2167
▁세븐일레븐	-12.2167
▁어울림	-12.2167
▁놀램	-12.2167
▁바리스타	-12.2168
▁결항	-12.2168
▁식탐	-12.2168
▁외우	-12.2168
▁충분해	-12.2168
▁좋아졌다	-12.2168
▁돌돌	-12.2168
▁렌트카	-12.2169
▁합류	-12.2169
▁브로	-12.217
▁체계	-12.217
▁더럽게	-12.2171
▁빡치게	-12.2171
▁홈피	-12.2171
을까봐	-12.2171
▁양평	-12.2172
▁교차	-12.2172
▁형태	-12.2172
▁힘들었는데	-12.2172
▁가자나	-12.2172
▁오키나와	-12.2172
▁낳으면	-12.2173
▁모밀	-12.2173
▁그랬잖아	-12.2173
▁as	-12.2173
▁마시려고	-12.2174
셨어	-12.2174
TI	-12.2174
▁오더	-12.2174
▁간염	-12.2175
▁유령	-12.2175
▁18000	-12.2175
▁기대되	-12.2176
▁반숙	-12.2176
▁발라드	-12.2178
▁막히는	-12.2179
▁ᅲᅲᅲᅲᅲᅲᅲᅲᅲᅲᅲᅲ	-12.218
▁kt	-12.218
쪼	-12.2181
▁짜는	-12.2181
▁비싼건	-12.2181
▁햇눈데	-12.2182
▁적지	-12.2182
▁피우는	-12.2183
:	-12.2183
▁슬프고	-12.2183
▁미세	-12.2183
▁들어온다고	-12.2184
▁되거든	-12.2184
▁있긴해	-12.2185
▁싫어요	-12.2185
▁마싯게	-12.2185
▁둔다고	-12.2186
▁하단	-12.2188
▁시키자	-12.2192
▁됐지만	-12.2193
▁기약	-12.2194
▁쉽고	-12.2195
놨	-12.2196
▁놀랐다고	-12.2197
▁말릴	-12.22
▁놓으라고	-12.2201
▁알로	-12.2205
▁걸었는데	-12.2206
▁쉬어요	-12.2206
▁살찐	-12.2206
▁방사	-12.2207
▁개쩌	-12.2208
▁운다	-12.2209
▁밟고	-12.221
는거아냐	-12.2211
▁난데	-12.2211
▁찮아	-12.2212
▁눕	-12.2213
▁혼내	-12.2213
▁즉석	-12.2214
▁놀면서	-12.2217
▁팔리면	-12.2218
▁우디	-12.2218
즙	-12.2223
▁여신	-12.2227
▁어딧	-12.2227
▁살고싶다	-12.2229
▁들보	-12.2229
▁외우고	-12.2229
▁좋아해요	-12.2232
▁졸릴	-12.2233
이고	-12.2234
▁좋아하니	-12.2238
▁240	-12.224
▁까먹었다	-12.2241
▁뭐징	-12.2249
▁부담스러워	-12.225
▁애매하	-12.2252
▁그런다	-12.2254
돜	-12.2257
▁빼구	-12.2259
았어	-12.226
▁습해	-12.226
▁배기	-12.2262
▁존웃	-12.2262
▁망했	-12.2263
▁났음	-12.2263
▁365	-12.2263
▁부다	-12.2264
▁챠	-12.2265
었거든	-12.2266
▁압구정	-12.2266
▁원숭이	-12.2267
▁트렁크	-12.2267
▁리조또	-12.2267
▁부침개	-12.2267
▁느긋하게	-12.2268
▁혼술	-12.2268
▁스릴러	-12.2268
▁다녀올게	-12.2268
▁보여줌	-12.2269
나도	-12.2269
▁실검	-12.2269
▁현빈	-12.2269
▁가져감	-12.227
▁쏜다	-12.227
▁투석	-12.227
▁현대차	-12.2271
▁겻	-12.2271
▁넣으라고	-12.2271
▁비행기표	-12.2272
▁필요함	-12.2273
▁진하게	-12.2274
▁야말로	-12.2274
▁넣어놓고	-12.2274
▁맛없어서	-12.2275
▁깊이	-12.2275
▁어무니	-12.2275
▁비싸도	-12.2277
▁먹고싶다고	-12.2277
▁규정	-12.2278
▁퀀시	-12.2278
▁작전	-12.2278
▁잉잉	-12.2279
▁짤리	-12.2282
▁58	-12.2283
▁고간	-12.2286
▁집오면	-12.2287
▁30%	-12.2288
▁먹어야겟다	-12.2289
▁돈데	-12.229
▁갑자	-12.2291
뤼	-12.2292
▁홀로	-12.2292
▁알겠어용	-12.2293
▁델꼬	-12.2295
▁서하	-12.2297
▁주장	-12.2297
▁개빡	-12.2298
프진	-12.2301
▁힘들어도	-12.2302
▁멀다고	-12.2302
▁꼬기	-12.2302
밑	-12.2302
▁사만원	-12.2303
▁경보	-12.2303
▁전과	-12.2303
▁분전	-12.2307
▁닮았	-12.2309
▁새로운거	-12.2309
▁지나도	-12.2309
오는	-12.231
혈당	-12.2311
뉴	-12.2312
▁해볼게요	-12.2313
▁좋드	-12.2314
▁쬬	-12.2315
▁심심하다	-12.2315
▁리야	-12.2316
▁마시게	-12.2318
왓다	-12.2319
▁남는거	-12.232
▁잖아요	-12.232
었다며	-12.232
▁수행	-12.232
▁개개	-12.2322
▁나을것	-12.2324
▁타야지	-12.2324
라잉	-12.2326
▁ᄏᄏᄐ	-12.2326
이어	-12.2327
▁비유	-12.2329
▁부르지	-12.2331
▁되었어	-12.2332
▁착하면	-12.2334
▁88	-12.2334
▁갖구	-12.2335
단계	-12.2335
▁신는	-12.2339
▁봐줄	-12.2341
▁할수있다	-12.2342
▁능가	-12.235
▁뚱	-12.235
면되	-12.2352
▁깨져	-12.2355
야겠당	-12.2355
▁내가말	-12.2356
▁햤	-12.2357
▁태우고	-12.2357
▁이민	-12.2358
▁같은데서	-12.2358
▁샀을	-12.236
▁꾸역꾸역	-12.2368
▁다이렉트	-12.2368
▁보이스피싱	-12.2368
▁승무원	-12.2368
▁주휴수당	-12.2368
▁처갓집	-12.2368
▁코딱지	-12.2368
▁짝퉁	-12.2368
▁골고루	-12.2368
▁시나몬	-12.2368
▁고로케	-12.2368
▁손소독제	-12.2368
▁빈자리	-12.2369
▁시청률	-12.2369
▁예측	-12.2369
▁몽골	-12.2369
▁스노우	-12.2369
▁남포동	-12.237
▁절친	-12.237
▁완벽하게	-12.237
▁긱	-12.2371
▁빼박	-12.2371
▁탕슉	-12.2371
▁수면제	-12.2372
▁워후	-12.2372
▁오오오오오	-12.2372
▁그러케	-12.2373
▁알아보려고	-12.2373
▁해달라는	-12.2374
▁장롱	-12.2374
▁숩	-12.2374
▁곡성	-12.2375
▁ᅮᅮᄏᄏ	-12.2375
▁가질	-12.2375
▁메뉴판	-12.2376
▁만이라도	-12.2376
▁어떡하	-12.2376
▁좋데	-12.2376
▁넣구	-12.2377
▁국장	-12.2377
▁미쳣어	-12.2377
▁복장	-12.2378
▁어째서	-12.2378
▁뒀어	-12.2378
▁입으니까	-12.2378
▁잤오	-12.2378
▁보험금	-12.2378
▁있었거든	-12.2379
▁맛있을거	-12.238
▁왔당	-12.2381
▁돌아갈	-12.2382
▁축가	-12.2382
▁이성	-12.2382
▁설리	-12.2383
이긴	-12.2383
▁줄거리	-12.2385
▁갔냐고	-12.2385
▁튀긴	-12.2385
▁건축	-12.2385
솔	-12.2387
있더라	-12.239
▁흐린	-12.2391
▁보러가자	-12.2392
▁유선	-12.2393
▁부상	-12.2393
▁맞대	-12.2393
▁접어	-12.2393
▁사골	-12.2394
▁말아서	-12.2395
▁정국	-12.2398
▁영역	-12.2401
▁귀엽다며	-12.2402
▁놀랍다	-12.2402
▁허용	-12.2405
▁나을지	-12.2405
▁싶더라	-12.2406
▁개다	-12.2408
▁드는게	-12.2411
▁무당	-12.2412
▁그만해	-12.2414
똥	-12.2414
▁거바	-12.2426
▁순수	-12.2426
▁있어야해	-12.2427
▁좋았던	-12.2428
▁된건	-12.2428
▁이랬어	-12.243
▁아니었다	-12.2431
쟝	-12.2431
▁가지구	-12.2431
▁해야디	-12.2432
▁준다며	-12.2433
맄	-12.2434
▁고문	-12.2435
▁앉아있	-12.2435
▁나스	-12.2438
▁좋아하네	-12.2439
▁더치	-12.244
▁텀	-12.2441
▁알구	-12.2441
▁사는거지	-12.2441
▁내꺼는	-12.2442
▁들으라고	-12.2443
학년	-12.2446
▁끼니	-12.2447
▁않나요	-12.2447
내일	-12.2449
▁돼도	-12.2451
▁들어오는거	-12.2452
▁지에	-12.2454
▁해보구	-12.2454
시네	-12.2455
▁유투	-12.2456
▁올라오고	-12.2459
▁지은	-12.246
▁상실	-12.2461
▁에게서	-12.2462
▁안된거	-12.247
▁대한민국	-12.247
▁사춘기	-12.247
▁이런저런	-12.247
▁트로트	-12.247
▁브레드	-12.247
▁카운터	-12.247
▁큼큼	-12.247
▁스텝	-12.247
▁해물찜	-12.247
▁수험생	-12.2471
▁팔꿈치	-12.2471
▁꼬르륵	-12.2471
▁답정너	-12.2471
▁현관문	-12.2471
▁긴머리	-12.2472
▁어두워서	-12.2472
▁진짜진짜	-12.2473
▁왁	-12.2473
▁혼란	-12.2473
▁진라면	-12.2473
▁물어보는거	-12.2475
▁짴	-12.2475
▁통운	-12.2476
▁볼수록	-12.2476
▁초점	-12.2477
▁첸	-12.2479
▁재밌을거	-12.248
▁챙겼어	-12.248
▁언덕	-12.248
▁습하고	-12.2482
▁강조	-12.2483
▁대상자	-12.2483
▁먹었는	-12.2483
겠냐	-12.2486
▁기계로	-12.2486
▁연유	-12.2487
▁이건데	-12.2487
▁뜯고	-12.2488
▁올레	-12.2489
여서	-12.2489
▁기다린다고	-12.249
▁넘어야	-12.2494
▁봤다며	-12.2494
▁72	-12.2496
▁작다고	-12.2496
▁마셨	-12.2498
▁까지라고	-12.2499
▁일줄	-12.25
▁지낼	-12.2502
▁내려올	-12.2502
▁그러긴	-12.2504
▁걸어가면	-12.2505
밭	-12.2507
나면	-12.2507
▁걸렷	-12.2507
▁랍	-12.2507
▁웃는다	-12.2508
오고	-12.2508
▁계산기	-12.2508
▁ᅮᅳᅮ	-12.2509
▁아까도	-12.2511
▁지라	-12.2515
있대	-12.2521
숑	-12.2523
닭	-12.2523
▁써야겠다	-12.2524
▁조그만	-12.2524
▁쓸만	-12.2524
▁꺼는	-12.2524
▁기억나지	-12.2525
▁쉬는거	-12.2526
▁응답	-12.2529
▁뒀다	-12.253
야겟	-12.2532
▁입혀	-12.2532
▁재미없다	-12.2533
여행	-12.2533
▁어리	-12.2535
▁힌	-12.2536
▁팔던데	-12.2538
▁맞춘	-12.254
▁없더라고	-12.254
▁성공했다	-12.2541
▁캔디	-12.2543
▁낳아	-12.2547
▁가봤	-12.2554
▁밋	-12.2557
놨어	-12.2559
▁잖	-12.2561
▁없애고	-12.2561
▁만들어줘	-12.2562
▁따야	-12.2562
더만	-12.2562
숙모	-12.2567
▁h	-12.2569
▁들어줘	-12.257
▁버렸지	-12.257
▁갑상선	-12.2573
▁아반떼	-12.2573
▁어벤저스	-12.2573
▁에뛰드	-12.2573
▁과메기	-12.2573
▁나훈아	-12.2573
▁봉사활동	-12.2573
것이다	-12.2573
▁포스트잇	-12.2573
▁제주항공	-12.2574
▁한라산	-12.2574
▁감사합니당	-12.2574
▁심히와	-12.2574
▁영상통화	-12.2574
▁합리화	-12.2574
▁^^;	-12.2574
▁드럼	-12.2574
▁ᄍᄍ	-12.2574
▁PC	-12.2574
▁꽂혀서	-12.2575
▁어린이날	-12.2575
▁거북이	-12.2575
▁피곤했나	-12.2575
▁흐으	-12.2575
▁안드로이드	-12.2575
▁퍼플	-12.2576
▁탈덕	-12.2576
▁연필	-12.2577
▁잠자리	-12.2577
▁읽었는데	-12.2577
▁닥스	-12.2578
▁호환	-12.2579
▁괘아	-12.2579
▁귀엽당	-12.258
▁잔금	-12.2581
▁쓰여서	-12.2582
▁없엇어	-12.2582
▁짜증나는	-12.2583
▁ᄀᄀᄀ	-12.2584
▁ᄏᄃ	-12.2584
▁지장	-12.2585
▁그럴려고	-12.2586
▁병실	-12.2588
▁가늠	-12.2589
▁오른다	-12.2589
▁이진혁	-12.259
▁왔냐고	-12.259
▁ᄈ	-12.259
있으니까	-12.259
▁라소	-12.2593
▁입는다고	-12.2593
▁넣자	-12.2593
▁했군	-12.2593
시장	-12.2594
▁보내는거	-12.2594
▁비싸니까	-12.2594
▁해줄래	-12.2598
▁구랫	-12.2599
▁상담사	-12.2599
▁자겠다고	-12.2599
▁그렇겟지	-12.2602
말구	-12.2605
▁팔어	-12.2606
▁볼려고	-12.2606
▁가재	-12.2606
▁따아	-12.261
리긴	-12.262
▁드려야	-12.262
▁뿌리는	-12.2622
▁개막	-12.2623
▁아르	-12.2623
땡	-12.2624
▁내렸다	-12.2624
▁찾아보는	-12.2629
▁귀리	-12.2631
▁애기야	-12.2632
▁워시	-12.2632
거다	-12.2635
던걸	-12.2636
▁고르기	-12.2637
▁알듯	-12.2637
▁불편하면	-12.2637
▁모자라	-12.2637
홀	-12.2638
됴	-12.2639
▁230	-12.2639
▁넘는데	-12.2641
▁만족해	-12.2641
▁간단	-12.2643
▁심할	-12.2644
▁힘들었	-12.2649
▁ᅥᄋ	-12.2649
▁넘쳐	-12.265
▁짜게	-12.2656
▁나오냐	-12.2661
▁비중	-12.2661
▁신사	-12.2661
▁아니죠	-12.2663
▁까먹지	-12.2665
▁R	-12.2665
▁헤어져	-12.2667
고나서	-12.2667
잖소	-12.267
▁아깝지	-12.2674
▁신기하게	-12.2674
▁해봐도	-12.2675
▁좋앗	-12.2675
▁사겠다	-12.2676
▁결혼기념일	-12.2678
▁김치냉장고	-12.2678
▁손재주	-12.2678
▁콜센터	-12.2678
▁드레싱	-12.2678
▁젤라또	-12.2678
▁ᄋᄏᄃᄏ	-12.2678
▁않이	-12.2678
▁광광	-12.2678
▁페스티벌	-12.2678
▁퉁퉁	-12.2678
▁재방송	-12.2679
▁아닐수도	-12.2679
▁커플링	-12.2679
▁가져왔는데	-12.2679
▁일임	-12.268
▁190	-12.268
▁식대	-12.268
▁마카오	-12.2681
▁메이트	-12.2681
▁돌아와서	-12.2683
▁예뽀	-12.2683
▁아닐거야	-12.2683
▁데려다주고	-12.2684
▁힘들다는	-12.2684
▁느껴져서	-12.2684
▁착샷	-12.2685
▁이럴거면	-12.2685
▁놀아야지	-12.2685
▁유출	-12.2685
▁이기는	-12.2687
▁넘어가서	-12.2687
▁핰	-12.2687
▁보였는데	-12.2688
▁펴서	-12.2688
▁다닐까	-12.2688
▁같앜	-12.2688
▁얇고	-12.2689
▁바꾼다고	-12.2689
▁가준	-12.2689
▁악플	-12.2689
▁풀리고	-12.269
▁소득세	-12.269
▁계장	-12.2691
▁시키는데	-12.2692
▁붙인	-12.2692
▁챙기면	-12.2693
▁줘요	-12.2694
▁지수	-12.2696
▁안좋으면	-12.2697
▁///	-12.2697
▁논다	-12.2699
▁거주	-12.2699
▁해준데	-12.27
▁샤브	-12.2703
▁오십분	-12.2703
▁상치	-12.2704
하겟	-12.2705
▁들어가라고	-12.2705
▁하더만	-12.2707
▁안되냐고	-12.2708
▁모모	-12.2711
▁맞냐고	-12.2711
▁안동	-12.2712
▁이뿌네	-12.2712
▁신원	-12.2715
▁소속사	-12.2715
▁봐야겠	-12.2718
▁동물원	-12.2719
▁잤나	-12.2721
▁싶으	-12.2722
▁적으면	-12.2722
▁맡기	-12.2726
▁타는게	-12.273
▁놀아도	-12.2732
▁마시자	-12.2732
잖니	-12.2732
▁말라구	-12.2733
유미	-12.2738
▁안된다는	-12.274
▁그만하고	-12.274
▁주량	-12.2743
▁없는건	-12.2743
▁도사	-12.2746
▁노는데	-12.2752
▁남기	-12.2752
▁서치	-12.2753
▁꽃게	-12.2754
▁불려	-12.2755
▁기하	-12.2759
▁은퇴	-12.276
▁착하게	-12.2762
▁탄거	-12.2763
▁지대	-12.2764
▁느끼해	-12.2764
▁켜져	-12.2767
▁한다해	-12.2768
▁명당	-12.2772
▁사귀	-12.2772
▁없을것	-12.2773
▁깻	-12.2773
엽	-12.2775
▁함수	-12.2777
▁사오면	-12.2777
▁쌓여	-12.2779
▁있는것도	-12.278
▁올랐다	-12.2781
▁비말	-12.2781
▁아날로그	-12.2783
▁예방접종	-12.2783
▁파프리카	-12.2783
▁포장마차	-12.2783
▁식은땀	-12.2783
▁외삼촌	-12.2783
▁아쉬움	-12.2783
▁꼼꼼히	-12.2783
▁돋는다	-12.2783
▁수학여행	-12.2783
▁노릇	-12.2783
▁빌딩	-12.2783
▁블록	-12.2783
▁웨이팅	-12.2783
▁́	-12.2783
▁이랬더니	-12.2783
▁시어머니	-12.2783
▁빠름	-12.2784
▁흔적	-12.2784
▁ᅥᄊ	-12.2784
것이	-12.2785
▁홀랭	-12.2785
▁힘들텐데	-12.2785
▁혜화	-12.2785
▁끊음	-12.2785
▁먹겠어	-12.2785
▁눌려	-12.2785
▁개더워	-12.2786
▁부드럽고	-12.2786
▁충분하다	-12.2787
▁꾸며	-12.2788
▁미싱	-12.2788
▁굿즈	-12.2789
▁표준	-12.2789
▁쉬워서	-12.2789
▁진실	-12.279
▁혐오	-12.279
▁구우	-12.279
▁달뒤	-12.2791
▁진혁이	-12.2791
▁윤기	-12.2792
야겟어	-12.2793
▁지났어	-12.2793
▁무서운거	-12.2793
▁눼	-12.2794
▁잘생겼다고	-12.2795
▁않을듯	-12.2795
▁...!!!	-12.2795
▁or	-12.2795
▁먹고싶으면	-12.2797
▁명곡	-12.2797
▁알쥐	-12.2797
▁라바	-12.2798
▁재밌었	-12.2798
▁끊어서	-12.2799
▁보급	-12.2799
▁널어	-12.2802
▁빙고	-12.2803
▁쨈	-12.2803
▁버드	-12.2803
먹엇어	-12.2804
▁한컴	-12.2804
▁마상	-12.2805
▁성대	-12.2805
▁유유	-12.2807
▁평창	-12.2808
▁길은	-12.2808
▁리브	-12.2808
▁끄는	-12.2809
땐	-12.2811
효	-12.2812
▁사길	-12.2812
▁먹어야하는데	-12.2813
아서	-12.2815
▁무단	-12.2817
▁하잇	-12.2819
▁냄시	-12.282
▁으른	-12.282
▁마임	-12.2821
▁뭉치	-12.2821
레슨	-12.2821
▁놀려	-12.2825
▁같을	-12.2825
▁나온다는	-12.2826
▁배워야	-12.2827
▁빼자	-12.2828
▁추운거	-12.2829
▁인력	-12.2829
▁싶으니	-12.283
▁cc	-12.2833
뚜	-12.2834
▁서초	-12.2835
▁많아도	-12.2838
▁세팅	-12.2838
셩	-12.2839
▁생긴게	-12.284
▁안조아	-12.2841
▁전통	-12.2841
▁나좀	-12.2843
▁왜유	-12.2844
▁비쥬	-12.2845
▁미사	-12.2845
▁훈	-12.2848
▁군자	-12.2849
...	-12.2851
▁각도	-12.2852
▁때림	-12.2852
▁놔라	-12.2853
▁운데	-12.2853
▁참았다	-12.2853
▁우승	-12.286
▁^^*	-12.2861
▁들어가게	-12.2863
▁잇어여	-12.2863
▁샀어요	-12.2866
▁국도	-12.2869
▁허거	-12.2875
▁참지	-12.2876
▁몇장	-12.288
껏	-12.2881
▁맡	-12.2881
▁밝아	-12.2882
▁4-5	-12.2883
▁였던거	-12.2884
▁부쳐	-12.2886
▁나아서	-12.2886
▁스럽네	-12.2887
둣	-12.2888
▁쫑	-12.2888
▁라벤더	-12.2889
▁재작년	-12.2889
▁코스프레	-12.2889
▁트럼프	-12.2889
▁개그맨	-12.2889
▁가락국	-12.289
▁뽀글이	-12.289
▁초파리	-12.289
▁뿜뿜	-12.289
▁스톡	-12.289
▁괜차낭	-12.289
▁쿨하게	-12.2891
▁프레임	-12.2891
▁봅세	-12.2891
▁밤샘	-12.2892
▁목욜날	-12.2892
▁알아보라고	-12.2892
▁★	-12.2893
▁캠핑장	-12.2893
▁보낼까	-12.2893
▁배부르게	-12.2893
▁육포	-12.2893
▁가능할듯	-12.2893
▁림프	-12.2894
▁상환	-12.2894
▁편견	-12.2895
▁멋지	-12.2895
▁왔는디	-12.2896
▁기뻐	-12.2896
▁잠잠해지면	-12.2896
▁궁금한게	-12.2896
▁쪼리	-12.2897
▁용법	-12.2897
▁입고가	-12.2897
▁맛있겠지	-12.2897
▁놔두면	-12.2898
▁시원해서	-12.2898
▁가볼래	-12.2898
^	-12.29
▁흐어	-12.2901
▁뭐함	-12.2901
▁연구원	-12.2902
▁끝나니까	-12.2904
▁꽃집	-12.2906
▁인실	-12.2907
▁어땨	-12.2907
▁아침밥	-12.291
▁뿌듯해	-12.2911
▁통신	-12.2911
▁나와요	-12.2911
▁무조	-12.2912
▁륵	-12.2913
▁먹은거야	-12.2913
▁봐야겠어	-12.2917
▁저녁밥	-12.2918
▁생겼고	-12.2919
▁수사	-12.2919
▁많구	-12.2919
▁가본데	-12.2923
▁우등	-12.2923
▁ᅧᄂ	-12.2926
▁명상	-12.2927
▁찾았다고	-12.2927
▁자로	-12.2928
엇음	-12.2928
▁뻔한	-12.2929
이랑	-12.2933
▁구린	-12.2934
▁풀어야	-12.2935
▁51	-12.2935
즘	-12.2936
▁후에	-12.2937
▁멋있	-12.2937
▁본거야	-12.2937
▁쳐다	-12.294
룽	-12.294
▁끊어야	-12.2942
▁같더라고	-12.2942
▁자노	-12.2943
▁41	-12.2946
▁자려구	-12.2948
▁좋겠지	-12.2949
▁명중	-12.295
▁아니오	-12.2951
▁차이는	-12.2952
▁ᅮᅲᅲᅲ	-12.2953
▁119	-12.2953
▁지겹다	-12.2953
▁지불	-12.2953
▁ᅲᅮᅮᅮ	-12.2954
▁신은	-12.2954
▁전남	-12.2954
숍	-12.2958
▁나비	-12.2959
주는데	-12.2961
▁찾아가	-12.2961
깈	-12.2961
▁몰리	-12.2963
▁서요	-12.2964
▁따지	-12.2964
▁사먹는	-12.2965
▁47	-12.2966
▁메고	-12.2967
▁가셔서	-12.2969
▁달성	-12.297
▁상여	-12.2971
수있어	-12.2971
▁즉	-12.2971
랜	-12.2977
▁마싯다	-12.2979
▁돌림	-12.2982
▁잃	-12.2984
지는거	-12.2986
▁마는	-12.2991
▁당구	-12.2992
가여	-12.2992
▁지민	-12.2994
▁퍽퍽	-12.2995
▁헹	-12.2995
▁가능함	-12.2996
▁뚝배기	-12.2997
▁루이비통	-12.2997
▁에피소드	-12.2997
▁트렌치코트	-12.2997
▁저절로	-12.2997
▁김포공항	-12.2997
▁센티미터	-12.2997
▁탐탐	-12.2997
▁빅뱅	-12.2997
▁소소한	-12.2997
▁정기권	-12.2997
▁당연하죠	-12.2998
▁필링	-12.2998
▁혜리	-12.2998
▁씽	-12.2999
▁불평	-12.2999
▁보컬	-12.3
▁멜로	-12.3
▁두껍게	-12.3
▁연착	-12.3001
▁들거	-12.3001
▁같운데	-12.3001
▁안구	-12.3003
▁놔두	-12.3003
▁단맛	-12.3004
▁프라다	-12.3005
▁위험하다고	-12.3005
▁땡기는데	-12.3005
▁신기함	-12.3005
▁살로	-12.3006
▁리틀	-12.3006
▁끓이면	-12.3006
▁소송	-12.3007
▁돌아왔다	-12.3007
▁건설	-12.3007
▁극한	-12.3007
▁어딨는지	-12.3008
▁똑같아서	-12.3009
▁동쪽	-12.3009
▁개멋	-12.3009
▁뺐어	-12.3009
▁미치겠어	-12.301
▁머거야지	-12.301
인물	-12.3011
답니다	-12.3013
▁좋았고	-12.3014
▁어떡하냐고	-12.3014
▁발도	-12.3017
▁넣어줘	-12.3019
▁인나서	-12.3019
!!	-12.302
▁하셨어	-12.302
▁맞죠	-12.3021
▁음력	-12.3021
▁싫다는	-12.3023
▁끝나기	-12.3023
▁가심	-12.3023
▁텨	-12.3024
▁어색한	-12.3026
▁확보	-12.3027
▁만한데	-12.3028
▁오진	-12.3031
▁손실	-12.3031
▁소멸	-12.3034
▁제약	-12.3035
▁신다	-12.3037
▁부끄러워	-12.3037
▁증가	-12.3038
▁손등	-12.3039
▁좋겠다는	-12.3039
▁올라왔다	-12.304
▁해보고싶다	-12.304
▁했어야지	-12.304
▁줬고	-12.3043
▁즌	-12.3044
▁있당	-12.3045
▁말에	-12.3047
F	-12.3048
▁ᄋᄅ	-12.3049
▁싫다며	-12.3049
▁춰	-12.3049
▁지켜보고	-12.305
▁조이	-12.3051
▁버스비	-12.3051
▁다니자	-12.3051
▁가고있	-12.3052
삘	-12.3052
X	-12.3053
▁나간거	-12.3056
▁!?!?	-12.3058
깡	-12.3061
▁즐겁	-12.3061
▁준다는데	-12.3062
▁시끄러	-12.3062
었지	-12.3062
▁아니었나	-12.3062
▁ᅡᄅ	-12.3065
▁넣었	-12.3067
▁누웠	-12.307
▁비건	-12.307
▁놀랄	-12.307
운동	-12.3071
▁먹었거든	-12.3072
▁좋으	-12.3072
▁볶이	-12.3074
큐	-12.3074
▁하고싶어서	-12.308
▁멈	-12.3082
▁자정	-12.3082
▁#,,	-12.3086
▁~~~!!!	-12.3091
▁놀까	-12.3093
▁항거	-12.3094
율	-12.3096
▁징그러워	-12.3103
▁갔다오	-12.3104
▁놀랬어	-12.3104
▁설문조사	-12.3105
▁쉬익쉬익	-12.3105
▁편두통	-12.3105
▁현금영수증	-12.3105
▁뿌링클	-12.3105
▁뾰족	-12.3106
▁향신료	-12.3106
▁바글바글	-12.3106
▁쯔양	-12.3106
▁개인정보	-12.3106
▁완젼	-12.3106
▁눈물난다	-12.3106
▁가르마	-12.3106
▁기쁨	-12.3106
▁비키니	-12.3106
▁렌	-12.3106
▁베이커리	-12.3106
▁쌀밥	-12.3107
▁고프지	-12.3108
▁릴리	-12.3108
▁이었네	-12.3109
▁델러	-12.311
▁체카	-12.3111
▁많을듯	-12.3111
▁해커스	-12.3111
▁줬음	-12.3111
▁부러워하고	-12.3112
▁찬열	-12.3112
▁드루	-12.3113
▁도토리	-12.3113
▁파견	-12.3113
▁안좋대	-12.3113
▁문득	-12.3114
▁참외	-12.3114
▁죽겠네	-12.3115
▁아이린	-12.3116
냐는	-12.3116
▁나왔지만	-12.3116
▁정신병	-12.3117
▁자요	-12.3117
▁홀리데이	-12.3118
▁갖고싶다	-12.312
▁쓰시	-12.312
▁멀쩡해	-12.3122
▁불편하다고	-12.3123
▁지나간	-12.3123
▁보름	-12.3125
▁있을수도	-12.3126
▁칼라	-12.3126
▁젖은	-12.3127
▁내린다고	-12.3127
▁오는건	-12.3129
▁볼살	-12.3131
▁캐리	-12.3132
▁다니게	-12.3133
▁갔어야	-12.3135
▁올라가고	-12.3135
▁궈	-12.3136
▁가전	-12.3136
▁고쳐야	-12.3139
▁없드	-12.3139
말이	-12.314
▁살려줘	-12.314
▁데꼬	-12.3141
▁올게요	-12.3141
졌네	-12.3142
▁요리사	-12.3142
▁오이도	-12.3143
▁나로	-12.3144
▁맞을거	-12.3146
▁해주자	-12.3148
▁통로	-12.3152
▁따른	-12.3156
▁노스	-12.3156
▁아끼	-12.3156
▁그중	-12.3157
▁타게	-12.316
▁넣은거	-12.316
▁더보	-12.3161
▁기내	-12.3162
▁후진	-12.3162
지니까	-12.3163
픽	-12.3164
▁않는다는	-12.3164
▁ᅥᄉ	-12.3166
▁뜨거워	-12.3166
▁그렇소	-12.3166
▁지상	-12.3166
▁남았고	-12.3167
▁허지	-12.3168
졌으면	-12.3168
▁호기	-12.3173
▁갔어요	-12.3174
▁맞아도	-12.3174
나라	-12.3175
▁영화로	-12.3175
▁엇으	-12.3175
▁구경해	-12.3175
롤	-12.3176
▁있어용	-12.3176
▁배고프겠다	-12.3176
귤	-12.3177
▁나왓다	-12.3178
나여	-12.3178
▁보고있	-12.3185
▁#,	-12.3185
▁~?!	-12.3186
▁에헤	-12.3187
아니가	-12.3192
▁답답한	-12.3193
▁않으	-12.3193
가니까	-12.3196
▁접고	-12.3198
▁좋았을	-12.3198
▁미룰	-12.3205
▁,...	-12.3207
▁긴가	-12.3212
▁엎드려	-12.3212
▁사준다	-12.3213
▁꿨는데	-12.3215
▁뒤통수	-12.3215
▁스트리밍	-12.3215
▁요렇게	-12.3215
▁일박이일	-12.3215
▁간당간당	-12.3215
▁음주운전	-12.3215
▁박카스	-12.3216
▁팟타이	-12.3216
▁블랙박스	-12.3216
▁광교	-12.3216
▁어둠	-12.3216
▁5-6	-12.3217
▁텐동	-12.3217
▁불빛	-12.3217
▁클립	-12.3218
▁한여름	-12.3218
▁전도사	-12.3218
▁수욜날	-12.3218
▁프라이드	-12.3218
▁테라스	-12.3219
▁틀려서	-12.3219
▁빠바	-12.3219
▁없으니깐	-12.3219
▁핵심	-12.3219
▁경남	-12.322
▁감옥	-12.322
▁월루	-12.3221
▁강연	-12.3221
▁해보까	-12.3222
▁정우	-12.3222
▁보내는데	-12.3223
▁강해서	-12.3224
▁찾아보께	-12.3224
▁톨	-12.3226
▁신기하지	-12.3227
▁다니니까	-12.3227
셨다	-12.3227
▁코타	-12.3227
▁가깝네	-12.3229
힌	-12.323
▁성경	-12.323
▁귀엽긴	-12.323
▁된것	-12.3231
▁싫대	-12.3231
▁일일이	-12.3232
▁지친다	-12.3234
▁하셨어요	-12.3234
▁게젤	-12.3237
▁감도	-12.3237
▁아프다는	-12.3238
▁코리아	-12.324
▁맞냐	-12.3241
▁롬	-12.3242
뗘	-12.3242
▁넘나리	-12.3242
▁나왔다며	-12.3242
▁롴	-12.3243
▁옮기면	-12.3244
▁쓸지	-12.3247
▁탔고	-12.3248
▁구급	-12.3249
▁침구	-12.3249
었더니	-12.3249
▁떨어지지	-12.325
못해	-12.3252
▁서자	-12.3252
▁쓰래	-12.3252
▁잇는거야	-12.3253
▁숑	-12.3254
▁드리면	-12.3254
▁마쳐	-12.3255
▁괜찮을것	-12.3256
▁감은	-12.3256
있던데	-12.3257
▁봐야하는데	-12.3264
▁가져왔	-12.3265
▁릿	-12.3269
▁닮	-12.327
▁튀겨	-12.3271
▁일것	-12.3272
▁아두	-12.3272
▁하네여	-12.3275
캄	-12.3276
▁반스	-12.3277
▁오실	-12.3278
▁재우고	-12.3279
딬	-12.328
▁근거	-12.328
▁으러	-12.3282
▁내줬다	-12.3283
▁알앗다	-12.3285
랄	-12.3286
▁외가	-12.3286
▁상도	-12.3287
▁배부르	-12.3289
▁사고싶은	-12.329
▁걸리는거	-12.3291
▁해가지구	-12.3291
▁굶어	-12.3299
▁얻고	-12.3302
▁가보지	-12.3305
▁조심해야지	-12.3305
▁소라	-12.3306
▁채우	-12.3308
▁마로	-12.3308
▁봐두	-12.331
▁사모	-12.3312
▁o	-12.3314
▁식당가	-12.3316
▁깔아야	-12.332
▁^~^	-12.3323
▁없어질	-12.3325
▁생각났어	-12.3326
▁밸	-12.3326
▁2021	-12.3326
▁͡°	-12.3326
▁짜파구리	-12.3326
▁토닥토닥	-12.3326
[...]
